/**
  ******************************************************************************
  * @file    frfconv_data_params.c
  * @author  AST Embedded Analytics Research Platform
  * @date    2025-09-25T21:44:35+0900
  * @brief   AI Tool Automatic Code Generator for Embedded NN computing
  ******************************************************************************
  * Copyright (c) 2025 STMicroelectronics.
  * All rights reserved.
  *
  * This software is licensed under terms that can be found in the LICENSE file
  * in the root directory of this software component.
  * If no LICENSE file comes with this software, it is provided AS-IS.
  ******************************************************************************
  */

#include "frfconv_data_params.h"


/**  Activations Section  ****************************************************/
ai_handle g_frfconv_activations_table[1 + 2] = {
  AI_HANDLE_PTR(AI_MAGIC_MARKER),
  AI_HANDLE_PTR(NULL),
  AI_HANDLE_PTR(AI_MAGIC_MARKER),
};




/**  Weights Section  ********************************************************/
AI_ALIGNED(32)
const ai_u64 s_frfconv_weights_array_u64[4382] = {
  0x4080000040800000U, 0x4040000040400000U, 0x3a00000044ffe000U, 0x3f80000000000000U,
  0x3e8a858f3dad4dceU, 0x3d91f21f3c3347d8U, 0x3ead23e33d112fd6U, 0x3ec60e003e553320U,
  0x3e6d13fc3e07041fU, 0x3eaeb31f3eb30514U, 0x3eaf63373ea8ff8bU, 0xbcfe62503e54a77eU,
  0x3e50113e3de8216cU, 0x3db8b8f33e2942deU, 0x3e1f6b283d0bfb22U, 0x3e785ef5bd1ee364U,
  0x3cb44f2bbc72eeefU, 0xbdbdd96cbdd80064U, 0xbd9011713da476a0U, 0x3db2d4973e4a3315U,
  0x3da6a3143de75aa6U, 0x3e15e956bd77fb60U, 0x3e3a6e173d696a32U, 0xbdfe34bfbdadcbacU,
  0x3d8b88b03d400124U, 0x3eb2a5533e4a13dcU, 0xbe89ebf83c23a5e8U, 0x3def6b693d8d0b0eU,
  0xbd66d42d3e2f9d31U, 0xbe312d70bdd67297U, 0x3e6beae9bd86e703U, 0x3e09fdc83d711815U,
  0x3d0809afbd27a346U, 0x3df683413e0b8180U, 0x3df744153dcfebe7U, 0xbcee661c3d4af2d6U,
  0xbe726f1fbea5d0f1U, 0x3dc23aafbd90786bU, 0xbea6c8373cefb71eU, 0xbe1eaeb43df151afU,
  0x3e0ae1d83e482b2eU, 0xbcba2886be464263U, 0x3dd315cebea7ecd7U, 0x3e4d4fb5bdd3f70aU,
  0xbe88f227bd171915U, 0xbec24d6d3d8d5fedU, 0xbe0e13923dbf0374U, 0xbea5f651bd937d02U,
  0xbd9f2705be935cbaU, 0x3e0156f7be3892ebU, 0xbde013e1be49b028U, 0xbdc1f4b8beaaad6dU,
  0x3d2a46633ca3727dU, 0xbea28dfe3d7cf64bU, 0xbe9ffdc5bbafe5c5U, 0xbd9fb951bccd7d65U,
  0xbe6763ce3d1799a6U, 0xbdd97d6abee664b7U, 0x3e1dd93dbd933b3cU, 0xbd3fda843e19f8c9U,
  0xbed391a6be8d84c0U, 0x3d780df33e643156U, 0xbe655b943ea21df9U, 0xbe1b7226be7e2376U,
  0x3e1ec991bd427ba1U, 0xbe3729313c6cf6a5U, 0xbdc7d85bbeb755e6U, 0x3cfcd8ad3e2f90c9U,
  0xbe762f733cae04c9U, 0xbd8ea8a13d31a2c1U, 0x3dcd2cd1be40a58aU, 0xbdff1df8bec69251U,
  0x3dc183b0bea5e939U, 0xbe23f2cebd918d95U, 0xbeaf70a73db50326U, 0xbe32359f3e6f5f70U,
  0xbe17b2d93cdf517bU, 0x3cda5ae3be522b00U, 0xbd646ae3bdc955c4U, 0xbd9997c13e32a386U,
  0xbd7d083cbd2e4ea4U, 0x3c2bf6d8bc2f56d6U, 0xbbbcff2fbd8e47fdU, 0xbe879d86bdf9322cU,
  0xbd9ee6733d11a7f1U, 0xbea1f298be3c34ddU, 0xbcc62f3ebe58fd82U, 0x3d2130cebe90694cU,
  0xbe33a63f3d56f62eU, 0x3e3f145abebb31c1U, 0x3ddfcd11bdac0173U, 0x3d8bded4bec19886U,
  0x3cc0c6a5be608a61U, 0xbe3f6b103ea6c004U, 0xbd89273cbd760bd6U, 0xbe2208c03b9aad0bU,
  0xbe2996c7bdd3c634U, 0xbb5907bebe414d38U, 0x3da0e108be8ba635U, 0x3d6cbe713ca0b9c2U,
  0xbe1a72fabd93d960U, 0xbdb66742be49b662U, 0xbe731c85be2f9c59U, 0xbcfce69cbe3dc0b5U,
  0xbd57d2e2be05e2a2U, 0xbd1bfe323cbafeb3U, 0xbd0c92e13d0e65bcU, 0xbd88996bbd4c771fU,
  0xbe48df4abd9bd4cbU, 0xbe678b9bbe5cb920U, 0xbd9a2403bdb221adU, 0xbcf4ace2be2eec91U,
  0xbd8a682c3d3f8c12U, 0xbd94b3413d83f651U, 0xbd8b9609bb056f63U, 0xbda3a8f7bdc75f16U,
  0xbd7bd641be224b2fU, 0xbd310f263bf79689U, 0x3d81e0c03d40b926U, 0x3e1795823dc12b20U,
  0x3cb64d463db06d74U, 0x3dafe887bc6f94e1U, 0xbe0228e13d37fac3U, 0xbd035e49bde67be4U,
  0xbd9bbafcbdd7cd04U, 0xbcf2e6533d2199e1U, 0x3b500334bdb9113cU, 0xbdd14496bd2cd201U,
  0xbe82a871be0280d7U, 0xbe9c0567be8b6cbbU, 0xbe2acff4be983311U, 0xbe81c552be8cc745U,
  0xbca91c7c3e080652U, 0x3d128eb63e5c5355U, 0xbcd5dc0c3ec48a43U, 0x3df153423e465c04U,
  0x3deb47b93c1c6faaU, 0xbe075847be91ff44U, 0xbd9fed52bea245d9U, 0xbe96dfc8bec47147U,
  0xbe66f15dbe6393a7U, 0xbe9a573cbe6e8b41U, 0xbe709f73bee35908U, 0xbea18743be3404e6U,
  0xbe968a84beddec7cU, 0xbe10ce80bd9bb8bcU, 0xbe65c7f0bd37f927U, 0x3e03a9d2be8a26ccU,
  0xbdea080cbd0ba630U, 0xbd2de982be0d8fbfU, 0x3d1f1ef13cca3bddU, 0x3d3a437d3e12f905U,
  0x3cae8af53d9ac60aU, 0xbce53a013e018c46U, 0x3df35add3ddc5d81U, 0x3dac0eafbe03f2b0U,
  0x3d7e153fbc67f919U, 0x3e58c2893c159074U, 0xbc9676043d1990b1U, 0x3d1b1d573de66ff6U,
  0xbda18efcbc498b63U, 0xbddb5daabd41e2b2U, 0xbdf8bd23bcf41e6dU, 0xbd770b7b3cdffd12U,
  0xbc4c8468bda9d885U, 0xbe3a16b6bdb58e3eU, 0xbe38a142be7ab07bU, 0xbe4d8487bebf540dU,
  0xbec0468fbe89a777U, 0xbe12e95fbe68d50bU, 0xbe2f6a4bbe507b58U, 0xbddb131dbe21ea3fU,
  0xbe27c7c4be06db7bU, 0xbe199234bdfdfcc5U, 0xbe34dedabe104c9cU, 0xbe25fd41be3d46c8U,
  0xbdc4a72c3bbb16ecU, 0xbd0929923da2158dU, 0x3e6abdd9bcbadf7fU, 0x3c3ba9f73e1e8ffdU,
  0x3d02cdc2bc8e27b5U, 0xbd955de8bdfb0f08U, 0xbda296423d9b3f92U, 0x3e16ec2abd00a273U,
  0x3e7966ef3dc9230dU, 0x3e8ba3673e46a98cU, 0x3dc85f15bb81f270U, 0x3d240cb83d391fc2U,
  0x3d03cee3bc0aeb28U, 0x3e12dba53df0f63dU, 0x3e5919babcbdfa0eU, 0x3d9138b43e180f17U,
  0x3e24b2863e20802aU, 0x3dad91453df932d5U, 0x3d46669d3dffb283U, 0x3d69034a3d9ce409U,
  0x3d957925bdb73871U, 0x3d56b215bd994922U, 0xbb815da43dcf9711U, 0x3d28af2d3bc6929eU,
  0xbdcbbb993d648211U, 0xbdd4a0f1bc2092ccU, 0x3cbfc74bbe491525U, 0xbe1beefcbcc5ffdaU,
  0xbd8af6abbdd6e2cfU, 0xbcfa8994bd284332U, 0xbe8c3ddebe781e7eU, 0xbe2683edbe6f514aU,
  0xbe10272abe626026U, 0xbe4e40ddbe4672c8U, 0xbe104e1abd9ba7b7U, 0xbe41fa1f3c0973a8U,
  0xbe0161cfbe19376fU, 0xbcb65fdebe2ae160U, 0xbd5cea23bac3bc8bU, 0x3d471445bde7be24U,
  0xbdb524e73deab994U, 0xbdaf40d03df150f3U, 0x3e024ff23c604e3fU, 0x3d1b31d73d83a49aU,
  0x3e1b29703d895874U, 0x3da44cba3ddef68aU, 0x3d5113ba3d8263b4U, 0x3c9c1ad93ddd669cU,
  0x3ab82028be0cadf6U, 0xbd9b6100be0ae554U, 0xbd943f67bd11d4b2U, 0xbdbfa00fbdadc6e6U,
  0xbea18d06be5aada3U, 0xbe4df362be193667U, 0xbe1db6c4bf1536c9U, 0xbed280cdbea9764eU,
  0x3b9fe0edbe47fcdfU, 0xbe4cfa3cbe326b09U, 0xbe0eeb75be1c6fd8U, 0xbdd6886dbcd3d004U,
  0xbc6d16e93cdb1b99U, 0x3d2f6d733db57ae0U, 0x3db87f3a3ea8dad6U, 0x3e44f59f3e7d6b9cU,
  0x3e7cbc723d3d83dbU, 0x3e88fdb93c7cc0d6U, 0xbe026946bde65458U, 0x3d1d2f49be126114U,
  0xbe234556bcf16ab3U, 0x3e9219d7bb311283U, 0x3ea3efe63ead3923U, 0x3f1197413f1edfe5U,
  0x3f2982603f32ff69U, 0x3f1c5bef3f3ad47fU, 0x3f4279323f48f2ffU, 0x3f1a390a3f1a9c9bU,
  0x3f1737c53eff5746U, 0x3e833c383f1e0c70U, 0x3b0927e83e8fb2ddU, 0x3d55e817bb8dd2bfU,
  0xbf33b29dbeccaeddU, 0xbf370677bf24e22bU, 0xbec56fa9bf2ac2bdU, 0xbf39d0afbf063179U,
  0x3dff99cdbd4770b3U, 0xbd0b34263d91303eU, 0x3e1ab386bd46b520U, 0xbe61c3ee3e079f89U,
  0x3ab7f8f4bcf08627U, 0x3db19c9ebca0c63fU, 0x3c473f5d3ddfa6d1U, 0xbc3573cbbd4424ccU,
  0x3bc0750cbd2d958dU, 0x3da708f93dfc138bU, 0x3e00dcb53d9d6244U, 0x3d7541e93dafae7dU,
  0xbdf4e663bd89923fU, 0xbd562a2cbd904bb9U, 0xbd118919be2ca1eeU, 0x3dd5eaaf3cf94ff8U,
  0x3d39cc203dd8e4d2U, 0xb8c34e3a3ddcc3f6U, 0x3d6316c43c342c60U, 0x3d6eeacebac10cf9U,
  0x3d26e25c3d807777U, 0xbcf70a33bd3e0bf1U, 0xbbc1e03b3dac3b98U, 0x3dfe3c39bbe6ac0aU,
  0x3d70e73b3e0046d7U, 0xbe29e322bd8fb2a1U, 0xbeafa432be8602e9U, 0xbe730b96be77adb7U,
  0xbe25347cbe9ea51aU, 0x3ce534c4bdcbe098U, 0x3e85c8c13e23f72aU, 0x3d66f8603e3e2086U,
  0xbe578f0dbe1e682bU, 0xbe375742be3f84b4U, 0xbe4a5ffcbe06f22aU, 0x3dc036ab3c974794U,
  0xbc433488bd8521f2U, 0xbd8240d1bd22a711U, 0xbdbf185dbc9efa77U, 0x3d1e637f3bd625f5U,
  0xbe592596be2bada4U, 0xbe1cddd4be7a38b9U, 0x3d9b96d4bc33aa46U, 0xbc6e3b473d1cba52U,
  0xbd846e94bcd89d10U, 0xbd8ba1bfbe413ab2U, 0x3d4bc2fe3d07cfa2U, 0xbe08892cbd929c8aU,
  0xbbbbc980bdb2d213U, 0x3c5edb783d1dea98U, 0x3d32be343d60cce3U, 0xbe154d85bdafc73cU,
  0xbe444e7ebe2a705cU, 0x3d248a6fbe0d18e5U, 0x3cc927b13bc28736U, 0x3c5624183db9f4bbU,
  0xbdd84171bca39b78U, 0xbc3d4386bd7f3212U, 0x3dad5967bb46b6e5U, 0x3dd3f8863e33cc79U,
  0xbc6ad9f3bda76bc5U, 0x3ca9c5febd8367ceU, 0xbdb912bfbc8f1ca9U, 0xbe852d2bbe6cb4aeU,
  0xbea7cdcbbea3b2b9U, 0x3dbdab603cd4b614U, 0x3e6f6c4d3dd15292U, 0xbe1ad2e63e1b0d64U,
  0xbdbcd472bd6b026fU, 0xbe06976dbe0830f1U, 0x3e7b140e3e081b96U, 0x3ed3e2d73e9b2084U,
  0x3e873d5c3eb8ed03U, 0x3e2c9a793e6e655eU, 0x3d0458343d34a701U, 0x3d77b054bd8b5071U,
  0x3e2fe1b33db4f43fU, 0x3e7766583e9055f0U, 0xbc08545a3e07eed1U, 0x3d7de6a73d335db0U,
  0x3e166e8c3e269b82U, 0x3dd85a6f3de331dcU, 0x3d071eff3d985615U, 0x3d843f3b3d88f318U,
  0x3df562e93e14cb3dU, 0x3cc9952f3dcc48bfU, 0xbcbd80b8bd90d489U, 0xbe82fe07be8addceU,
  0xbd83c6d3bdf3778fU, 0xbdb9fdc83bbf4593U, 0xbc931db6bda6f8c8U, 0xbcb0e535bd037a04U,
  0x3c673e8d3d18a1bbU, 0x3d9163bf3be4a7f0U, 0xbb6c32473d230394U, 0xbd3abc443c8f1966U,
  0x3e19a2983ce225d9U, 0x3e02400c3e05040eU, 0x3c8ba03b3c6f53cbU, 0xbd91b15bbe2fee3dU,
  0xbe530915be8a4629U, 0xbdeadccdbd8da7abU, 0xbe28ac54beb2f40eU, 0xbdf9fc47be2c5fddU,
  0x3cb0cc7fbdca32afU, 0x3d4396753d2ef245U, 0x3d15c69f3afe276aU, 0xbd060c0abcb6ddbbU,
  0xbe300705bd9119e9U, 0xbe8ee9fcbe6ca6a9U, 0x3e0344c8bde07543U, 0x3df5e5633dbd6cdcU,
  0xbe1d5f09bd7efe77U, 0x3dfc90a5bde180fbU, 0x3e691b673e0fac99U, 0x3e223a7b3e22e2ceU,
  0xba9efa883dd5f8b2U, 0xbe2323a5bd316c7eU, 0xbe28d50ebe57355fU, 0xbda254f7bded5f24U,
  0x3c6efac0bdab709fU, 0x3d8caf933e404463U, 0x3e1ea1053e26f301U, 0xbc391062bbf4a333U,
  0xbc8e7753bd76e758U, 0xbcd4d9773da138eeU, 0xbda7626fbe07736cU, 0xbdf229d2bd2852daU,
  0x3e3d48983d4e65bbU, 0x3c8154ee3d0880d5U, 0xbd14d892bc03cc30U, 0xbd0ddfd43dec7dd4U,
  0xbdca7eb53c2dd08cU, 0xbe5a309cbe501570U, 0xbd646942bda46375U, 0x3da40a433c9431aaU,
  0x3d9523633d19c64bU, 0xbc424f213d7f5edaU, 0x3d772e11bc1121b4U, 0x3d8327be3ced0a40U,
  0x3cf830353d4632aeU, 0xbb9941ae3d21d8bcU, 0x3d9c65983d85f546U, 0x3db877483d4bfcc2U,
  0xbb825e78bd6ae127U, 0xbd16aa3dbcb750c8U, 0xbd436547bd3cad5bU, 0x3bf485523befdc9aU,
  0x3d17cc8e3dcc2909U, 0x3d42838e3cd92697U, 0x3da906493da24b1cU, 0x3c318a1f3c496701U,
  0x3c7c2e0c3d5edab8U, 0x3d218d3c3d0d942bU, 0x3c2a71393d288d04U, 0xbcc24427bd512bbfU,
  0xbbd5eaf6bcd6b918U, 0x3d7b6d573dab9016U, 0x3e4c1b8f3e459cabU, 0x3dcaf27e3e861fecU,
  0xbe01005fbd9e9de3U, 0xbdbe8fcabe12f5f5U, 0x3c5ebe723caad7daU, 0x3d8eb70d3d1ae659U,
  0xbdc6396abdeaced6U, 0xbe14cdb13c8d1fb3U, 0xbeab2263be3d0dc4U, 0xbd9dcd0bbe73afd7U,
  0xbdfb6ffdbe874f0cU, 0xbdbd31c6bdc09c2aU, 0x3d62ab67be38ed0dU, 0x3c85b7d2bc15c7ddU,
  0x3e1639773e1ae92bU, 0x3c9016f43de8afd0U, 0xbe6d62e2bde0153aU, 0xbe81e993be16ab0aU,
  0xbd0ae693be7a26d6U, 0xbc963a683d36f4ddU, 0xbb1b44963d8d86e4U, 0x3d919a423d9909aeU,
  0xbd0060b4bc1829ccU, 0xbcd1f73fbca7f58dU, 0x3e2b06f93dc579f9U, 0x3e5aab353e7a7365U,
  0x3e8d2c8d3e8aa8ebU, 0x3eabd61b3e5832f0U, 0x3da1bfbb3e17c5adU, 0xbd64c68fbbb6d185U,
  0xbc7ba93fbe0d3b86U, 0xbdfe2c47bdcd6cd8U, 0x39dc9db0bdecf9ceU, 0xbb8cd15b3d1fb81dU,
  0x3c747e003a568b71U, 0xbd0409b1bdb3b461U, 0xbe5c6dc0bd5ceaa9U, 0xbe161b0cbd8e523dU,
  0xbd97164dbe17b2e8U, 0xbd5d4798be310189U, 0xbda0b6da3c1b46c0U, 0x3e439866bd863d43U,
  0x3e14065d3e3e67a8U, 0x3d27dfaa3e335e8bU, 0x3dd8a3853c0ca442U, 0x3d0b94923cbdd2b8U,
  0x3e1bd8433d399a52U, 0xbd83243bbc0b2330U, 0xbe68251dbe8175ddU, 0xbe93e887be8e67beU,
  0xbdb8cf1fbe1fb40aU, 0x3abf4aa1bd1f74f3U, 0x3ceefaa0bce350b2U, 0x3d8b8a06bc6c4235U,
  0xbe1a3d53bdb05dbdU, 0xbe2e0710bd9b6b51U, 0xbd803664be0ce262U, 0xbe98ccd7bd86d445U,
  0xbeae38fcbeba8edcU, 0xbdaf2795be94e540U, 0x3e81d4f73da6943bU, 0x3e8fe4023e714c1dU,
  0xbc96412a3deb44f7U, 0xbe2210bcbdb7f13cU, 0x3c924fc3be28a3beU, 0x3cb55baf3dba2a68U,
  0x3cb496bb3d896c11U, 0x3d4dd3c53ca42d4dU, 0x3d5edec3bc650593U, 0xbe2db41fbcbe2ae2U,
  0xbe63f3f0be22e485U, 0xbd8e163ebe0c24e7U, 0xbda9712bbd36cb7cU, 0x3e0562193dc67857U,
  0x3e56104e3ddf5186U, 0x3e1bd5d63e4d996aU, 0xbdd8e109bc710086U, 0xbe1943d1be513fa5U,
  0xbe606654be831d9aU, 0xbe09aa85be5bff22U, 0x3d329737bd5ea177U, 0x3d9842bf3d8923e9U,
  0x3d6dc8653dea80faU, 0x3cb3066b3dd5e8aaU, 0x3bc12cd3bcb05c78U, 0xbdfc13c8bd2a28acU,
  0xbda7ea7abd7e183eU, 0xbc1ded96bd5959f0U, 0x3d6f744a3c919fc4U, 0x3d21c10c3c91b1b6U,
  0xbba3afb93d0091e2U, 0xbd3c597c3d830a44U, 0x3bb13718bc643079U, 0x3a7ac2c93ca8b5a9U,
  0xbd571f2cbd06ba4cU, 0x3dc81a61bbeaa989U, 0xbb8a4ec6bca372d9U, 0xbc11338fbe336f06U,
  0xbea76b70bdcccccfU, 0x3d54aa75be30c38bU, 0x3d95b23a3e49119aU, 0xbcec2b573e9c0e61U,
  0xbe2f3a7dbd0ea70eU, 0x3e4355b83c3425a5U, 0xbd9ae6723df6d9d7U, 0xbd04821ebd625fdaU,
  0x3d789e76be259a81U, 0xbec05b6fbe64dcabU, 0xbebc5b4ebec7c9c9U, 0x3d900293bdddba73U,
  0xbea07c9b3c0718a1U, 0xbe549639be964cddU, 0x3d72b530bcec8643U, 0x3e7cdf2f3e6894b5U,
  0x3e65d3853e9c8a9fU, 0xbdfb2fe73da8dccfU, 0xbd94db25be33b855U, 0xbdeb99e2be41ea18U,
  0xbde7d62ebe4c817dU, 0x3db34c5dbdcd0639U, 0x3def99e33e269423U, 0x3d97ef163e30003fU,
  0x3d30bced3d132e93U, 0x3e07fcb23c81de8fU, 0x3d4f95523b32cd17U, 0xbd5bbec5bcb07b84U,
  0xbeb9ba1dbe40cd67U, 0xbe91469abeb522d2U, 0x3c4798f5be2561b1U, 0x3e31bf6b3e466a97U,
  0x3c8335473d96e602U, 0xbd95bc7d3d79b772U, 0xbee33fd8be926caaU, 0xbeb691e6bf064fc8U,
  0x3e624646be2d4a44U, 0x3e6fbd4b3e5659bdU, 0x3dca5f9e3e236ceaU, 0xbc12991d3a97e2bfU,
  0xbdbb7f0dbe0d27c7U, 0xbe126894be682c20U, 0xbed80196be883508U, 0xbe8539aabead7ab8U,
  0x3d5b66eabbba2703U, 0x3d495ec4bd9578d8U, 0xbc9823abbc34af02U, 0x3cf565efbd357980U,
  0x3d56c5333df98ccdU, 0xbe12eb7d3e6473b3U, 0xbed513afbe3dd9b7U, 0x3e127d62be4f1663U,
  0x3e872bb33e6a886bU, 0x3e62d2623e38e919U, 0xbc18ae5c3e25920eU, 0xbd95edd53e1d891bU,
  0xbd950b74be3df8c5U, 0xbe8f0880be15c88aU, 0xbf332e8abea5652fU, 0xbf2a459dbf5a6fb8U,
  0x3d196f3bbe2a7084U, 0x3eb4e58a3ebdea70U, 0x3e41d7573ee64827U, 0x3d9c5a67bd4972acU,
  0x3dfa35293d03f597U, 0x3e67b9343e1f4b38U, 0x3eb10d543ec61dc8U, 0x3e658abc3e1b752dU,
  0xbdae0d30bde2152aU, 0x3da093c2be0402e2U, 0x3ce9fd3dbd203d5cU, 0x3e12bd9b3d715b40U,
  0x3bbeb7b33d8ec8ceU, 0x3de43cd6bcb8e28fU, 0x3db4f8bdbd94ec9dU, 0x3e60a9393e85399fU,
  0x3d8c3c5d3e1f6883U, 0xbe1318be3d16cf39U, 0xbe269b64be2ef874U, 0xbdd8b14fbdbdb4d5U,
  0x3dcad0e1bc7bf85dU, 0x3d6dd7053df93899U, 0x3d7254e93d1b8dafU, 0xbd53f16fbd2b3845U,
  0xbdf3ba43bc232de7U, 0x3b89eec5bd6cb406U, 0x3e26e0be3e2d4d3cU, 0x3b9c13033df6ba35U,
  0xbe8d16aabe82ac96U, 0x3e22e1e8be2d2632U, 0x3de936bc3e0381e3U, 0x3e54fb7d3e3e45f0U,
  0x3e20f9b43e496d66U, 0xbdae36bf3df6a5e4U, 0xbe7343c8be4f23dcU, 0xbdf1f9e9be993a7dU,
  0x3c84001b3e11f9edU, 0xbdf3bc253c7e8568U, 0x3df723eebd0fba28U, 0xbdc490d8bc6b40e1U,
  0x3cfe80ff3d8a59afU, 0x3ea688a13e6a3eccU, 0x3dca56d13e9735ecU, 0xbea4c2debe925093U,
  0xbee83ec3bf209a89U, 0xbdf6e22fbe53e386U, 0x3e2fdab43e5e1190U, 0x3e0675633e6608e0U,
  0xbf2e3b7fbeb766c0U, 0xbf9b6f20bfa7c322U, 0xbe286a8cbf40a02bU, 0x3e9264ca3dbe785aU,
  0x3d0676cc3d166533U, 0xbe1fe0a2bdb299a8U, 0xbdd98d40bdce243aU, 0x3e1ee5273d91821eU,
  0x3e78e8223e363728U, 0xbd0e54eabbe829ddU, 0x3c794237bda56e62U, 0xbe201d3dbdeeb0bdU,
  0x3d90c2013c6fad02U, 0x3e3a53b73d41fe84U, 0xbc29dbb03dc09b81U, 0xbc889cc7bd9a2fa5U,
  0x3d35b3ee3bd6519cU, 0x3c3996443c283a46U, 0x3da245e63d80c194U, 0x3cb17f513d4b3aefU,
  0xbd3a7f6ebc1dd805U, 0xbe926253bde25eb3U, 0xbd4b4c83becbbbe5U, 0xbe9bad57be3402fbU,
  0xbda531c8be0d9ce9U, 0xbde487a1bb025c3fU, 0xbd70e9bdbdc7a1fdU, 0x3e4a47163e1563faU,
  0xbd4df0743dcc955cU, 0xbdcbd293bd687247U, 0xbdce85e2bd91ea0bU, 0xbddae12ebe0ffad0U,
  0x3e0074fabdf5cf90U, 0x3e2106683e2ff0d0U, 0x3e8f51bf3e778abeU, 0x3e404b713e943520U,
  0xbe7eae77bc45e631U, 0xbebfcfe5be944aadU, 0xbe4d4429bea787daU, 0xbdfa4c77be504981U,
  0xbd4f5867bda81fc8U, 0x3d80c5183c914f97U, 0x3d9fc04d3de55431U, 0x3e85f98a3e729f8cU,
  0x3e682b553de709a2U, 0x3de0aca33db6a141U, 0x3df3aa413e034858U, 0x3e5f3fb53dacc4c6U,
  0xbe42366b3dac948eU, 0xbea34601be958906U, 0xbe5ffea7bdf2d6e0U, 0xbe548ed3be42d6d1U,
  0xbe8b8e08be1ca8f3U, 0xbdbad346be1f0318U, 0xbd3b8938bd95f4f3U, 0xbd957588bd45d2b7U,
  0xbbe1fbfebc85b0e3U, 0x3d3914d03d26309dU, 0x3d933d6fbd206d57U, 0x3c25686a3b8a91faU,
  0xbb653745bc201739U, 0x3bf4c1f9bd538febU, 0x3ab95ccd3d4ecb14U, 0xbd89cf4ebd55d025U,
  0x3e13f3603d2f6a56U, 0x3ea67ed63e0f0ec1U, 0x3df9a68d3e62776fU, 0xbdc428563da54888U,
  0xbe795d9ebd6b5587U, 0xbe1266a5be5261e9U, 0xbda74d08bda5030eU, 0x3d100f8d3d059199U,
  0xbb3838a43e54f618U, 0xbe0bb9cfbddb45ddU, 0xbd63e2e4bdc8a343U, 0xbe176071be00a4dcU,
  0xbe4bdbe0bd9f36e1U, 0x3d2f99233cf4b591U, 0x3d5d0fdebd121cb4U, 0xbdee76f8bdfedd77U,
  0xbe8dc012be320aacU, 0xbdd59462bd97b5b3U, 0xbd3bca51bdd605eeU, 0xbd041542bdf66e22U,
  0xbe0ec61cbe52423fU, 0x3e54accebdd07bbfU, 0xbe8087c0bdc90258U, 0xbef2fb22bf275baaU,
  0x3da1afe5be57a940U, 0x3cc05f713e5dcd6eU, 0xbd7d7aa5bd8c416dU, 0xbe0e817cbe0e36abU,
  0xbda5097a3c40d792U, 0xbe4a9cd2bdab3202U, 0xbe38d947be8a8552U, 0x3d1edc7abc6e953dU,
  0xbcddb31b3d2658efU, 0xbd815a04be3a70a4U, 0x3d104e1d3dde623cU, 0xbd819d33be2e7d83U,
  0x3e0cc6833b94c850U, 0x3870e2453df9332dU, 0xbc569f42bd8cd6e6U, 0x3dae0c513cb3096eU,
  0xbe245a18bdf2322cU, 0xbe536bc5be34116bU, 0x3e01bdf4bd7280f2U, 0x3c0d53023d9b1705U,
  0x3dcdf1a93d2842afU, 0x3dc7d7743e0d8dc7U, 0xbdd42458bd393108U, 0xbe014162be29dbabU,
  0xbe4e0fcbbd4f2f03U, 0xbe224a2ebcb06744U, 0xbd25bb63bd23bc14U, 0x3e10c1883d78628aU,
  0x3ebd5ae63e86a192U, 0x3d8d5e7c3e27de98U, 0xbda9cbfbbe3c0e63U, 0xbbdd333fbda5c914U,
  0x3d854f503db89069U, 0xbd4576d5bdffd683U, 0x3cfbf1933dbf382eU, 0xbe788258bdedc2b3U,
  0x3e674fe6be17d51fU, 0x3e9281f53e2c6d92U, 0xbb2deb8b3e49c413U, 0xbe493969be22d913U,
  0xbda9f57abe69ca08U, 0x3dc54b1f3d0b58bdU, 0xbc47f1cf3e02f362U, 0xbd3e6fd23d197960U,
  0x3e07bd523e409dcdU, 0x3d01dd323e1dac4fU, 0xbe0d2ba5bdb8461bU, 0x3d1e650ebdd8d9feU,
  0x3d8f03d73dd9b171U, 0x3d2636163cba9767U, 0x3d1c08b93d350530U, 0xbdc3030c3d55da27U,
  0xbe1d2597bd9980eeU, 0x3e3ce4fc3cd3ab01U, 0xbd50e5ba3dbd4ff4U, 0xbcfd65d0bdca3e8aU,
  0x3d59ae2c3d9772daU, 0x3eae21b33e66d6fbU, 0x3e38d3bf3e81ccf3U, 0xbe3349ebbc0bc050U,
  0xbea2820abe5a3fc3U, 0xbf0c2980beb2d6cbU, 0x3e8660f4bf05a394U, 0xbde62253bdb3e9dcU,
  0xbd4600b5bef381c5U, 0x3e49a6af3eb40fddU, 0xbe8cef19bd95cd65U, 0x3caee4b7bddbc211U,
  0xbe22f7f4bd554016U, 0x3dcb440cbe8b0a6bU, 0x3e96ce1e3eaa6cebU, 0xbd440d19bdb97296U,
  0x3e036f6a3e5dfaa6U, 0x3e06ab2b3d792c3bU, 0x3ddf3b873d653f2fU, 0x3e1e8e963d79f940U,
  0xbc9084643ddcf601U, 0x3c975155bd3b9b31U, 0xbdc387493ab717d4U, 0xbf06b94bbe5f7494U,
  0x3deb834abf105acfU, 0x3c9afef53e296951U, 0xbd558fdebde4edecU, 0xbd92e695be0300ceU,
  0x3e069846bd75ec8eU, 0x3d5a8ffa3dc5c8c3U, 0xbc3c6b773cdb5e63U, 0xbcdc07673dbe4904U,
  0xbd93af69bbe8a34aU, 0xbe8e862abe28a9deU, 0x3d9850aabca1710dU, 0xbe0bceaebe5e0426U,
  0xbe319678bea4adb8U, 0x3e9eb1d83e03e4f1U, 0x3de5e0193e554ab2U, 0x3c0c7bad3ca6aaf9U,
  0x3e0f2e493dae2bd1U, 0x3db41b933d9ae2f8U, 0xbe773450befa8ecdU, 0xbd8998983dd66c74U,
  0xbbe184f93d48048aU, 0xbe80434d3e09f95eU, 0x3bbe5dafbe7758a2U, 0xbdbb69ea3e747ca1U,
  0xbe60bf6bbe946e67U, 0xba61babfbda49bd1U, 0x3dc844553e347190U, 0xbea31235bb37f138U,
  0xbd9d4227be29c12cU, 0xbd418630bd09048cU, 0xbdd7176cbc359461U, 0x3cc951e93cecf4ccU,
  0xbc6a55323dbb35feU, 0xbe0388cbbe7ecd39U, 0xbe6598a6bc7a56e6U, 0xbf1dcde7bec7a712U,
  0xbeef9594bed896c1U, 0x3d7bad703c1249ecU, 0xbe274fbf3e271018U, 0xbe11234dbdb3cf23U,
  0x3c88e6853daebee8U, 0x3d7627693e7116aeU, 0xbd96a6933cae0a3bU, 0xbeb26015be2b8070U,
  0x3e670315bda65459U, 0x3e9778273e954540U, 0xbe35f3343bffad44U, 0x3cc6d532be6d962bU,
  0x3d6279f0bcaa171aU, 0xbdc8e40cbe2e7644U, 0x3c9f50383ba53385U, 0x3e2034dc3e8a1e9aU,
  0x3e3ba9ed3e1f4051U, 0x3e1765bf3e90d8f1U, 0x3e102992bbf2708aU, 0x3e34551b3e370eb2U,
  0xbde4fde9bd4ab863U, 0xbec6dbc9beea9b8cU, 0xbe9a3259be89355bU, 0xbeaf1a04bed7e466U,
  0x3e503e4ebdce5843U, 0xbd5fb6683d699fbfU, 0xbd027e9ebe9e0e98U, 0x3d9ecb553dcae46bU,
  0x3c9cb71c3d358a7fU, 0xbdb66c63bd8df2b7U, 0x3e8358473d41ed84U, 0x3d7cfbe13de35519U,
  0x3e7d089dbc88946bU, 0x3e9399893e90f206U, 0x3e7101873e8cbf7aU, 0xbdef4d1d3e07c7f6U,
  0xbe55ca0abe03d483U, 0xbe45fb75bead3198U, 0xbdeb89f9bdf53a6aU, 0xbf1808bfbee9fe42U,
  0x3c836af5bd1c90daU, 0x3eab1cad3c8ea22dU, 0x3bff91423db556e0U, 0x3d4695973db9f979U,
  0x3d8f5fe63e09dbb7U, 0xbd61e17ebe1f0650U, 0x3e1040f7bcc7684bU, 0x3e1830313e32a294U,
  0xbe5ced93bdca3d80U, 0xbd2a6221be89f567U, 0x3dfa88293d684d21U, 0x3e3ccdb53e3465beU,
  0x3ce1905f3cd2b3ccU, 0xbd8581ee3dc3adceU, 0xbd383a1f3e4a0700U, 0x3d748324bd3e6a70U,
  0xbd5c258ebd4428deU, 0xbd95e378beb0237aU, 0x3ed219dd3e4f5c6dU, 0xbdb83e873e908f2bU,
  0xbe173400be247e43U, 0xbd1dc94dbe1c4616U, 0xbde5004e3d12061dU, 0xbe10fb87bef00d35U,
  0x3a898e96be72aaaeU, 0xbdc661c3bc5eb31dU, 0xbf2822e2be846a42U, 0x3c8ac02abe5a1327U,
  0x3eb7b38b3e8e3872U, 0x3da096533e869a43U, 0xbd168040bd0e3149U, 0x3d674e603e63d9c8U,
  0x3d1be107bca051c4U, 0xbf02c599bf1307adU, 0x3e428374bdf5b002U, 0xbdad0bf13e5602deU,
  0xbe2397e3be6ae8d8U, 0xbd6d0a34bdc07d74U, 0x3e1c87f73d4f7462U, 0x3d91fae33e36d9f3U,
  0xbd767467bd406f3eU, 0x3d726a153de23958U, 0x3e0260113dba0789U, 0x3d7a2f773d218d0dU,
  0xbc6689d53c866dabU, 0x3d227c86bcdb4b40U, 0x3dd923e53d1140efU, 0x3d6e34ad3d43f931U,
  0xbdbaa4ff3c734b7bU, 0x3c327a743b78212fU, 0xbc0f36e43c51a4dcU, 0x3d48003bbcd04220U,
  0xbd8233e33dda542dU, 0xbd1c8f02bd823c7eU, 0x3e5d856c3ddead2eU, 0x3e83e6ae3eb257a1U,
  0xbe5a188dbcfb5c3dU, 0xbc2b405cbe7ff717U, 0x3e03d9823d92af2aU, 0xbdd772633d5eb262U,
  0xbe5cb631be236b8eU, 0x3cc5a7f0bbab3424U, 0x3e8e528f3e222bf4U, 0x3e3fbd8d3e87d9e1U,
  0xbd8d098b3c8a0907U, 0xbec7f205becb6456U, 0x3d8db9dcbe2c9aa6U, 0x3cb40f4e3e421dadU,
  0x3c25f6c4be0a111cU, 0x3dadfbbe3b332215U, 0x3dc03e863e2197daU, 0x3d7654e7bbbdfc58U,
  0xbdd0d9653d554ebbU, 0xbebb70b1be9e7e23U, 0xbdb4b4cebecaa01dU, 0xbe88fc0dbd48a80cU,
  0xbe207f24be751828U, 0x3d8a983f3b325e52U, 0xbce2078f3d8f5d01U, 0xbc8d5615bd4ababaU,
  0x3e2f2c9d3d8e28b1U, 0x3e670d623ebbcde8U, 0xbe1b1ba5be13418eU, 0xbe0b22d2be487070U,
  0xbe3e8107be092f92U, 0xbe053091be01cffeU, 0x3d8b3f293d9717b2U, 0xbd1faef9bc36c915U,
  0x3d6063aa3d75062dU, 0x3e62a3e13d9893d3U, 0x3d913dbb3d82fb91U, 0x3d462d9d3d3997ceU,
  0xbf05510dbdcc2845U, 0xbe2a9b53bf0046fcU, 0xbdc9a712bdd091a2U, 0xbe1c0677bd09479eU,
  0xbe195ddcbe500666U, 0x3e467efb3cb5c207U, 0x3e1a44953ea94256U, 0xbe87e7563c268223U,
  0xbe4e142bbe7854eaU, 0xbeaa5d8fbe913e2aU, 0xbe01a1fabec1a832U, 0xbe7a039abe755278U,
  0x3b19ce9abd33711fU, 0x3e8d57913e6230e6U, 0x3ea9e5a53ee68f9cU, 0x3e4d13663e949e92U,
  0xbd9c1dfb3d5e78feU, 0xbd91496ebe48b565U, 0xbdb8f7b73dcc2bceU, 0xbd37b95ebdc4bbc2U,
  0xbd540db6bd31a951U, 0xbc1cf1a9bd8d67dfU, 0x3dddaa6b3c9762d6U, 0xbdee6250bc72a9e5U,
  0xbe4c0d3bbe794b42U, 0xbdecb393be4bae45U, 0xbe330cc4bdcc492fU, 0xbe7ac049be3d20ecU,
  0x3bbebe89be5e6fe9U, 0x3c4be8663e18f2b9U, 0x3d191d853d123467U, 0xbd7bada9bc2e4204U,
  0x3d746707bce45ebeU, 0x3ca2124a3e1048b8U, 0x3d1e738dbd3e0bebU, 0x3e61cd413e4bea7fU,
  0x3e2b82603e5fe08bU, 0xbc7faeac3cf96b79U, 0x3d2e9ff1bd8960d7U, 0xbcd818ca3c53b6c6U,
  0xbd4e6c24be3d0bdaU, 0x3c68f5923d8db7a7U, 0xbc734a07bdf89417U, 0x3e216d8cbca56c1bU,
  0xbcc961853e001fc2U, 0xbdafe5e1bc2f5407U, 0x3c096d9ebc360fb5U, 0x3dd1ccce3e216d76U,
  0xbe14bf61b9cd767fU, 0x3d150439bd2b3d78U, 0x3cc532853da00926U, 0x3dbee7393db6715bU,
  0xbd18d0d23de1d4b3U, 0x3dcf07dd3c68f0c8U, 0x3dd61a463de5687fU, 0xbc9735ad3df02509U,
  0xbdb9f158bd60dd7cU, 0x3ce56a55bddaafa4U, 0xbe017d3bbaf282d2U, 0x3dc89c6ebe01eb92U,
  0xbcfb82393d44ee23U, 0xbccf36e4bdf76b9aU, 0xbb4d92483dac1ef5U, 0xb97581eebca24cc1U,
  0xbd70daa0bd7b278aU, 0x3d59ffffbd233690U, 0xbd4bc2583da02de2U, 0xbc360d8fbdb125baU,
  0x3e78bbd33ba409d4U, 0x3d9b1c8abdae416eU, 0x3df3f9753e2ab2afU, 0x3d54de9b3e10b92bU,
  0xbe65d5ccbe0503a8U, 0xbe67e577be7cd5d4U, 0x3ca7d9d4bd89f864U, 0x3c108ec03dcb4d79U,
  0x3e5cefce3e46c6f3U, 0xbd926cbe3e5b7094U, 0xbc24fe80bdadbd9cU, 0x3e6a1d503e08416bU,
  0x3e3ad6453da065a1U, 0x3dc09a2c3de3092bU, 0xbb7042873dba3ac4U, 0x3d7371603d580bb3U,
  0x3d727356ba3ed517U, 0xbea347a5bdeb1a8cU, 0xbdfdd94abebe9b27U, 0x3e0b82e73d3ddec2U,
  0x3dc62a833e4533cbU, 0x3e849d353e5a35afU, 0x3e60fedb3e8cd65dU, 0xbe1cc3f23d20b090U,
  0xbe6ff9a4be69f2d4U, 0xbe246890be1d83b4U, 0x3e34de4b3d7fee05U, 0x3d8b72cb3e6e3425U,
  0xbdec0e5dbd8ffbcaU, 0xbe0d4abebe22f2cbU, 0xbcec9911bdd2ffb8U, 0x3d35036f3d05d37dU,
  0x3e0121c73d82139dU, 0x3d29f55d3e009ee4U, 0x3e8ce7453e0961cbU, 0x3e63cd033ea8637aU,
  0xbcc2b6943de985f7U, 0x3c3be451bd2b84dcU, 0xb84e92933bbd8664U, 0xbce335203d4894e7U,
  0xbe03194b3d11e447U, 0xbe6633d9be5a506dU, 0xbe1db375be8b41f9U, 0xbd01f4b4bd014265U,
  0x3d880b353db30de8U, 0x3bcfab9c3e084546U, 0xbe31f6b5bd4abbe2U, 0xbea8e078be269a3eU,
  0xbd5c60c0be93c3a1U, 0x3d9536673e033735U, 0xbc4d1ba13d4850d8U, 0xbe20779cbdaa6c2dU,
  0xbe67a28cbe04b77aU, 0x3e050dd7bcaf496dU, 0x3e5854873e66a88cU, 0xbcadcc813d7d8f60U,
  0xbd005652bcad8952U, 0xbcff6af43d15cf77U, 0xbd59f5afbb02d5f0U, 0x3d9d6a863cd5e30aU,
  0xbe059d593bb9ade9U, 0xbe31c7a5be49ee09U, 0xbd9339eebe2e2b2bU, 0xbe61d5b5bccfea4eU,
  0xbea67ae5beaac20eU, 0x3ad30b6fbe5fb889U, 0xbc3db643bd7b7ac5U, 0xbda9b7cf3c9ec7b1U,
  0xbda618f9bdf99c19U, 0x3ddb0a88bc103d3cU, 0x3d5eb5d23d23b0e4U, 0x3d4252dc3c8dcaecU,
  0xbe24472a3c376df7U, 0xbe1c5c61bddff910U, 0xbd45462fbcd78cb0U, 0x3e33d5793d8084f4U,
  0x3dce8d5f3dde5e91U, 0x3e50d6473e618418U, 0x3d0f5a093d50d8efU, 0xbe23f654bdd9e537U,
  0xbda9b03abe462be4U, 0x3e2169f23d92eceaU, 0x3e809a203e49f072U, 0x3ce452913e00e413U,
  0xbe1b9c00bdf3458cU, 0xbe896021be584561U, 0xbe89d55ebe886f97U, 0xbd9761a2be25ab64U,
  0x3e0ffe63bca0d038U, 0x3df5a80a3e183281U, 0xbe5089ffbd8b06f8U, 0xbe821477be16c1baU,
  0xbeedeaeebe9a2f3fU, 0xbe6b43e4bec9e7c1U, 0x3e908b2d3e23b36bU, 0x39b3f1da3e459909U,
  0xbd52235ebdd9c83aU, 0x3d4dbc1d3d551835U, 0x3c602f353da465c8U, 0x3e0fd3533daeb303U,
  0x3e81e25e3e97c112U, 0x3e1348e03e09206fU, 0xbceb21d33dc7d924U, 0x3dd4baf53c8d6ba9U,
  0x3e1534413e155365U, 0x3e4681f63e43b9aaU, 0x3bf526f63dd8691cU, 0xbdb4b951bd094eb5U,
  0x3d907c703ba06e63U, 0x3e6224a03e889d2bU, 0x3e96929d3ea2b387U, 0x3e78266f3e96b171U,
  0x3d26ce423dff6b9bU, 0x3d8f296f3dd8ba88U, 0xbe057a2f3c5587c7U, 0xbd832591bd80bf89U,
  0xbe23d76fbe0b3d90U, 0xbe011ebebe564f52U, 0x3e1981b73dcc68c9U, 0x3e24b2eb3e820355U,
  0x3d262ec13cf613a9U, 0x3ddfc7303d864efeU, 0x3e3b14b33de022adU, 0x3e74031b3e71e1a0U,
  0xbe72365bbc4a3945U, 0xbc0a85f4beaa0364U, 0x3e1243483e746f8aU, 0xbdcc80dcbd655947U,
  0x3ecac64e3b4b703aU, 0xbde3d61ebe124922U, 0x3df803f73c92be70U, 0x3de088c83e2bf8ddU,
  0xbe180dfcbdac0e8eU, 0x3ddbdf9d3cb42cbaU, 0xbdd05b09bd054065U, 0x3cf68f4e3e9a3934U,
  0xbe4ce040be9db284U, 0x3b827f183dcaf3d2U, 0xbd60cd2abd212514U, 0xbe0398ad3c3156a7U,
  0x3d21e606bd284e79U, 0x3d027cbc3d83f277U, 0x3d143132bd191d3fU, 0x3c6a66fe3d7afa92U,
  0x3dba4c233db949c1U, 0xbdaa19843ce0c300U, 0xbce601aabb57909bU, 0x3d47ad22bd8c61f2U,
  0xbc5e54913da6b56aU, 0x3e3668ed3e122125U, 0x3ba4df17bc8a8c02U, 0x3e7c98dc3d70325cU,
  0xbc1a9e713e3c9172U, 0x3d9c95c73b4ea85dU, 0x3d0053503d3d1275U, 0x3cf8ca05bd48f405U,
  0x3b47be553e0d2539U, 0xbdb7db31bd82eb36U, 0x3d2c54853c5fa67aU, 0xbc89db3abc921527U,
  0x3e176101be2374a3U, 0xbd3b7de13c3e0a2cU, 0xbe0a8427bd159df9U, 0x3c0d6ba2bdd58514U,
  0x3d171ecabd6b0825U, 0x3bd535163cc548f4U, 0xbc01de1b3d5a3a89U, 0xbe39607ebd3828edU,
  0x3e0e5b46bd916129U, 0xbe07c18ebdc14458U, 0x3b88b2733dc18909U, 0x3deab02a3d872bfcU,
  0xbe811143bda1466dU, 0xbe8071a1be90dad6U, 0x3e270d7bbba2e1a1U, 0x3e15506b3dc85f75U,
  0xbdd73a19bd8edddcU, 0xbda03f30bd5a21c6U, 0x3cd46162bd97ea77U, 0xbe8427813d67ee1fU,
  0xbd5b7187be58befdU, 0xbe4a1051be594150U, 0xbdcdfbf0bd89519cU, 0xbdaf3ddebe8175a7U,
  0x3dbf33443e0cfdedU, 0xbe90f925beac5f27U, 0xbc8930c3be4629f2U, 0xbce1d7853d81a381U,
  0x3e156dc33c12e4b8U, 0x3e2ee66e3dd6b30cU, 0x3d8233813e6099daU, 0x3d45c1cd3d031f93U,
  0xbe191b2ebcd9efa1U, 0xbcde315bbe4f2f08U, 0x3c7d8e343e359ac9U, 0x3e2832633dfaa84aU,
  0xbe0a7111bdd6bc88U, 0x3e2391ae3d33284cU, 0x3dc1ffbb3e9634deU, 0x3e5317793e1d50bbU,
  0x3d682ad33e0747feU, 0x3e8d6ec63dbb684bU, 0x3eda85d53edab5e5U, 0x3edb8e943e58bf74U,
  0x3dd4f80c3e8ec154U, 0x3b4d098b3d359dbbU, 0x3d0de19f3e387eceU, 0x3de418adbc6f2f6bU,
  0x3cf090173d077402U, 0x3bd9a5933df4b438U, 0x3e1c13653ed51423U, 0x3df353df3e4fd320U,
  0xbde9f042bd278a6cU, 0xbdc0fee8bd70a401U, 0x3c94a98fbcc344c5U, 0xbe7065543dc200eaU,
  0x3dba14debd7410adU, 0xbe26fc8dbe092c26U, 0xbbccf7393d12192fU, 0x3c77fb6ebd9855bfU,
  0x3e59c85a3ec7b55bU, 0x3c63e6873c2b1e1dU, 0xbc92de183e5341b4U, 0x3de98bd4bd8ced59U,
  0x3e0fac803e4e7939U, 0x3dbb5ddb3ce54074U, 0xbcb118673e8ea508U, 0xbcc7243fbc8f047fU,
  0xbddbd93abc9aeae1U, 0x3e2e1a733df4d17dU, 0x3d61020e3b60b29dU, 0x3d41ceeb3c3f6320U,
  0xbdf60918bd834e10U, 0xbe135349bd736403U, 0x3dd2129ebc5838fcU, 0xbdc49f1f3e3466d3U,
  0x3e71cb953e01dfe3U, 0x3dcc126dbe2bff38U, 0x3e2524db3e37f2c8U, 0x3e196db5bdcd7079U,
  0x3e6b319e3d858df8U, 0xbe1b4ce53e31aa4bU, 0xbd0824be3ac2f7abU, 0x3dec00613dca20feU,
  0xbe0a3fbbbd924d5eU, 0x3da8d800bd341c9aU, 0x3e53b6443ed61c25U, 0x3e0953d3bd941251U,
  0xbe37826bbd076612U, 0x3d63cb36bd9f5f46U, 0x3cfe395fbd917a46U, 0x39dcf5db3cf0b31bU,
  0x3d0c3a713d5f629eU, 0xbdd593553e04f083U, 0x3bdffdbbbe0447b9U, 0xbd37c4a73e2cc957U,
  0x3f45342b3f1a7318U, 0x3f95b24fbeb14c0aU, 0x3f17d46a3f8c8cf6U, 0xbfa79a823e555c05U,
  0xbd44d548be8721dbU, 0x3eed5303bf4bb12dU, 0x3e7272933d880102U, 0xbf0fca293ebdec8cU,
  0xbf0f80213dd3838dU, 0xbd6bcdc6be3e090eU, 0xbe1ff0cdbdc84ac1U, 0xbee0ddc83e99bd19U,
  0xbf0743dcbf99322cU, 0xbde15d463e2caab0U, 0xbe21c25c3fb0c051U, 0xbe4e1d35be76c1deU,
  0xbd7375f83ecc073fU, 0x3e800903bd87f003U, 0x3d89c8923f0c8a0aU, 0xbea0f32a3ec3ff8dU,
  0xbe2e8bddbef9493bU, 0x3f010750bd2bb46fU, 0x3f3cc956be11ac3cU, 0xbe833fa4be546843U,
  0xbe5a90a33e54d477U, 0xbe9f9b233e928742U, 0xbf1f85e03eb3b61bU, 0xbe80abf8be90e346U,
  0x3ea85dd33ecb7673U, 0xbf74cf09be1ba646U, 0xbddf7d933c1b1a46U, 0x3c643ff0beef2629U,
  0x3ee62deabe7a8f63U, 0x3e1ff420bf0e467dU, 0xbf1814313e456703U, 0xbbfa2d993ed7261cU,
  0x3dec7d79bde04f38U, 0xbf84bf6a3eabb6fcU, 0x3eaf3a603ddf72edU, 0xbe2788b73d860680U,
  0xbc7e8ff9bda6ed50U, 0xbca084a8bb334a8cU, 0x3d899fd2bdb30040U, 0x3dc2ac683d5588b8U,
  0x3d0369323e0299b6U, 0xbdc3051cbd122444U, 0xbd517a08bd492972U, 0xbce66e7cbdb72644U,
  0x3cb0659c3d543224U, 0xbd19d0623b756dd1U, 0xbd8a5607bd2fca34U, 0xbc361599bda02431U,
  0xbd04169bbc60e2f2U, 0x3dc8b7a83c2292dfU, 0x3deae8753db65331U, 0x3e09f9473dee9c33U,
  0x3da898113d0aadf8U, 0x3cafd2a53d778f75U, 0xbdf5c9aabd0fece8U, 0xbc9532633c8b0590U,
  0x3e28a0dc3de50523U, 0x3db418273e08e31dU, 0x3dac9371bc060344U, 0x3d1a1278bc37fd7eU,
  0xbcc494afbcd7b847U, 0xbd30804abd8137adU, 0x3cc24425bc99da44U, 0x3e5a7c243e34f77dU,
  0x3e54151b3e93399bU, 0x3e268eaa3e6ca393U, 0x3d8da9e03e432e36U, 0xbc8e703ebc5457ecU,
  0xbd5ba1a9bd636ca0U, 0x3d5a22793d98968dU, 0x3dcce11b3e04b68bU, 0x3d15bdf83df9f0b1U,
  0x3d84418c3d981251U, 0x3b94f3793d255363U, 0xbcb58d32bd944bd5U, 0xba583e76bd0915a5U,
  0x3de45dfbbb93aaf5U, 0xbd3cd2a33df13e67U, 0xbe56b3efbde0361bU, 0xbe78d617be70cc5eU,
  0xbc612efdbc837929U, 0x3e0635fe3d9dbfeeU, 0x3e26069b3d8bc85dU, 0xbc3864573dcba065U,
  0x3d544fff3d41c07fU, 0x3da0a1f43d39f214U, 0xbc960c693da405f0U, 0xbd0859e6bd729319U,
  0x3e10edcb3cc77e8eU, 0x3e9d808c3e464528U, 0x3e30d3b73e3c48b2U, 0x3d43df593e2438d1U,
  0x3d4333923dfec2e9U, 0xbe6a290cbd416ea4U, 0xbea59f69be987341U, 0xbe17e472be4d4b36U,
  0x3d908125bbd09729U, 0xbe0e8cb3bd89c56bU, 0xbd4ad167bd8887b1U, 0xbda03d0abd262dfbU,
  0xbc7f30b6be192b26U, 0x3e1e0ab63dbda44eU, 0xbe7db358bbaeec34U, 0xbe6be59fbe5da32dU,
  0x3dd72814bd922d26U, 0x3e5fbaa13e031b38U, 0x3e2d634f3e7ff95aU, 0x3d4b36083e11e494U,
  0xbbdd03533bb286cbU, 0x3d9cbb31bcbaafabU, 0xbe548829bda9e46aU, 0xbdfee31dbe912406U,
  0xbc7b5ebdbd8d594cU, 0x3e1daa9f3db4298eU, 0x3e0138693e0fce81U, 0x3c408bdb3e0903dcU,
  0xbd2852c6bd0af67aU, 0xbdc437b3bd908e30U, 0xbde48104bda68562U, 0x3d5172373c46ca34U,
  0x3d0fb2a23db2adacU, 0xbe15fca3bd9f045aU, 0x3ca27d50bd9ba465U, 0xbd527f243c435f73U,
  0xbd04a2f4bd55f7f7U, 0x3d1c004e3d55536dU, 0xbd0a03b6bb99533eU, 0xbcc125313ccac2d8U,
  0xbd66baa2be15fbe1U, 0x3da513ce3a931313U, 0xbd0eea593e10ab3eU, 0xbe0e515ebb87dec1U,
  0x3c75548fbdd397b7U, 0x3b03651bbb72faefU, 0xbdc6cf0e3cc8d319U, 0x3daa0894bd19576cU,
  0xbd4cf97e3dc93f60U, 0xbe0bdf2dbd8002d9U, 0x3d3afd0bbd88d05bU, 0x3e48aaab3e8ef382U,
  0x3de824303d992db8U, 0x3db4ddc03d47af40U, 0x3c1d71a93d9c35a3U, 0xbd2544f0bda9a1d5U,
  0xbdd0587abcca92f1U, 0x3c8b05a1bd76c55eU, 0x3cbe83aabc9377c5U, 0x3e259cb13e26e7afU,
  0x3cac2f3d3d02cb11U, 0xbb065c173d3edb64U, 0xbd5196dc3d69806aU, 0x3d2d4441bd031be1U,
  0x3e0ea3d13e0c578dU, 0x3dd61c3e3d98fe7aU, 0x3ba101733d2c255dU, 0x3c3f42083bf5f36fU,
  0xbc2c673abcfff093U, 0x3d1754073d25168aU, 0xbb666659bbab0ba6U, 0xbc38dbf93ab79668U,
  0x3e0804263d6c833aU, 0x3d70d0053de1c039U, 0x3cd633b53aeb609aU, 0x3e1d3edb3e6a1965U,
  0x3d80f7ca3e4bf6f4U, 0xbd67c0f13e4ba577U, 0xbdc19572bc2141cfU, 0xbd816b863d06381eU,
  0x3eaa63163c8646a9U, 0xbdcfc1d9bb8c020eU, 0xbea7a015be3658fcU, 0xbd7676cebe395287U,
  0xbd2239f8bd0d3b95U, 0x3e04a4e63cf6b175U, 0xbe52cce1bdb3ac52U, 0xbe859668be498cd3U,
  0x3e1c4820bdd96c0dU, 0x3e2cb77c3ee027c9U, 0xbe5ec9b3bde4e4fbU, 0x3e10679e3dcb6bb5U,
  0x3e420b003eb2c2e2U, 0xbdfda5513e27921dU, 0xbf0d4c40be9ef650U, 0xbe1a759abecdd0ebU,
  0xbefe176cbf0de486U, 0xbde14548be9da5c1U, 0x3e188fe1bd419080U, 0x3e46783b3e57b089U,
  0xbd3ccc1a39d7e63aU, 0x3d315f34bdef320bU, 0xbcccd2153d1cdaafU, 0xbbf7d232bd0f8318U,
  0xbe219734bdb24b03U, 0x3e6217ad3e041ed1U, 0xbc2a0f6b3d6f2500U, 0xbe7fbe923dc17c53U,
  0xbdc056d0be553de8U, 0x3dc169763e040fb3U, 0x3e1e171b3b506ecdU, 0xbe0e0d423da142d8U,
  0xbc1b94e7be34e0e7U, 0xbdb939363c3b3d67U, 0x3d488deebd612be5U, 0x3e21b7723dbc5985U,
  0x3e319cef3e62df30U, 0x3e668a993e3e33d0U, 0x3e9728173e79e2b6U, 0x3e57803a3eaf0ca5U,
  0xbe61eea6be0f5d40U, 0xbe81b400be9227f8U, 0xbee2b50cbcb75be6U, 0xbbf0e1efbea0b22cU,
  0xbe0af8d0bd90bc63U, 0xbe8910f1bdc9971bU, 0x3d1fc37ebe1bee48U, 0x3e29d0863d92a5f8U,
  0x3e66bf473e23e36bU, 0xbe0a528c3e08cf98U, 0xbdd4ee13bdeb13e2U, 0xbdb2203cbd202654U,
  0x3d1b2abfbd1cc0fdU, 0xbedd4737be87c681U, 0xbe59c0cdbecf0213U, 0x3d6773dabdd13f37U,
  0x3ee239d73eb527d1U, 0x3db4bc703e8d86a8U, 0xbe024a4dbd2870aaU, 0xbea9836ebdd4cf1cU,
  0xbeeacbb1bf09eb0aU, 0xbd81c8dbbe8c679cU, 0xbde60167be5083a7U, 0x3da758163d34d832U,
  0x3e3effadbd0e9384U, 0xbdfd08ff3e281fa5U, 0x3d296cfd3d592649U, 0x3e342aeb3c091294U,
  0x3e6d85f53e60a401U, 0x3da812c63e1c02ddU, 0xbdaf8769bc753f9eU, 0xbd29e207bdce662fU,
  0x3e2291e23e1386b2U, 0x3e02afb73e950f0cU, 0x3d93dcfc3e4ba883U, 0x3de7313f3da3ef43U,
  0x3d6bc1293dcf206eU, 0x3e4366a6bd88b70fU, 0x3ed0a90b3eb1213aU, 0x3df0ffea3e05ad96U,
  0xbe9a44e9be386290U, 0xbde57a0fbe2bdac8U, 0xbe329a903bf6c2cbU, 0xbf13f4d7befa8489U,
  0xbec48952bef8a5eaU, 0xbdb223afbe5af93dU, 0xbe26ee36be0b1b03U, 0xbe0f2fa0bcbef9acU,
  0xbe519338be1ce3ffU, 0xbe826519be53d48eU, 0x3c5e0348bce02e78U, 0xbe27dd8bbdf9d5d7U,
  0xbda19ef5beb2dc44U, 0xbd60d130bc8daad6U, 0x3ecf24653dd599edU, 0x3eb5aa293e9a2115U,
  0x3cd3504b3e0c7f80U, 0x3dc2eb38bc709fdbU, 0xbd5b74b63ca38cf9U, 0xbe4296f73a9a0449U,
  0xbe01e633bdec1092U, 0x3d275d3dbd800b2eU, 0xbda738d13d9dfd1fU, 0xbea37073be57c89dU,
  0x3d1a13b9be8428bdU, 0x3d57ba973e311c19U, 0x3dfff6483d4828b2U, 0x3e6523043e627f2cU,
  0x3db9b6153e1349a4U, 0x3d2938213d98e5caU, 0xbd30430f3d0ec033U, 0x3db2ba0f3cec6b74U,
  0x3dd3219a3e27778eU, 0xbe5aa35e3c9bef2dU, 0xbe987ea6be68e209U, 0x3d9486cabc0921b1U,
  0xbe03f2b1bbf93972U, 0xbe59bf89be313abeU, 0xbb7e4e4abdb10c9cU, 0x3df70d203d8a34c8U,
  0x3e67696c3e47dca7U, 0x3d8061203e98460fU, 0xbe57a8163ce4f842U, 0x3d90bfde3d1a4d5eU,
  0xbda10bc3bdcb2651U, 0xbe12d751be48a006U, 0xbe6b0b84be2e136bU, 0xbe2ffc00be5a3a2dU,
  0x3e8eded33d5637e9U, 0x3e3f89b63e67269dU, 0xbd1dc876bbecb6a2U, 0x3d711645bd14837bU,
  0x3e1b9ced3e6b1b9aU, 0x3d7cea233e1839e2U, 0xbe3784efbd8c5da6U, 0x3df8bba43cb42cc6U,
  0xbba3ed043e24e908U, 0xbcf9a3333ccfbbd2U, 0xbe530167bdf6327fU, 0xbcc48cc1bd9668a7U,
  0x3e086b4e3df40f0cU, 0xbdf94ee53d7e7c68U, 0xbe8cab37be327176U, 0xbe09780abeb46f97U,
  0xbe70b8adbe862e05U, 0xbcc7d82ebe07a088U, 0x3dd7660f3e0cef78U, 0x3d68acbe3e3abd93U,
  0xbe70807dbe09afbdU, 0xbe2f830bbe62b2f0U, 0x3e52e140bd2065deU, 0x3d9e63e03e1512f1U,
  0x3d7b897c3b99e5d1U, 0x3e5393a33e4ae791U, 0xbcb9db9f3c1b1e1fU, 0x3ddea12c3d84c744U,
  0xbd7592793de99836U, 0xbe710cf2be3103d3U, 0xbe31db8dbe761122U, 0xbdfdf6c7bd958447U,
  0xbc715741bd26c21aU, 0x3d9b11253d02edbeU, 0xbd5631a439be8183U, 0xbd7194a6be4e1507U,
  0xbc34b4d1bd920aa5U, 0x3d421b8cbd433006U, 0x3dc13bc83d4ece3eU, 0x3d57c094bce0663cU,
  0x3dbe0f053d710cb2U, 0xbc6f18163da908d4U, 0x3d98b7bf3db29701U, 0x3c580de0bd6cfa1eU,
  0x3e8e44563e5a23d2U, 0x3e7d162c3eac877bU, 0x3da288373e3bb7e2U, 0xbd895cf1bceca1c4U,
  0xbe70960ebdfb349dU, 0x3b82c9afbe08fc1eU, 0x3e2a264f3e38ea0fU, 0xbe9000213c9ac5fcU,
  0xbe823a09bec2ce08U, 0xbde60c9ebdbddf6bU, 0xbde34764be75bb7dU, 0x3db01642be0a72e2U,
  0x3d204cc03d95bfecU, 0x3dd09271baeadd9fU, 0x3e43410e3dd04668U, 0x3e6317453de13411U,
  0x3e6069fe3df4f068U, 0x3e39a4223e727120U, 0x3d5d4bc33d2b12aaU, 0x3c9371cd3c4ac165U,
  0x3c8b295fbd46cb44U, 0xbcdd07d53bd16f08U, 0x3bc480b6bc27e5faU, 0x3d8ed5833ce60c7dU,
  0x3dde0a21bc76762fU, 0xbe1c2bacbc0b179fU, 0xbe2f35e0be4d179fU, 0xbe5b8229be6c641eU,
  0xbe1007a3be4c82cdU, 0xbe0da037be30bdadU, 0x3e23c84abd5cfad4U, 0x3e59e79b3e860389U,
  0x3e131d973e84f3d2U, 0xba15322b3dd4cadbU, 0xbdc860c6bd593572U, 0xbdad9861bddea4afU,
  0x3dcfb92d3dce70f4U, 0x3e096d213d487a74U, 0x3b1ba5503d4c55f4U, 0x3c8bb7ce3cac759dU,
  0xbda2340b3dd885c9U, 0xbe1146c7bd284d99U, 0xbcdf1ae7bcac3c61U, 0x3c7e1bdbbacec8fcU,
  0xbe7a0bc73d0809a7U, 0xbec9e74abf163c8bU, 0x3dbeb995be0db435U, 0xbea844703dc8dde2U,
  0xbecc8a32bf257882U, 0xbdd5f990be2f0393U, 0x3cd0978e3c483333U, 0x3b3933bf3daf5fa7U,
  0xbe6a785cbd71f36cU, 0xbd0284c6be953109U, 0x3d8802e1bd946430U, 0x3d90a7343d474eb5U,
  0x3e0ea31b3e5a03b2U, 0xbe922f22bcd8dbadU, 0xbe41a8ecbee464eaU, 0x3d0ec5583c82bc96U,
  0x3c51b7dc3d8d7d79U, 0x3d9cc2a73d86f66eU, 0x3e0f20803d9745d1U, 0x3dba05de3e05b162U,
  0x3e33d2843d2ac36aU, 0x3ca41ed63e09a1f8U, 0xbc207f0b3dda4cbeU, 0x3bf9a5023ccf9a79U,
  0x3ce455a2bdb20a47U, 0x3c3b4dc73d8e1ad3U, 0xbc24977bbbd1cf3fU, 0xbce544bb3d59003eU,
  0x3ac5d3c6bbd9fb77U, 0x3deecbaa3d58b397U, 0x3d86b55c3e2feb70U, 0xbe29380bbd322e56U,
  0xbe691ebfbe831875U, 0x3cb3330abd38ce17U, 0xbd4187a03e1d6435U, 0x3d004adb3d7b7975U,
  0xbd3205ef3d630f95U, 0xbc88456cbda62fbeU, 0xbdcef9f5bdaf8fe8U, 0x38a2fa8ebd95ee66U,
  0xbce7864bbcc0853eU, 0x3d8852983d95e369U, 0xbd8723a73c57a0a8U, 0xbccad32cbd300f15U,
  0x3d7be8d83d83a4b8U, 0x3b8e407c3d8ef470U, 0xbdbebe513ccae808U, 0xbe06e511bd366720U,
  0xbce3a47cbcff837aU, 0xbd8e689dbb422769U, 0xbd14e0dc3c781291U, 0x3d49f855bc80512fU,
  0xbcb40789bc1d8739U, 0x3cd270063d067482U, 0xba12daa13c60cd12U, 0x3c118cdebbf07da8U,
  0x3c59cec03c67cfedU, 0x3c9f91743da37b27U, 0xbd772694bc408e02U, 0x3d9a40b6bd1fb68eU,
  0x3dc717673e04370dU, 0xbdbabf283c3299b1U, 0x3bdd2587bd9ab2a0U, 0x3dbbf5603d28d412U,
  0x3d2e8bca3e0caca8U, 0xbe0890bebd5ad3e9U, 0xbdec50e2be08290aU, 0x3d633ab33ccd1149U,
  0x3cd748aa3d39c8dbU, 0xbc23430fbc9ab724U, 0xbdb3cae0bd3daf60U, 0x3ca880e0bdcd9befU,
  0x3d9aed9e3e0a5c7fU, 0xbdab7596bb11136eU, 0x3d8fe2ac3c867a39U, 0x3d9847a03dcc4c3cU,
  0xbe2eff5abdb7ec0fU, 0xbd4ebb52bdc074f7U, 0x3dab87413da7d8adU, 0xbdfa1b003b69e166U,
  0xbde0f5babe0b2847U, 0x3b81cfc6bdd36155U, 0x3c8ceb7fbd23477aU, 0x3de755a23ccb5625U,
  0x3e0ec5583df14e5bU, 0x3d5dedff3dcca25cU, 0x3defe2173dd834beU, 0x3ce007f53cf60c1cU,
  0xbd28685e3cabf9a0U, 0xbed90fc5be471f84U, 0xbe6c6f3bbece6085U, 0xbd548ebabe1e9371U,
  0x3d1b28fcbd5aa9b0U, 0x3dc294a73c88353aU, 0x3de9aeba3dd080b9U, 0xbd10f27f3dc24423U,
  0xbe5706cebe35ada8U, 0x3d040a66bdbb9739U, 0x3da8eea83dc98dddU, 0xbd1675633d11bd27U,
  0xbdcaf937bdbfe621U, 0xbd4974d33d0496feU, 0xbbee8300bcea3a5dU, 0x3d18dc3f3d08176fU,
  0xbc1e45263d1e4966U, 0xbe35e52c3c31e51aU, 0xbd9ebd37be63c284U, 0xbd364426bceeb69cU,
  0xbe81e382be4dd247U, 0xbbef703dbe469cc6U, 0xbbf99eb53d8731e4U, 0xbe9f8d6ebe660749U,
  0xbe02c400be484d89U, 0xbe1d727dbdc82395U, 0xbe4b609dbe4d7e95U, 0x3e2329cebdaa3e3eU,
  0x3e6be2293e6838e8U, 0xbc4381693d84babdU, 0xbd963038bd74b35dU, 0x3d783bb5bb925da6U,
  0xbcbca50d3c85d2b8U, 0xbdb16762bcbacbeeU, 0xbe075468be681095U, 0x3e1fabba3cac2041U,
  0x3d953a063e3a8daeU, 0xbe5c719dbdc74506U, 0xbd3e168ebe051354U, 0xbd9dd7f7bbf97e35U,
  0xbd45b3bcbda91c5aU, 0xbd316959bcf96e39U, 0xbd032a90bd8c63c4U, 0x3cd9f120bb43c17eU,
  0x3c3f45063d5d55edU, 0xbd8f651c3cfdc238U, 0x3bc6c60bbc87b166U, 0x3d77d4683ddbd985U,
  0xbde711bdbde06c07U, 0xbd46f0edbda478f8U, 0xbbe05acfbd24f062U, 0x3d8f6c4cbd455910U,
  0x3d8881b43d9a0350U, 0xbcb100eebcff6971U, 0x3dccf0febcf4540cU, 0x3cfe92273da4e88cU,
  0xbc614f73baa8a394U, 0x3d65334cbc6bb0dfU, 0x3dee63b13d617311U, 0x3dd3b1883e13defcU,
  0xbdd328433ca66e0eU, 0x3d9a9dcbbc368b9dU, 0x3e6109ac3e3b105aU, 0x3cff06923dd1f629U,
  0xbdb4b150bd4329cbU, 0xbd653c97bdb6d045U, 0xbbac9df8bce3f243U, 0xbc299b58bd9a2476U,
  0x3d44a8ea3da37dceU, 0xbe010dc2bc8e6416U, 0xbd809740be125517U, 0x3d4a40963cfb8ebdU,
  0xbddaa0903d1fcb23U, 0xbe25c4ccbe38b05eU, 0xbd23cd453e209c4eU, 0xbe0e4c82bdc532f4U,
  0xbdb579dabe593843U, 0xbcaa7355bd27dc38U, 0x3dab70113da31919U, 0x3dc2721e3d06a5c8U,
  0x3d23fffa3e194e82U, 0xbd6050f4bb973f76U, 0xbdce2256bdb2694eU, 0x3c93b02db80d4667U,
  0x3d2e3fbc3d24bc22U, 0x3c7a8ace3c32081dU, 0x3dbf23f33db4b518U, 0x3d12a0ba3d8d61deU,
  0xbe348d53bdb75840U, 0xbde0d37ebdfa4786U, 0xbe1d75d9bd932974U, 0xbdca36c5bdfefd2cU,
  0x3c3e21b3be40e35eU, 0xb9b59d933d07460bU, 0x3d0bd5643c5462b8U, 0xbb6b70b13ce0c9ecU,
  0x3c1432973d4ae4caU, 0xbd5313fabbf34428U, 0xbb44b6c8bd6b7c7bU, 0x3e11a1bb3d2cf644U,
  0x3db1c0e43d4ae87dU, 0x3db9b1e33d92e321U, 0x3db0c1c43df96735U, 0x3d03ec803d04b25bU,
  0x3cfb9bd73c149730U, 0x3dd8c2da3def36c5U, 0x3e6a7db03df5320aU, 0x3e5a85ac3e513dafU,
  0x3d58062a3db87e8cU, 0xbe05d368bd55433eU, 0x3dcc3a04bd54045fU, 0x3e11b87a3e1637c1U,
  0xbc4c225c3db1cebcU, 0xbdc9003cbd2e2023U, 0xbe57886fbe383c8fU, 0xbe012c6cbe3095b1U,
  0x3c66f31cbcc9c434U, 0xbe1ad5b8bdb4f17aU, 0xbe218f7dbe40e0c8U, 0xbd7f917fbca167a6U,
  0xbdc808f0bdf1d97bU, 0x3ad7b7e4bdc4f0d9U, 0xbe334f83bdaffb12U, 0xbe1cbc66be4ede82U,
  0x3d35e012bd71dcb8U, 0x3dff15f23e2e715dU, 0x3d08d6de3dc7a5f5U, 0xbdaa07683b5d2f0bU,
  0xbd34744dbbe43c58U, 0x3cbfa469bcd01392U, 0x3dd457be3d6b3ee3U, 0x3d8c98553d403630U,
  0xbdfa0244bd294fd7U, 0xbd5d4135bdd08eceU, 0x3d5651f63d6cb875U, 0xbe0c4e85bc0e2b7aU,
  0xbeb5450dbe7508f0U, 0xbe777356beb40305U, 0xbdfc2822be61eff5U, 0xbc90e52c3c60fa44U,
  0xbdcc3d5abd55fa40U, 0xbe85fcf1be46bd67U, 0xbe99b9e0be2a0c35U, 0xbc8b1439be418d9aU,
  0xbcd39d083d3f36a8U, 0xbe64b7d9bda0fa38U, 0xbda30443be10cae2U, 0xbc3c8263bb03302bU,
  0x3bedd9373cca0e5fU, 0x3d95389f3d6edc58U, 0x3ca01bbd3d2650f6U, 0x3ddc053c3d7533c7U,
  0x3de20fe83dfb6563U, 0x3d4d6cad3d55bf24U, 0x3ce4036c3bedf497U, 0x3be1cbf23d040a69U,
  0xbcc78e0fbd992d17U, 0xbcb66a36bd909502U, 0x3ddad6113d6fd77eU, 0x3db5827e3ddb2c76U,
  0x3d5a75243daf8df8U, 0xbe06e6c6bb852f14U, 0x3d6a08c7bd237867U, 0xbd5487743afeb047U,
  0xbe04aeb3bdf32f10U, 0xbdd2f200bde0bc21U, 0xbd875622bcd46a5fU, 0xbd9513f4bdffeaa5U,
  0x3d99a0ea3b115ca1U, 0x3d5789473dd35f02U, 0x3a89259f3c1def32U, 0x3d6037b0bce9b262U,
  0xbda9f1f93d49c76dU, 0xbdf9569cbe2795b7U, 0x3d77b36abc7f6b54U, 0x3db9ba823d32a21cU,
  0x3d9857e63d1c10efU, 0x3d8c7edd3db85f0fU, 0x3a165bbd3d17ce60U, 0xba7310ecbd627ce5U,
  0x3dae4fc63d4ebf5bU, 0x3d27a8cbbc75c6b3U, 0x3d79c0213d3c5b49U, 0x3c00db2eba2cdfd5U,
  0xbc81a2f13dcef977U, 0xbd18d2debcc61d53U, 0xbcd2f5083d07f822U, 0xbc90e507bbd8a665U,
  0xbd0d7ff83ab9b9b3U, 0xbe83b43ebe08fc1aU, 0xbe3c7b49be62a4f6U, 0x3c6a39133c6c5aaeU,
  0xbd941a0c3c356c78U, 0xbd029b7cbe06d231U, 0x3916183b3d8352fbU, 0xbc0738a1bbc18c85U,
  0xbbd3382c3bd4152bU, 0xbd7744fb3c9ac2eaU, 0xbcb9cd07bd953fc3U, 0xbc5551d1bd081ec5U,
  0xbd975a4abd129a6cU, 0x3ebda8dcbdc0660aU, 0xbe5f6dd33e1365f4U, 0xbcfd11aabe89ec7aU,
  0x3e4587ad3e239707U, 0xbde0b50c3e20e7d9U, 0xbf0a0dcbbebe3b30U, 0x3cc4495cbeaba0a7U,
  0x3c6501dd3d752b85U, 0xbd5e4e3bbe4bfc63U, 0x3e4a4654bb255510U, 0x3e0238d23e814cd4U,
  0xbe5a6efabdbc41c5U, 0x3c8af813bd249754U, 0xbd30f9fa3d839482U, 0xbe8307e0be025ce3U,
  0x3cff3115bdd63bc8U, 0x3d32b9643d1d7037U, 0x3e4c58b13dcca872U, 0xbe4319973d723125U,
  0x3da0a2bebdfe4757U, 0x3d34883c3e38c87bU, 0x39860ea0bd5efee3U, 0xbef480a4bde4221fU,
  0xbe807502bee38b08U, 0xbdcf235dbd9e8db9U, 0x3ebb16e53dcf17b2U, 0x3ebd436b3ee1b4ffU,
  0x3db0ece23e61dbb6U, 0x3e7855fa3e1afdb5U, 0xbeaa4e4ebbd4dadbU, 0xbed416cabf0fcfcbU,
  0x3e20e25dbdb7c7f9U, 0x3e4b1d313e4865b0U, 0x3e75be433e703ee6U, 0x3e43dae13e368e43U,
  0x3e08f6293d8d3f21U, 0x3db1fa273e41f4c2U, 0xbea18a0dbdc160d1U, 0xbec52de9bef1aa26U,
  0x3d2999adbd453cd2U, 0x3cd464bc3d88ef3fU, 0x3d4524813e2964fbU, 0xbd9a6f62bd873b7dU,
  0xbcdb81b4bc3bd0c8U, 0x3b6e9c4abd93549dU, 0x3c4145cfbe14ba13U, 0x3c643d273dcd9371U,
  0xbc606b56bd050050U, 0x3d25f4083da8bbf4U, 0xbdc23613be05673aU, 0x3e9dd2d43e7f54d4U,
  0xbe30e6fd3e37eb08U, 0xbeb83912bee79919U, 0x3e91454d3c9a51a9U, 0x3e4f63983e21c0b8U,
  0x3e0524ec3e0437a3U, 0xbd9c018cbd715b6fU, 0x3e00d00c3d84161fU, 0x3d36b8c63dea9740U,
  0xbc944b72bc547786U, 0x3e3254d23d957047U, 0xbe1fb09dbc9f6d93U, 0xbd03461abde064ffU,
  0x3e6f74f03e2313baU, 0xbdb001af3dc9ee0cU, 0x3dcd09adbda7246bU, 0x3e0cdc223df4a6c6U,
  0x3d2bc2e9bcf6d197U, 0x3dc1aefc3da3e2dfU, 0xbe30b263be3bc3a9U, 0xbd1e06e3be4e7df5U,
  0x3e43cbd13e23eda6U, 0x3e652e033e39b7daU, 0x3e694a3a3e7a4dddU, 0xbd586d143d9b91ddU,
  0xbe1b18993caabc41U, 0xbe7ae113be511318U, 0xbd3912aabce20921U, 0xbd8dde32bdd1a1bdU,
  0xbdb44c9fbe2afc69U, 0xbe495b18be0ba40cU, 0xbdca88b43cff1a68U, 0xbcc787213c30cbc2U,
  0xbe3bd5c1bdf6759dU, 0x3e1a51e73d7140b6U, 0xbdeb7bfa3e0269e9U, 0x3c5eab00bb47fd82U,
  0x3d518c163d583f34U, 0x3e3cdeca3d973b39U, 0xbe154034be6eda63U, 0x3dd1123dbc44d6ecU,
  0x3e1293483d7937eeU, 0x3e7476033e3a1395U, 0x3dde4c683d802106U, 0x3e19958c3d153a9aU,
  0x3d9d19963e319c6cU, 0xbeb81200bd280943U, 0xbe1f6b1ebee674a1U, 0x3d9e7bffbd802be6U,
  0xbd859b21bdda79a3U, 0x3ea08b0e3da933aaU, 0x3e5d39773ea30e5fU, 0xbe6d8902bd3dd6f2U,
  0x3d2c346dbddde910U, 0xbcc35ff63dea8ed1U, 0xbe75c214bdaeb31aU, 0xbd0fb96ebe3ebac8U,
  0xbd818efa3d41f9acU, 0xbd01234abe333c2dU, 0x3cbd31463dd52d4bU, 0xbd61d691be276778U,
  0xbe0147c8bc898ec6U, 0xbec40cbebea0c045U, 0xbd1507b0bdbfb77cU, 0x3e0704993e1ba051U,
  0x3e280a853dee5503U, 0x3e81da443eb5665eU, 0xbe6eed98bdd637e1U, 0xbd231ee1bdb48c2dU,
  0x3d710ca03e0ccb3dU, 0xbe13ebe1bc7c002cU, 0x3b9877c1bdacec78U, 0x3e3566cc3de562cbU,
  0xbdbe03ce3e291d3dU, 0xbe162e64bddda380U, 0x3e3a90f03daad4e2U, 0xbcee46823df3548eU,
  0xbd21c2d23d68605aU, 0xbe02a88ebd847d20U, 0xbe266ce0be32bc12U, 0x3d2e98a8bddd62feU,
  0x3e4cecc83dec5e32U, 0x3e04d72d3e210928U, 0xbd9d1da1bc3cf9dcU, 0xbe4e8cdebdf4496bU,
  0xbc5d2039be273ee0U, 0x3d95d64e3e0c5d3aU, 0x3c5429523dad30c2U, 0xbd4a2edfbbb390b1U,
  0x3c8b7d98bd444eedU, 0x3e07adaa3d9b52c3U, 0x3cdd21c03d5fde96U, 0xbe04e93abda5c90dU,
  0xbd9686e7be1acfe0U, 0xbd1c0916bc9df075U, 0xbc8f45b4bcbc46a3U, 0x3d6e6fddbd3ac847U,
  0x3d9e611e3cfa946bU, 0x3d857df43d81020bU, 0x3ca60c173d89ac40U, 0xbe0605b3bd98c1a9U,
  0xbe2be08abde37855U, 0xbd099132bd56ddd7U, 0xbe355683be2b40b0U, 0xbe962c1bbe47d913U,
  0xbea72c56bec03ad7U, 0xbe091e18be3e4a78U, 0x3b94ab2abcc21b19U, 0x3cc7ed923dc92817U,
  0x3ceda9723d8d6e63U, 0x3d0e7a653bf24d68U, 0x3d55e0953c825fc9U, 0x3e27876a3e2ff71aU,
  0x3dd39ea33e48fccfU, 0xbc8989673c878f51U, 0xbe220b27bd71cfe4U, 0xbd98c5cebdad2b7fU,
  0x3dd005ad3da81372U, 0x3e075bb63e38c09cU, 0x3e1b62383dea9bd2U, 0x3d3971473ddbfd9aU,
  0xbc832dfa3d7ed80cU, 0xbd71c3c6bdbce2a5U, 0xbd7e4ff5bdb321efU, 0xbc82432abd9651ddU,
  0xbd03cea6bd5703fcU, 0xbe1b4b6fbe13ce25U, 0xbe9f0417bea8ec3cU, 0x3c95fae8bde72fc6U,
  0x3d7122293c665e6eU, 0x3c3546423d4b29ecU, 0x3d1ba7ed3dbb6dffU, 0xbd22189a3d1eb1b1U,
  0xbdc4608abd7b049eU, 0xbdf7c8e7bd77f990U, 0xbe0aca93bdf09d9bU, 0x3d767881bd8be157U,
  0x3d56884e3d1e7f7eU, 0x3e31b74d3d7fe0beU, 0x3e4cf5903e5cda0bU, 0xbe2819a13d2b2d1eU,
  0xbe6310e7be7ca4f0U, 0xbe53146ebe833e99U, 0x3c24334dbd85d8afU, 0x3dc31fca3d6fa163U,
  0x3e4016e43de76828U, 0x3e1efca43e1f993eU, 0x3e1c54c23e52d371U, 0x3e2ce5543e37a79bU,
  0x3da650a73d8fe10fU, 0x3c67d14f3b0a3a9eU, 0x3c1ac888bc85d0a7U, 0xbd347ed6bc851a9dU,
  0x3c9d0c693d1ae342U, 0xbc0f2cfc3d2a79e7U, 0x3da6ec81bd39ec94U, 0x3de85bd43d74962bU,
  0x3e0d53ac3e071566U, 0xbdb1944f3d8a6013U, 0xbd885038be0cdb3bU, 0x3d027434bc75c48bU,
  0x3cbb8e173d181b9dU, 0xbc12f821bcfc2726U, 0x3c6a9eb1bcb99223U, 0x3c878c9c3d1b5f1eU,
  0xbcf8beca3c0be718U, 0xbe067b65be12e7f5U, 0xbe013bcabe326521U, 0x3d8fa48abda1eaceU,
  0x3e8a241c3e33fc21U, 0x3da9cc7f3e673d0aU, 0x3c9b1abf3d1f1ff7U, 0xbd9a51ffbd4acd1eU,
  0xbdaf6401bd94984bU, 0xbc678248bd655d2eU, 0x3d9edf243cd6c144U, 0x3e3df77e3e1cdc92U,
  0x3e0349f83df59f13U, 0x3a4ab47a3d105fe2U, 0xbdfb7517bdb19809U, 0xbc752c46be2e8a03U,
  0x3ddfaf623dd20cefU, 0x3e185b073e1e7d7fU, 0x3e0123b13e392c9bU, 0x3dc6cf643d42937cU,
  0x3de0298d3e065ee8U, 0x3e2d14993e4a0397U, 0x3ddb26493e0f420fU, 0xbe21b6a3bc02059dU,
  0xbdedce7ebde50065U, 0x3def52123d5f6569U, 0x3d7e531c3e0ced4dU, 0xbd0ffc09bd4abb7fU,
  0xbc217e9ebdb203fbU, 0xbbac084fbc2200f5U, 0xbd795e33be06b832U, 0x3d7650ba3b4bb183U,
  0x3df974863d40fe55U, 0x3de0247e3da514f5U, 0x3d4669563dcef258U, 0xbbc2f8e83d119536U,
  0xbe18cbe5bcd3bb8fU, 0xbe50794cbe483745U, 0xbe1d46bcbe45f781U, 0xbccb8248bda4d127U,
  0x3aba071cbde171e8U, 0xbe4c847a3c5cb810U, 0x3d02a42cbdc23b95U, 0x3e4d05ec3e05d6daU,
  0x3d7bb7e73ddb4ac0U, 0x3dac9dba3d3fa856U, 0x3d15f32e3dc2080fU, 0x3dfc40ed3db6fcccU,
  0xbe3ec0f5be0510c3U, 0xbd81b3fdbc910c0fU, 0x3d3eb6f03cc9cc49U, 0x3eb528ef3ec2857dU,
  0xbeae20223d722ae5U, 0xbe042e86be994cf5U, 0xbcdc4544bd0d704eU, 0xbd030738bd479ea0U,
  0x3d96941cbd798a0aU, 0x3e7db7c23ea5a5fbU, 0x3cfdb7683c9d96d4U, 0xbda4ad9cbd0143b1U,
  0x3a3c7733bdf91a7fU, 0xbcf9afe8bda2e4b6U, 0x3e518e273e23662bU, 0xbd3b0e3b3e37abedU,
  0xbdd230f6bcdfc2a4U, 0xbeb32078be33593cU, 0xbec88a4abed49bc0U, 0x3e7806c43c5c1e93U,
  0x3c78f12d3dc8df2aU, 0x3e260c843e3882d4U, 0x3d37e69d3d432558U, 0x3bcfd1d23d7d2493U,
  0x3db3b509bc56e6fcU, 0xbd0bf1993d9b2c93U, 0xbe086059bda7c70eU, 0x3ccab31d3c91846fU,
  0xbd5a3db33d9246ccU, 0xbda87752bcde3f42U, 0x3d728275bdc120d0U, 0x3d9a5c2a3d559760U,
  0xbc769aa53d48c155U, 0x3dba6e4d3d5e7fe7U, 0xbd2ce748bb064eeeU, 0xbdd0d61ebe02fc1aU,
  0x3e26a4083cfc40e1U, 0xbd8fde373de2253fU, 0xbd9e0edfbe053f98U, 0x3e887bbd3df7703dU,
  0xbe3ed15abd145eccU, 0x3cee61cdbe083cefU, 0x3e54d14d3e3b105bU, 0x3d41148f3e69da0fU,
  0xbd350597bd7abeeaU, 0xbe1c7f78be1c5f53U, 0xbd4cddfebe638aa0U, 0x3de080513cd260e5U,
  0x3d8728cc3dd7c06bU, 0x3d2d97903d1303d6U, 0x3d2d2b0d3d12bd6cU, 0xbc27b29dbd851e0dU,
  0xbda304cc3b7a08c1U, 0xbd1c1d6fbc83b39bU, 0xbdbbc91dbc233e2eU, 0xbd87e116be5510c4U,
  0x3e19a0edbb8f01c3U, 0x3e675a413e2b4fb9U, 0x3e29a4c23e4733e8U, 0x3ddbe21b3e06ea76U,
  0xbdf2f0cdbd8811e0U, 0xbe15664fbd4f0e6cU, 0xbe2316e5be007ee5U, 0xbcfe4618bd841687U,
  0x3e10aae63de3e481U, 0xbbc0ab383e380a0fU, 0xbdcdb4a5bd67baf4U, 0xbeabe4a1bdc189e3U,
  0xbe479a96be74b7e5U, 0xbdfb7b54be40af3dU, 0xbe0d005fbdf2f6afU, 0xbcf761d7be12a614U,
  0x3e4406e53e3f67c2U, 0x3e219b1c3e77ab81U, 0xbcef3e35bc511c65U, 0x3dcb56a63cdcf681U,
  0x3dd552b73d955da8U, 0x3daa34943db820e5U, 0x3df6f79b3e023a80U, 0x3de412613e076579U,
  0xbda59edc3d3b4dcfU, 0x3b33c2b3bd935dfcU, 0x3cd49d54bd392d02U, 0x3e01b0793d8c3decU,
  0xbc771bbd3e1b84f5U, 0xbdb5c42bbd726594U, 0x3deb27f43aab30dcU, 0x3dc279b83e1ac018U,
  0xbdde9366bccca0daU, 0x3d54a757bd537b60U, 0xbcea85cb3e2904e1U, 0xbe28697ebd80920cU,
  0x3ba66425be1d36fdU, 0xbd41791f3d2caf65U, 0xbe199959be011c7eU, 0x3d526a28bdab6f67U,
  0xbe0b60febc73d443U, 0xbcac7aa0be8732c4U, 0x3df9f5283d98d9b7U, 0x3e67eb2f3d3f68a4U,
  0x3e3ce5b83e24daa5U, 0x3d0f8f293dff3c0bU, 0x3da295953cb08c59U, 0xbcd7dc2fbcfe32eaU,
  0x3e4600b43c6a59e3U, 0xbda5d6ae3e1d7d99U, 0xbbf8cd95bdb1f0b7U, 0x3dadf487bcdcc563U,
  0xbd862a493d204b29U, 0x3d23bdc4be0b90b6U, 0xbd20561a3d61c39dU, 0xbb96ae9bbd0bf626U,
  0x3d0deac0bc017914U, 0x3ce3ef143e567dfeU, 0xbd974004bd4c7760U, 0x3dd21789bd09189aU,
  0x3b8390b63cc0a128U, 0x3db32f17bbc7250aU, 0x3bbd6a093d7601ddU, 0xbd5e1976bcb3f327U,
  0x3ccd7a64bf008be1U, 0x3f8c921ebf057dfcU, 0xbfc1415e3f8aef1eU, 0xbef4d190bee477b2U,
  0xbe014067be8981b7U, 0xbdaa4364bddd008bU, 0x3e60b8f73ed15f2dU, 0xbdace462bdb8e603U,
  0xbef57c3c3ecb780bU, 0x3e4e6079bd78725fU, 0xbd5cdf843ea13bebU, 0xbd3b1aa23e0a7b2aU,
  0x3ed0b2af3f280923U, 0x3f50dff4be83bcadU, 0xbf855948bdaa3f8bU, 0xbe0ba73e3f2e1731U,
  0x3edac7a7bd8a5dfdU, 0xbed47e09bef9405bU, 0x3eea624f3ea70788U, 0x3e17bb15bd2bcf0dU,
  0x3ef724713e5bccceU, 0xbcb4acf1beddb60fU, 0x3d429b783e119c03U, 0xbd8cd7afbe9864e5U,
  0xbf8798833f305d2fU, 0x3fa0cfdbbeda4875U, 0x3f397753be0f20d8U, 0xbeda960abe349af1U,
  0xbe45ad6b3ea74ba9U, 0xbf358cce3ea2ca96U, 0xbf1914583f63e455U, 0xbf6b4472be375d2fU,
  0xbede8a5bbee100e7U, 0xbef5124bbeb4f6ccU, 0x3eefcf23bedcb06cU, 0x3ee9284d3e010658U,
  0xbf19d5643dadcb54U, 0xbdb7ddf6bfa65a12U, 0xbf36e43abe9fa2d1U, 0x3eea42043e22f504U,
  0xbd7ad5f2bdd1e88dU, 0xbc0b05f93d32917dU, 0xbd9c15653db9d97aU, 0xbe6f2f44be42b4d6U,
  0xbd8e282dbe1d1b67U, 0xbe001267be03c4c8U, 0xbba60466bd8f0700U, 0xbdc0df85bc174741U,
  0xbd24e0d6bd734792U, 0x3dcae6d93ce6c6b7U, 0x3dabf58a3d3edb81U, 0x3d0563bc3df0de81U,
  0x3d1a60f43d2dabb6U, 0xb96b3baabcb42737U, 0xbd03deb53d85de76U, 0x3da024643dd6881bU,
  0x3d631eb33c9aa611U, 0xbd92bb043c9e075cU, 0xbdb730a6bd70c0bcU, 0xbd211237bd31857cU,
  0x3d8f2f10bd83b6cbU, 0x3d25b561bc69622eU, 0x3d50f87d3d544f39U, 0x3d93321d3e0d9a48U,
  0xbb7d1e3fbc5f4f1fU, 0xbcfd1873bdf062bcU, 0xbe61da12be0447d6U, 0xbdba7c72bdb4b363U,
  0xbddeb04abd8d19a7U, 0xbd626e72bdcb8203U, 0x3d74b593bd8171e1U, 0x3d3602063d5f5db1U,
  0xbdbe403bbcc16a5eU, 0xbe427919be352850U, 0xbe189c2bbdaa4ba5U, 0x3d87cbdd3c88038bU,
  0x3cd30719bcb7ac21U, 0xbcb736b23d930508U, 0x3c67fe253d597842U, 0x3cded2793d6ec3b5U,
  0xbc89e4383dcbb4e3U, 0xbc1e9f163dcaab46U, 0x3d1f519e3d7db8caU, 0x3d9363d3bc6a592bU,
  0x3dc9bfe53d99425dU, 0x3de0baf63dc5ad49U, 0x3d3a86e53d9422c1U, 0x3e0a2d543dda57afU,
  0x3d2379ef3db7593eU, 0x3db80df63d31e079U, 0x3d9418323d8482deU, 0x3d0989473da88d34U,
  0xbd47ee013c078e54U, 0xbd138f4cbc0480bdU, 0x3e2ec841bc1045e3U, 0x3e95edd03e857005U,
  0x3b7f3a203e1b4cbbU, 0xbdbae38bbd8f1361U, 0xbdbd8a1fbd8f893eU, 0xbe33b63fbe3c3797U,
  0x3e046c233d96f731U, 0x3db79d163e4b36faU, 0xbc6939ff3d82b950U, 0x3c8b2e9f3c208febU,
  0x3c468ca73d840b0fU, 0x3dfdce0e3dadf3a8U, 0x3d8378643dcb1487U, 0xbd3a61303da4eee5U,
  0x3dcbd03f3d73f205U, 0x3dec12a73e12efb7U, 0x3ccb01723d87cd3bU, 0x3d38f9a33cb5e291U,
  0x3de126e23da0cc18U, 0x3d6f57b13e2dc471U, 0xbcc703fc3d08f148U, 0x3d7bfb3c3d1ba069U,
  0x3de8d2133dca8a23U, 0xbc38ff0aba84f1c9U, 0x3d15eddf3ccaa166U, 0x3e088f183e2cff17U,
  0x3de350373dd17e76U, 0x3e61d1f53e11498aU, 0x3d1b7faf3df685d6U, 0x3e0d24e43dd93e69U,
  0x3d23d02f3db9820bU, 0x3d8d1e743dbaf215U, 0xbb8708d03c041961U, 0xbe029a90bd3e0a5cU,
  0x3be0d292bd8cb555U, 0x3d926f7fbd3bb444U, 0x3e48b1533e314129U, 0x3d25bb783e0c5764U,
  0xbdddd9bbbdc0b5b7U, 0xbdad8a35be0e8a55U, 0xbbe974fb3ba8cebaU, 0x3d07b0943d26deb6U,
  0xbd5cf980bd8c0dc0U, 0x3d944953bd7d7ee0U, 0x3e37fa8d3e406869U, 0x3e4034ac3e576effU,
  0x3d9406d73dbca257U, 0x3abf4a6e3cc0da66U, 0xbe2c8c7abd467c77U, 0xbcf8b3e7be52a7f2U,
  0x3d6d39bf3c844565U, 0x3b980903bd5ba7dcU, 0xbe4f28d3be2e22f8U, 0xbd0af2d3bdbe05d5U,
  0xbe2c91bdbdf9636bU, 0x3dc57940be038d01U, 0x3d29187f3cc5636dU, 0xbd991e6b3d62b59aU,
  0xbde48655bd45c91fU, 0xbe96d9e2be4b2ef2U, 0xbe650a65be4d6cf9U, 0x3dbed0a5be092c75U,
  0x3e6d5b593e606774U, 0x3c3703643e1789e8U, 0xbe216cdcbe0b5e02U, 0x3d9f512fbd926f13U,
  0x3df495453e4583baU, 0x3c8de6eb3d3b564dU, 0xbe55cd62bd9a22beU, 0xbe3e5d99be553b61U,
  0xbe48c50cbe9e294eU, 0x3e1eb0683d29a995U, 0x3d07ca1f3e41e480U, 0x3cc9e0fdbd125a98U,
  0xbd7216d33d37a03cU, 0xbd664f6fbde4099aU, 0xbc2de9b3bd55a2feU, 0x3d82a7293a48c6e1U,
  0x3e1713083e2bae84U, 0x3d2a12b03e066485U, 0x3ce737ea3d7cbf92U, 0xbe64430cbe01786aU,
  0xbe4077a4bdfe33e5U, 0x3cccea39bdcade57U, 0xbb98a0a03cb43edcU, 0x3d962d913d2b772cU,
  0xbd8bc998bb7c7fdaU, 0xbde95e4ebdd2e38eU, 0xbda5a6d0be0cf6e3U, 0x3db63fd33c043ec4U,
  0xbc216f033d30ba82U, 0xbe11e7f6be03439dU, 0xbd81a58dbdf9b124U, 0x3c1950a3bd104434U,
  0x3ddd65583d0a1b4dU, 0x3d6642193e10d03cU, 0x3b2aeff43cadbdf6U, 0xbd2d5f8abd9d6860U,
  0xbde39e33bc7459f1U, 0xbe18e024be5d249dU, 0xbdde69563c6a38b8U, 0xbe3cef34be0a251cU,
  0xbd207ce8bdf681e2U, 0xbccb131dbd867ccaU, 0x3d2831413c31772dU, 0x3d833db43d9cb846U,
  0x3cf97fcb3d528b56U, 0x3d48dccd3d2deab6U, 0xbd910e27bc2d4ab5U, 0xbd6e2762bd598767U,
  0xbdc5990cbda79281U, 0xbdeaa374bd5414dfU, 0x3cfc1d263b5c944bU, 0x3d515ab43c861206U,
  0xbc8d1ea93c1fe3c5U, 0x3dad21d33dbe42e7U, 0x3df3f5cf3d9c4272U, 0x3e0422d13e1f1165U,
  0x3d7da4543de071bfU, 0x3cab73043ceebee1U, 0xbc97465dbbc3d3d5U, 0x3c849ee7bcc5f701U,
  0x3dba516f3d411adcU, 0xbda00708bc8dfa62U, 0xbe2ed1f2bdc21830U, 0xbe162a1fbe5a84d8U,
  0xbd14fa3cbe3ef1feU, 0x3d80cb6bbab5f66dU, 0xbce1c2163cca896dU, 0xba3da2fabd21844eU,
  0x3d3cc3b33c9273feU, 0xbe87d144bd3d35f2U, 0xbea622f3be9fc649U, 0xbcb04e45bdf2ce3cU,
  0x3ccdb83d3ba89d49U, 0xbca05a483cd1efb9U, 0xbd220417bce322a5U, 0xbc8d19fd3c25ec0aU,
  0x3c830df63d27c6ffU, 0x3d8b06483dbd84abU, 0xbcaca9e23dd280dfU, 0xbdc555a4bb884a68U,
  0xbcf93944bc9e61beU, 0x3e00169e3c5bdb44U, 0x3cb872e33d92d4a0U, 0x3c4e7bb23d22e7edU,
  0xbdf8b30bbddead49U, 0xbd93b3bfbd9df3d7U, 0x3d6a477cbcd8dfbcU, 0x3d8b21a83d1f88a3U,
  0x3ca79bd33db1a5d8U, 0x3d672f743d57b151U, 0x3da0c4e73d87172aU, 0x3dd9e4513e089d5fU,
  0x3df772323dd8b0e9U, 0x3cc7cac03ddcd9d3U, 0xbd16cbbd3cfb338dU, 0xbdf3db36be3833bcU,
  0xbc8a652dbd53cf6eU, 0x3d71a4883d123973U, 0xbcc566003bf2343cU, 0xbdc3859dbdaabda9U,
  0xbdf79e27bdf29ca6U, 0xbd3e83f9be3a86c0U, 0x3db191ac3c769b31U, 0x3d911c7b3d07d178U,
  0xbd671342bd91b94bU, 0x3d07faa5ba1d16caU, 0xbc787f1f3d0ded47U, 0xbb6cd96fbc2cb772U,
  0xbcb0593abc48dda4U, 0xbe07c978bd1e7b22U, 0xbe09e1adbd82b080U, 0xbd01fc37bd9e26d4U,
  0xbde9028cbd21703dU, 0xbe0e7ccebdc326dcU, 0xbdd16b8bbdaa2a71U, 0x3c3713a13d5bd713U,
  0x3ddd623d3d7ab760U, 0x3d6b9a6d3e06188aU, 0x3d03a1ab3dce9c81U, 0xbcea9f1bbc480404U,
  0xbd375a9fbcaf7b12U, 0x3c949d0cbc0ce668U, 0x3d19e5f53d5081b8U, 0x3ce3bc493ca418b0U,
  0xbcada9b33d299c37U, 0xbcba0c98bb9f002cU, 0xbd7df8b4bd61e207U, 0x3c960a96bc01f971U,
  0xbd016bfd3cdfaa9cU, 0x3c85bc603b8546b7U, 0xbc88ff993a660054U, 0xbc8ed3adbcc27593U,
  0xbdab9319bd294148U, 0x3d165325bd1fdcc4U, 0x3d1ad9e03dfa3197U, 0xbd0d65e1bc21f639U,
  0xbdd8145bbd548b71U, 0xbe47c468bde0fccbU, 0xbdc0230bbe301d2eU, 0x3cdaa7df3ba2eb43U,
  0xbdeeedb1bd070d35U, 0xbe41406fbde795d5U, 0xbe63e860be5aa700U, 0xbd2458b1bdda0748U,
  0x3cfdac013cc0830bU, 0xbcce93843d0e757dU, 0xbe65c462be3612a4U, 0xbc1194eebe2691d0U,
  0xbcdde3b4bbd65e84U, 0xbde2c60fbe2b0f5fU, 0xbcb2008bbb81b625U, 0xbc8df720bdc2a5b4U,
  0x3d4d25493d036280U, 0x3ce694dabc4a758eU, 0x3d6cc2ac3d3f9c3aU, 0x3b6e25993c51b227U,
  0x3dce60823d6f18c7U, 0xbcb90f153c0c9bbcU, 0xbdabde26bdee7605U, 0xbd15df3dbda06209U,
  0x3d5ca96b3d5c2ed1U, 0xbdb24877bd4b93f4U, 0xbd5f68cfbd7aba1aU, 0x3d4f6d923b91595dU,
  0xbdbfb4d03d0cc79eU, 0xbc819feabd774814U, 0xbd76e4b6bddb4412U, 0xbcc54160bcee3d2aU,
  0xbc48e1263d88aac2U, 0xbe1b70f7bc775543U, 0xbdf4b689bda7d2e6U, 0xbd8fc848bd4d48a3U,
  0xbcc32d33bd95b246U, 0xbc9e86ae3c2b02c2U, 0x3d24afcabaaef92fU, 0x3cb370773ac9b177U,
  0x3d87eae63d11944fU, 0x3da7de243dd0c396U, 0x3e5971143e4a945dU, 0x3d7a06cb3e3839acU,
  0x3b1f6f213bab8e5fU, 0x3d90e2593d0ffa9bU, 0x3dfde0043de58654U, 0x3d865c603dd8b516U,
  0xbc39a5c3bc653896U, 0x3b8c26953d4433f0U, 0x3dc8738e3da5edb5U, 0x3cf0f3483d2c5a63U,
  0x3c994a373b829bebU, 0x3d7cf61f3d8a4f59U, 0x3e0d55303d890379U, 0x3dc96f1a3e22e977U,
  0x3dab6d7c3daccd74U, 0x3de912f83daf949dU, 0x3e4fef923e4ad5d0U, 0xbcbd17b33dad7b80U,
  0xbe1e621cbdc15efeU, 0xbda88345be15742cU, 0x3d26b5a7bd3b4051U, 0x3e27dd433dc7df05U,
  0x3d8e3e833dd94776U, 0x3d61cf523df79abcU, 0x3dff5c943cfb0e2bU, 0x3d9636973e11d76fU,
  0x3d5db8883da6f0d8U, 0xbd3c7df93d3c1948U, 0xbe7a7508bdec1cd4U, 0xbe7d8ffabea8929aU,
  0xbd20f3febe238496U, 0x3cf2cab63cd9ba5eU, 0x3dd9cb223e12ddf9U, 0x3d590f053daf595fU,
  0xbd4ca18e3cb6d51eU, 0x3ca55264bd5e4f4bU, 0x3d71fea43df32801U, 0xbd2ee8d53cc87d80U,
  0xb9e7f201bd266e70U, 0x3d4c79b53ce79570U, 0x3d21c3c23d9a95a5U, 0x3d4aa99b3d002366U,
  0xbc6474533b8d8f3fU, 0xbd7d7f5ebd021d4bU, 0x3c8536113b6a1496U, 0xbc8ec7cbbca2fa75U,
  0x3d44f3c13a95ea82U, 0xbd9811833d808e28U, 0xbe6de45ebe23a5a0U, 0xbeb63285bead27e1U,
  0xbe4a2af2be90ee6bU, 0xbdaccc81bdc41ca3U, 0x3d3ad594bc9fdde5U, 0x3dceacce3cf319ebU,
  0xbeb142f6bdcb012dU, 0xbed2dce2bee9c222U, 0xbeb3d712bebb0bd4U, 0xbe960497be9e7186U,
  0xbe94c19ebebcbd8cU, 0x3dd40aa0bd836dcdU, 0xbb8fc1bd3dc80460U, 0xbd81e1e7bdcac35aU,
  0xbd376163bc13eedeU, 0xbcd700e4bd91c84fU, 0x3debbb5b3dc39c36U, 0x3cda7f323ae6c3cbU,
  0xbe248f52bdba751cU, 0x3b47d814bd8322faU, 0x3df7b1863d16175cU, 0x3d3074bb3d3cc4a0U,
  0x3e4114aa3dc612edU, 0x3de4a2153e03c47bU, 0xbd4976d6bcec33d1U, 0xbdff01ecbdcb029eU,
  0x3d200712bbfb70e7U, 0x3da5639b3d6e46fbU, 0x3e34eb273e361272U, 0x3d04c87d3d9afb2dU,
  0x37af28963c369295U, 0x3c88e6493cea8241U, 0xbcd44aab3c312f5cU, 0x3d96cf963bf64cbdU,
  0x3db5cd873cfeac82U, 0x3c5f65cc3d8780e9U, 0x3dea6df23d3bbe1eU, 0x3ce5eba63d7f4695U,
  0xbddf684bbcc37991U, 0x3c30ae18bd84aea5U, 0x3dccb7db3d6dec98U, 0x3d5513e83d94acd6U,
  0x3d4702953d7116c6U, 0x3dbe88fb3d8d067eU, 0xbb4681f33d821a45U, 0xbd4529cebd2d909bU,
  0x3d5a8bf9bca6ba04U, 0x3c92a8823da3982fU, 0x3d44cf7d3c194595U, 0x3c97b04cbcdde2bdU,
  0x3d38d18f3cc3ff2bU, 0x3bbe9a873c499bd9U, 0xbdc2ed01bd0eadadU, 0xbdb5539dbd8e46eaU,
  0xbce37d03bd8ef6eeU, 0x3d6264eabca1c7a7U, 0x3d26358b3d5e263fU, 0xbcd963b33cadf440U,
  0xbd541b9fbced2de0U, 0x3a2977ec3d079c34U, 0x3d5aacba3d73ece9U, 0x3d4418913a3a4aafU,
  0xbc2b123b3c828fccU, 0x3d58f74c3d42e7ddU, 0x3d3b74803d88436aU, 0x3d96eba93d0b955bU,
  0x3c5aaf453c0cae94U, 0xbc6143833d0902d6U, 0xbd0dc5edbd11bb05U, 0xbe05bc22be0908d4U,
  0xbc90725dbce5ca3fU, 0x3d9877e23d592939U, 0x3d103a423dd8b050U, 0x3ccc5d743d27f47fU,
  0xbd656d59b8951bfaU, 0xbcc55b25bd930858U, 0xbc80689ebcffc895U, 0xbcddb733bb97f62aU,
  0xbe20dca5bd757bb9U, 0xbd68d836bdf093f9U, 0xbd833101bda45a6fU, 0xbd95bce3bdd7569cU,
  0xbc78c033bdb25a00U, 0x3df18d003cf521e8U, 0x3e4ea92a3e458d18U, 0x3dd2364b3e09af68U,
  0xbb8731e53ca7d4b5U, 0xbe082185bcecaa35U, 0xbe7116b5be567563U, 0xbdd7bda6be0550f8U,
  0x3cf1d390bd396b35U, 0x3d82d99d3db3b007U, 0x3cb5d5b53d3af8fbU, 0x3cb1ecbb3c9a18ccU,
  0xbd47def3bc0bc805U, 0x3d3434ccbd3ff9fdU, 0x3dd61e933d203a84U, 0xbd347e1e3c10dd73U,
  0xbd89f3e2bdd60cb4U, 0x3d232f283c93419dU, 0xbc6306623d80a2e4U, 0x3ce0712fbd11bd17U,
  0x3d27a65c3d564378U, 0x3b940083bc2ef2a5U, 0x3c084260bcc48436U, 0xbc197ed9bd2ec786U,
  0x3dbb80ec3cdefe16U, 0x3d8c8fe63d9ea759U, 0xbdd5b8f0bb70bc78U, 0xbd6cb55abda877d1U,
  0x3ca33195bc2cd740U, 0x3c25dcf13ce07baaU, 0x3c9785ce3bd339bcU, 0x3da2378c3d0c67f2U,
  0x3dde7aa73d94de91U, 0x3d26bb793df118ddU, 0xbddc43e5bd132459U, 0xbe1bdbdebe07b92eU,
  0xbd1fce5ebdb56e6aU, 0x3d97bf1b3d19cd8cU, 0x3c5405a53ca2f7a4U, 0x3d3a80b4bc042493U,
  0x3ba979253cde426dU, 0xbd9f21e9bcdad0b7U, 0xbdfa45a9bd9cfff7U, 0xbda5a7dcbe0ab999U,
  0x3d1a8c04bd293190U, 0x3dedcd343dc4478fU, 0x3da810393dc51075U, 0x3c89b6483cc6e7efU,
  0xba558c30bd851d14U, 0x3befd7d2bc0a8857U, 0xbb460834bc2aa9b8U, 0x3d952ad83d4b6facU,
  0x3d6c590a3d79839eU, 0x3daeebc83daedf56U, 0x3d0cf0743c9f04c1U, 0xbd04cc62bc40e5bdU,
  0xbdd04951bd430ec6U, 0xbd4d17ebbdcdd9b3U, 0xbd00f9babd10ce14U, 0xbd87e8603b495900U,
  0xbe0b9d66bcf724e9U, 0xbcf132a0bdc5e575U, 0xbd127bcf3b481a1dU, 0xbdcdc76abdd80cfeU,
  0xbdd74ea7be0f7bb9U, 0xbd95f169bdcba783U, 0x3cf6a2d23cc47056U, 0x3d09c25c3d14be8aU,
  0xbd03185e3d277b24U, 0xbd94bf19bd7c0cfeU, 0x3c2e6ebb3bb4471bU, 0x3d1c5e963c9c7ed8U,
  0x3deec1ae3db7845bU, 0x3ddbd6393e16d6e6U, 0x3cc0d73f3d38d816U, 0xbbe097d63cd8a404U,
  0x3c670f6c3c8d9701U, 0x3de62e4a3dadb6edU, 0xbd9d1e68bd1a7030U, 0xbd49d600be3bf87cU,
  0xbd5cfb9f3a1e6214U, 0xbd8191a8bd8d4137U, 0x3cd4bb71bccbd54dU, 0x3daad8073d88eefeU,
  0xbd9bdbae3d3a9cc5U, 0xbe58cdc0be0705b5U, 0xbe167848be0b6791U, 0xbcc28aecbda948f0U,
  0x3b3fb8cb3c0f2932U, 0xb9b1e4c73d1cf954U, 0x3d48db683d597974U, 0x3e04ab493d99ae30U,
  0x3e4102c63e13cbc9U, 0x3d2e67be3dc9d8a0U, 0xbd32ce763ccf6f61U, 0xbcfec160bd19ca53U,
  0x3d9276ba3cc8f792U, 0xbcd7edd73d35394cU, 0xbd109d74bd815169U, 0xbda7a0ddbd17a8bfU,
  0xbcd014ccbd75d82bU, 0x3ca3b84a3d3496f1U, 0xbd914d3cbcb99bbfU, 0xbdaef9c6bd2de9d5U,
  0xbd6ffdafbb93e95cU, 0xbdfe9370bdc2645dU, 0xbdd2d719be0f54efU, 0xbbaa5b41bd9712b2U,
  0xbd055bdcbc7661a8U, 0x3c4eba3abd918929U, 0x3da77be13d3b7a5dU, 0x3cdb4fd13dc686a1U,
  0xbd9d3a203b30551bU, 0xbc942060bddc72abU, 0x3d5e3d003cde9d16U, 0x3c9c89a63d849570U,
  0xbda2c0adbd2e4057U, 0xbd4acb60bda315a4U, 0xbc995a36bdbc113eU, 0x3c889c5e3a9d5eeeU,
  0xbcbbf28e3d4fe33aU, 0x3d2aad743bb9c729U, 0x3c972c54bc33ba68U, 0x3ccbe8b83b34bcd6U,
  0x3d2347da3c8df83dU, 0x3dc2b0ac3d9a5b5cU, 0x3d16c9813d2a58d6U, 0x3d06e45e3cce0566U,
  0x3cf7b9013bb4d929U, 0x3d760a6d3d39180fU, 0x3d0cad6c3c907dc8U, 0x3cdea3823d6a04b3U,
  0xbd640db7bbbce9f2U, 0xbd5bb2f2bd98a0b7U, 0xbc4691d5bd31c0aeU, 0x3c2fa83e3ca065d9U,
  0x3bbd7d043c3594c4U, 0x3d55b7283d055defU, 0x3da1a8ae3d7f80a3U, 0x3d189e233d7b1144U,
  0x3d66a69c3d5ce674U, 0x3d3d39633d069236U, 0xbc45d9d53ce2ae72U, 0xbd246bdabd154681U,
  0xbd04573ebd3dcd4cU, 0xbe01019dbdc99479U, 0xbe215858be1b0215U, 0xbe8b6cc4be7584e2U,
  0xbe7a8648be819e83U, 0xbdbeb597be341129U, 0xbc9fc4adbd48d299U, 0xbb91d3313c8a29b4U,
  0xbcf57b5cbb679e64U, 0xbc9919b7bd28ac11U, 0x3cdc425fbaadfe30U, 0xbb8301e53b4c1232U,
  0xbd284cc1bbff253cU, 0xbc2e5008bc9b9ad6U, 0xbccd82bbbc598e18U, 0x3c3526083bb21173U,
  0xbc35109c3bc78c58U, 0xbd6f2679bd1448a8U, 0x3bdf45abbd9cad61U, 0x3cf84f603d14f45fU,
  0x3d25c42f3d4e441cU, 0xbc220ae8bd0c3385U, 0xbcd1221ebcfc24c6U, 0xbd0c0865bc7222beU,
  0xbd38c54bbd8ba90fU, 0xbd536b39bd4e9c3cU, 0xbd059a51bc529b18U, 0xbd8553f2bcaeb102U,
  0xbda337e0bd9c440bU, 0xbdc95ce1bda7b148U, 0x3a24c8f1bd6d04cdU, 0x3d4793bc3d008d23U,
  0xbd14114bbd354676U, 0x3cfae2c7bd17efb7U, 0x3d98fff73da208c7U, 0x3ceb3fcb3d1b7230U,
  0xbb2c4fa9bb639628U, 0xbd112201bd6846ccU, 0x3d9bf5e9bc148959U, 0xbd6cd95dbc964d51U,
  0xbd0b808fbb76f4b0U, 0xbdf9344fbd69feefU, 0xbdda1539bddda580U, 0xbb118b13bd4e11cdU,
  0xbc18412fbd187fb2U, 0x3cd732c83b2afcecU, 0xbd8a26463d53f942U, 0xbd866ba2bd95f737U,
  0x3d3e1470bc95b887U, 0x3c07d6453d9895b9U, 0xbdb3210abd1cc3c3U, 0xbd645e14bd847bddU,
  0xbd07cb6dbd02fc32U, 0xbc09d7553ba49580U, 0x3c2ffc5a3cb963cdU, 0xbd7d1f303cdd1aebU,
  0xbce4fed5bd99233cU, 0x3cde0b86bca25460U, 0x3c9f02983d6f6044U, 0xbda730edbd804177U,
  0xbd42e939bdab44d5U, 0x3bd6cf5bbd4f6a44U, 0x3a8854fcbc0708c2U, 0xbc06b8a03d05b755U,
  0xbbf060023b8745bdU, 0x3d0701483bf6ee7bU, 0x3df55b213d4d5a5bU, 0x3cee291f3dbd163eU,
  0xbd7c8bbfbd12ed32U, 0xbe1b074fbdccb83bU, 0x3c106ac63d69ab4bU, 0x3ce59cf03db5999dU,
  0xbe1e0f903d3d7c09U, 0xbe7664b8be02c616U, 0xbe4d39e1be8b79f4U, 0xbcf7daebbe49989eU,
  0xbcd718843ac1ebc1U, 0x3e06606c3c44c629U, 0x3ccacef73ddaae36U, 0x3ccac9a43c7f9bf6U,
  0x3e13742e3dc883cbU, 0xbc407b763d985512U, 0x3e12abd7baac2ac9U, 0xbe027c713d9fbb6bU,
  0xbde5477cbe64774aU, 0xbc7e61953c9589abU, 0xbe2c7dcbbe240322U, 0x3ddb46c9bd853d97U,
  0x3dadf2c23e6a5abfU, 0xbcce82573c8aadfcU, 0xbde5feecbdbbdd7eU, 0xbc79146fbcd9f1c3U,
  0x3cbb2d153e1eec6fU, 0xbe939ac5be43d516U, 0xbeb28ce0be9b1343U, 0xbbb072c2be741b46U,
  0xbd9dc9003d13164eU, 0xbe98fcc0be07eff9U, 0x3d55f404be3715a1U, 0x3de42f693e305348U,
  0x3e0cefdd3e1fb113U, 0x3de7260c3da1e3a0U, 0x3dcd84c73e1f9cc6U, 0x3d26da543d29ff3aU,
  0x3e0c05503e0a0da7U, 0x3c592af33dcfbbbdU, 0xbd099547bde5f228U, 0x3de859cc3dac5facU,
  0x3cb82b0f3cabffdaU, 0xbdcb110c3be4cc5aU, 0xbde05dccbe0b2ca9U, 0xbdb320e6bdd34977U,
  0xbd19db73bdb1d399U, 0xbdf427dbbdccabe1U, 0xbc2134c7bd630ad3U, 0xbd3f65f9bd300f43U,
  0xbe102dc3be2bc5a0U, 0xbe05093fbe2940f7U, 0xbd743818bca2deaeU, 0x3e0e01663d088de2U,
  0x3cbd21ed3d8eded7U, 0x3e0e3d4c3d8f91b2U, 0x3c1b30f73e02f58bU, 0xbe3f3d98bd439990U,
  0xbe2e7eebbe65e723U, 0x3e01e4dd398ef689U, 0x3b452d1b3d195659U, 0x3cd55faf3caf470eU,
  0x3aab06e4bd2fc9bfU, 0x3dcc1e90bd1176a1U, 0xbc3714f53cdeac11U, 0xbd1306cabc1ef2cdU,
  0xbd9d9a56bd40e9beU, 0x3cabb399bdcc14a1U, 0x3e15a6c73e029620U, 0xbdb61f663da2ef8bU,
  0xbdbec7fabdf16f11U, 0x3e0b39f9bd7a695eU, 0x3e64e1493e5fb5e5U, 0x3e15c3453e5a26ffU,
  0x3d4136083da68d68U, 0x3d786dcb3d3511e5U, 0xbda4a98c3c7a755aU, 0xbd0e2556be6c9d85U,
  0x3ddb1d7a3d9fe70aU, 0x3cf5713e3e2c36e4U, 0xbe1640b63cd84eefU, 0xbde5bb3cbe461abdU,
  0xbd2253d7bdf93150U, 0x3c8a93983c63f757U, 0xba11cd333c3d84f5U, 0x3d67ce963db9bfd9U,
  0x3e5f26ee3e1fc00fU, 0x3e13124f3e347c75U, 0x3cba58513cf5e460U, 0xbdb79d5cbdacc9a2U,
  0xbd00f69cbdf74e93U, 0x3c05d4edbcc67c4fU, 0xbd99714dbd1b5d4bU, 0x3dab545c3c97ce57U,
  0x3df1e84a3e1b3614U, 0x3d324d9e3d84d000U, 0x3d4f28643b5eb6e5U, 0x3e148edf3e0e5093U,
  0xbd2eb7233e26b805U, 0xbe788546be208901U, 0xbe3d0537be96444aU, 0xbd328715bd922b81U,
  0x3c2e3b11bd7d0bb2U, 0x3db007ef3df63ff5U, 0xbcec26053dc1a2f8U, 0xbdb73b363c7fc53bU,
  0xbb80d847bd87f9ddU, 0xbd71db573d3ebf5fU, 0xbe7192e1be6f2a60U, 0xbdf8b630be3f3ae1U,
  0x392569cebd888bfaU, 0x3ce6447c3d67a4b0U, 0xbc5dab62bd46fdf8U, 0x3df716853df88988U,
  0x3dbbf9aa3e421164U, 0x3bf3b8b53d9516f8U, 0x3b199648bc131cb7U, 0x3d9b65493db2ba62U,
  0xbd43cc983cb80946U, 0xbdafddb6bdec0255U, 0xbe36c602be3a80caU, 0xbd3b0349bd492812U,
  0x3df4c9b3bc6292e6U, 0x3de419df3e2eea0cU, 0x3d59e8103dbb8422U, 0x3c3cbeeb3d11d5deU,
  0xbda7aa39bd1252dbU, 0xbe1ff38abe19dc89U, 0x3ce6cb19bd35e8bdU, 0xbd087b1a3d8037caU,
  0x3e22bd3c3d0ff4d6U, 0xbd99d5e4be2f1b5dU, 0x3d5c7650bc44a2d6U, 0x3e2955b43df502f2U,
  0xbc64c6163d372b0aU, 0xbe54e22abe21d24dU, 0xbe57924fbea180b7U, 0x3df66b493d58b8a4U,
  0xbb9442453d908c59U, 0xbe15568fbe1ebfb3U, 0xbc80757ebdede69aU, 0x3bec24aebd01b198U,
  0xbd4d5110bd9211a3U, 0xbdb2761abd3cf3eaU, 0x3d92f0e83bd277bfU, 0x3dff515b3e0af507U,
  0xbb8b624c3dd72c7dU, 0x3dcc737f3dd11447U, 0x3d489a413dfa72d1U, 0xbcd1753f3cdd7df1U,
  0xbc2bdb493c08fa65U, 0x3d0f758c3dc55849U, 0x3dc57f013d7379c6U, 0x3de58acf3e081037U,
  0x3a2d543e3cd12fa0U, 0x3d880adb3d983011U, 0x3d8f96643d793e42U, 0xbbeac5f63d7ff383U,
  0xbe129fc0bd13a495U, 0xbe83c7aebe5b61a4U, 0xbd727cd1be564aebU, 0xbd3875e2bda0ba45U,
  0xbd4b5ea0bc349b5bU, 0x3d3f1f6ebbb36092U, 0xbddd0797bc26304eU, 0xbe18b088be903e5dU,
  0x3d17e1d2bd820704U, 0xbe7e1e43bcb5be57U, 0xbe920e8bbea06eb0U, 0xbd931275be21eee5U,
  0xbc7dc4463c80ea74U, 0xbcffa150bcfa3156U, 0xbd97668bbd005432U, 0xbd11ace5bd325fceU,
  0x3dab8a753d71f38cU, 0x3ddb3cef3d9c6720U, 0x3d61bc333d9a62b4U, 0x3e07fd863e072baaU,
  0x3e6b3d783e807563U, 0x3e461e423e8568fcU, 0x3d8136cb3debaad6U, 0xbd0518d03c39aba9U,
  0xbcc0ab293c969892U, 0x3c4fb18d3c408c49U, 0x3c40aca2bc8eb0f1U, 0x3d8d81a33db802d8U,
  0xbe4ca9cebd8b002bU, 0xbe5462c5be8c6a73U, 0xbdfc1999be2448feU, 0xbcf11938bcc57564U,
  0xbd84674cbdb12ab7U, 0xbb2d96ac3c25a851U, 0xbe860b0cbd7628deU, 0xbe693174be21388cU,
  0xbe8b323abe93ae2bU, 0xbe18fcb8be1d4c5aU, 0xbe37d87cbe5b1252U, 0xbd5739b2bdf719c5U,
  0x3d9234703dc4b9ccU, 0x3d83d88d3dd1118dU, 0xbde32754ba43b461U, 0xbd16526fbe1f373bU,
  0xbcd0f5f6bd2f5d81U, 0x3d539c943c2de9dfU, 0xbde551943c870e3fU, 0xbd019a8abd81458bU,
  0x3e4a31d33dccfc00U, 0x3d83c4c63e040e19U, 0xbe106965bd63f264U, 0xbe91556dbe2cca09U,
  0xbe00c322be7457e9U, 0x3d6cab3dbcfbc053U, 0x3e19b7693e131591U, 0x3e42e5303e68046eU,
  0x3d41d6d33e4ee3bfU, 0xbc88d5683d348c41U, 0x3d68945e3d9ba3dcU, 0xbd8189053d6904d7U,
  0xbd820c67bdc3b565U, 0x3c915cca3d43c63fU, 0x3c86939dbcb7da52U, 0x3daa15953d5ae7cbU,
  0x3bfa5da93cadce66U, 0x3c55b0e9bc753f02U, 0xbd936ee8bc4c7b77U, 0xbd3ef3213a652f17U,
  0x3deb8f463d0aadffU, 0x3c7e84833db9dba8U, 0x3ca8b8063cb95d8eU, 0x3d267e65b967145fU,
  0x3e3582cd3e0f04c1U, 0x3c520fd23e1d178bU, 0x3c304945bce69b04U, 0xbd8c14babd2c412fU,
  0xbdde632fbda655fcU, 0xbd8c1bdcbda6d7c6U, 0xbd4a69c9bdec9dd8U, 0xbc03e502bd0332e8U,
  0x3d9ff75d3c7c97a1U, 0x3d45ceee3d15e90fU, 0xbd295446bcc07a20U, 0xbd539429bd95d0afU,
  0xbd3ccc5abda94d8eU, 0x3e0cc7603df9aa25U, 0x3dc9c8d83de707daU, 0xbccf10c5bd0db7feU,
  0xbcfe57e2bd9149d8U, 0xbd8bf85ebd44c842U, 0xbceec2e3bdf64267U, 0x3cf08ef5bd1d78d4U,
  0x3d35ab1e3d9f8752U, 0x3dc594333dc7cbd5U, 0x3d25db323d9265adU, 0xbd00dc203ba4ac8aU,
  0x3b3f238dbc1d3b68U, 0x3d0b628fbd7ad85eU, 0x3cf47b1f3c9e87a4U, 0xbdb9be0f3b418adeU,
  0x3e41b17ebe352a20U, 0x3d8b9dd93e228dddU, 0xbdab54a0bda27c3cU, 0xbc192460bda8829bU,
  0xbd9dbd03bd18cc61U, 0x3d872916bb5bc4e8U, 0x3d2712b73dc9317aU, 0x3cfc457c3d532e22U,
  0x3cdbeea73d507d74U, 0xbc736c683d12d7bbU, 0xbcbdf5f03c583275U, 0x3c9c8dce3cd65760U,
  0xbd97efc2bd3dcfa3U, 0x3c1f98d7bd52dcedU, 0x3d7639413d05c85fU, 0xbae5c1b53c9e1826U,
  0x3aa6d409bc4075b5U, 0x3bbcab473c32d984U, 0xbb41acebba37b9aaU, 0x3d27a633bcf732aaU,
  0x3d6970bc3da3643dU, 0xbb24e7383d4025d6U, 0xbd6686a33bb49a86U, 0x3dc9f41ebc06807dU,
  0xbd2d15723d42b8b7U, 0xbc13a6a7ba4f0575U, 0xbd0f4bf0bceac19bU, 0xbd3a142cbc184fcbU,
  0xbd8e7125bcaea7b8U, 0xbdaaee6bbd701a4eU, 0x3d28f2bcbda0aadfU, 0x3d4d993f3c8a8343U,
  0x3db588223d8975a1U, 0x3dd449033db5d3a8U, 0x3d537e463da19903U, 0xbd864584bcc67c3cU,
  0xbc1e6fb7bdb905bcU, 0x3e1501b43d90a1f3U, 0x3dda6df63e14c282U, 0x3beec4533b17b9ebU,
  0x3c7754dd3b8d97a2U, 0xbcaa243aba4187e5U, 0x3d25698a3c822c5bU, 0xbc37c25ebccb463aU,
  0x3a7dd233bc0742a2U, 0x3d4a41653d4bfcb0U, 0xbabe45563ccc92b8U, 0xbd5097e73b50ab7fU,
  0x3bb15cbdbd2bc9efU, 0xbcdb463ebd3051aeU, 0xbd9d3537bd79a8d9U, 0x3db7d2da3cc2fb88U,
  0x3cf812823d705555U, 0x3cc7b8d53c4a4ccdU, 0xbb081b6b3c324cb2U, 0xbb374bcf3c933f2dU,
  0xbcac6d3ebca9dc7eU, 0x3b206d393d19e6e0U, 0x3dc0b2533d8b54baU, 0x3d7f7f273c8a6a5aU,
  0x3d05d3103d1cef49U, 0xbd2f92e23cdd46f3U, 0xbd5439eabceadf80U, 0xbd2fb665bb12e3bfU,
  0xbcb8ffd1bc2d6480U, 0x3d678db6bab5304eU, 0x3d7de3273d6057f7U, 0x3d7eaa7f3da31c66U,
  0x3d04cfcf3d9ab97aU, 0x3c0ae3c93ba3bae2U, 0xbd866ed0bca94ec3U, 0xbd9dd395bdb51499U,
  0xbde14d14bdbee4ddU, 0xb9f648d7bd574f3dU, 0x3e0159163d8c7096U, 0x3d4f128f3dcbb30dU,
  0xbc9e76f8bac7a6f3U, 0xbd1508c03bf58faeU, 0xbc4d2e52bd985945U, 0xbd09e749bcc11c39U,
  0xbd8ad2bbbd979e1dU, 0x3d2d9e363bc0b456U, 0x3e2c42703d70f151U, 0x3e40129e3e43b836U,
  0x3e2223453e04c31fU, 0x3dc5e9d83e316e3cU, 0x3e0e43523dcf7153U, 0x3da063413e049821U,
  0xbc9582f13d6510b2U, 0xbc5916cebc84b253U, 0x3da0b111ba1f8cefU, 0x3d5a030e3d9233e6U,
  0xbbd806133c88f32cU, 0x3cfc105c3c0094f5U, 0x3d4b068f3cd4a2ffU, 0x3c2458453d8a5578U,
  0xbc8eee273c532417U, 0x3d5163d43b5e0eaeU, 0x3db4137e3e0aa853U, 0x3daa976d3d8692c5U,
  0xbccb70bc3c9c6b72U, 0x3dccc4853ceee3e4U, 0x3d5f7f2b3dfae3c0U, 0xbcaf23ea3c6107f6U,
  0xbc66662fbcf6646cU, 0x3c959e213bfc561bU, 0xbd73763fbcb6ff76U, 0x3b60cb2bbb8741e1U,
  0x3c78d2f13d010c0eU, 0xbccf2966bcc45876U, 0x3d36020c3d847a5aU, 0xbd49fed0bd539d2eU,
  0x3d3d89533cc0eec3U, 0x3c3a65a03d1ca590U, 0xbda98464bcf65b56U, 0xbd5907a7bdb3aaf3U,
  0xbcf84c283c1773b1U, 0x3c703ebd3c18def4U, 0x3cd4123f3d11b0caU, 0x3d003b7a3c8872fdU,
  0xbc3752603b8f299aU, 0x3c78853fbc425cb4U, 0x3d31311d3d31601fU, 0xbbe21498bcfecfa1U,
  0xbd9c99f1bd4f3443U, 0xbdbab75abdc4c47aU, 0xbde480d3bd95d069U, 0x3ddddf7c3d009029U,
  0x3f9bd964bf8fa0d7U, 0xbfcd16babee3bd56U, 0x3de5d1163fe786efU, 0xbfa9e30d3da5b0f4U,
  0xbf908badbe1f204aU, 0x3f0fadefbc393530U, 0xbe712b003ed9bad3U, 0xbf245d94bb8bf3b0U,
  0xbe9e52123eec152fU, 0x3ec7a04cbe4589c0U, 0xbe9200e4be0abde5U, 0xbedd98a5bd685af0U,
  0xbdf6240b3e3a5aa9U, 0xbfb81a2cbefebc84U, 0x3eb31daf3e8ce185U, 0xbe6dd0f33f51e1bcU,
  0xbe112428bf2fe7adU, 0x3fa09b68bf0c72a5U, 0xbf127f50be87ab4eU, 0x3c8248db3f046c1eU,
  0x3d0bd861bf082c8fU, 0x3d66dd1b3e8e0234U, 0xbee771d2bf56a459U, 0x3f2b346dbd93b859U,
  0x3f600906bea1f7a4U, 0x3e8b4f783eb8952dU, 0xbf85df31bf989081U, 0xbef910be3f2ff7dcU,
  0x3fa76a36bf1cb473U, 0x3f90c210be9a0a45U, 0x3ecd4d3f3ec66bc1U, 0xbe4efb183e89702bU,
  0x3de194a13e95cf9cU, 0xbe63554dbed40ac5U, 0x3c29c07fbeae4955U, 0xbe9147153e1d75feU,
  0x3f51130e3f82bd84U, 0x3ee1ab13bf31f564U, 0xbea683cfbf15e862U, 0x3ed25d3bbf86bc45U,
  0xbda41ba6bd6a3f41U, 0xbdf7e52dbdf8accdU, 0xbd918b32bd95a9dcU, 0xbdecc30dbd948e3eU,
  0xbd73832dbe679692U, 0xbdfc5f4fbe35cb67U, 0xbe4dbcb73d9a62a9U, 0x3c44315ebe1fd327U,
  0xbe1f5b72bbae4228U, 0xbcdfd7c1bd81c86eU, 0xbdc51d2ebdfa5dd2U, 0xbdf1973abc0b06b3U,
  0xbcc968603ab45e87U, 0xbd1cb6693cb031ffU, 0x3d852787bd2da8aaU, 0x3c94fcde3d3227b0U,
  0x3dde51aabd0b1ab2U, 0x3de657023d94e285U, 0x3dd0c7d53d97fcefU, 0x3e04661a3ca745f5U,
  0x3cb08a1c3df9f567U, 0x3cc603be3e2627d2U, 0x3d32203f3dd39287U, 0x3e00abe13c846427U,
  0x3c1336a63e64fd38U, 0x3e2530f73dbc28daU, 0x3d7dfcc83dc53233U, 0x3e12f6d23e26f4d8U,
  0x3de3f37f3c05a70aU, 0xbc8ffa693d1ebed7U, 0xbca438493d2637e6U, 0xbd5e8da0bcada0ebU,
  0x3ca25f23be2a1818U, 0xbdd92a7bbdf5a10fU, 0xbd1b91acbd393e9fU, 0xbdca07f1bd0d6c1fU,
  0xbd64d7f3bd7024a0U, 0x3c2d5196bce63e70U, 0xbdbc7b6fbdc72f2aU, 0xbdbb3ba7bc6ff51dU,
  0xbd64acf6bda51c9fU, 0xbe3d800dbd74e415U, 0xbe29cbbb3bf46af1U, 0xbdd2d05b3d0d72c8U,
  0xbdaf424cbd59b9ecU, 0xbe02c592bbc82c2dU, 0xbdd2f16e3dd89b45U, 0xbb52644dbd170409U,
  0xbdd53e1fbefa50b5U, 0xbeab5a89bd223c5eU, 0xbe40c65ebe0152a7U, 0xbdaa243bbe710055U,
  0xbda8223aba87bda9U, 0xbc462f22bd8f434bU, 0x3d0589bebc89cd04U, 0x3b850f3abd5af931U,
  0x3d890d133ddee3a5U, 0x3e3478723dc86223U, 0x3c06737b3dbf754eU, 0x3e80ae2d3dfc271cU,
  0x3d15dd9abdf3b44eU, 0xbdcd6059bcc0b172U, 0xbd35a1783c1a9838U, 0xbdb6f2a33ba628aeU,
  0x3da59435bc14b505U, 0x3dbf99273c58b8d5U, 0x3dded2e23bf0d493U, 0x3e2245e63d876d6eU,
  0x3e1187213e227773U, 0x3e2fbb583e2570beU, 0x3e1cd3513e3840daU, 0x3e87f1f53c5f72d5U,
  0x3c4cc2f5bdac418cU, 0xbc733d56bdc790c8U, 0xbd57a3e4bdce8160U, 0xbdb31f79be162629U,
  0xbe420a84bd90548cU, 0xbdd95598bd003037U, 0xbdafe5b5bdb36f2dU, 0xbe3b7ccfba611d9eU,
  0xba558b3e3c25001aU, 0xbdcb2b4bbe0316a1U, 0xbe0c61fc3d4a9895U, 0xbe1495a23d86af9fU,
  0xbd9378f2bc0fda1dU, 0xbc4e43a43d8a4559U, 0xbc1b2e14bd9c4db9U, 0x3b717dc3bd5894c4U,
  0xbe12bdd4bd4181e6U, 0xbe342bc5bdbeb8a8U, 0xbe2c5f9cbe55564eU, 0xbe5a4ec4be921e03U,
  0xbe108c25bea145c2U, 0xbe390575be419544U, 0xbddce162bd8bd362U, 0xbdecc572bd87e649U,
  0xbf065ae03f977b6bU, 0x3f89d19cbe5c881fU, 0xbea95dbe3e3062deU, 0x3fd42d363fca8841U,
  0xbdc5e36f3f137af8U, 0x3f880a6bbf47e2c9U, 0x3f25923a3d0f6841U, 0xbef0cb553f62b4f1U,
  0x3ece269dbf181f99U, 0xbdab32fb3f516d67U, 0xbe815d70bed1d5dcU, 0xbec8fababe3307c1U,
  0x3ee4af28beca2b3aU, 0xbf81cf34bc659751U, 0x3f87db42bef61fffU, 0xbf597217be80fb77U,
  0x3f0e5cb13ec1f202U, 0x3f2985153de7c37bU, 0x3f1b3a963f812bf4U, 0x3f2d6108beb8c167U,
  0x3ed6cec1bf83b449U, 0xbed73cab3e904f6aU, 0xbeefbce5bc906279U, 0x3f1d4b25bed0044bU,
  0xbe9a6c003f285b38U, 0xbc4a2d0abe2e769cU, 0xbeadca203e67e3d2U, 0xbfb6a71cbfc10df2U,
  0x3e98ad50bdddd273U, 0x3f1baaa73d5b0e28U, 0xbd38b7653ca49921U, 0x3f192ef63eface62U,
  0xbf509fcd3f7ba54cU, 0xbfeb225a3f3e6b67U, 0xbe96fa27be798f81U, 0xbf8bcf4d3fbccd2dU,
  0x3e992ea4bf15677bU, 0xbfa684513f27ad99U, 0x3fdcb6153ee7b657U, 0x3f58c23dbf25cd0aU,
  0xbef17d1abfcff7b8U, 0x3e926f983e42be3bU, 0x3ee00b9c3eb8f91eU, 0x3d84bb78be6d7838U,
  0x3f02151fbf65183bU, 0xbf37697c3f457576U, 0x3faeb0e2bef5e435U, 0xbe7ccc3abea6480dU,
  0xbf30e4bdbf82253aU, 0xbed3d553be99895aU, 0x3e70bcfec00bc142U, 0xbd1be9363f5b1edaU,
  0x3d0e421abe013e14U, 0xbe3f88f8bd5a860eU, 0x3df19b1bbeaa5166U, 0x3e0c9c5a3ee12966U,
  0xbd83bd783e99014fU, 0xbec86555be28c249U, 0x3d5873efbed6c35aU, 0x3edc1d50bddf21ccU,
  0xbecbe0e33f377dd6U, 0x3d00dd65bdd4976aU, 0x3eea147a3ca0338dU, 0x3edef9913dbdcfe6U,
  0x3d43717cbd59822fU, 0xbde78a73bd5eaa0fU, 0xbe9429643d87fb5bU, 0x3f262853bf98492bU,
  0xbd38a36d3f7c9d47U, 0xbe4a3e533f41accdU, 0x3b93c788beb154b8U, 0xbd8f77d4be5fd693U,
  0x3e6fb006bc7cde8cU, 0x3e8710aabe9609b6U, 0xbe997d973dce1028U, 0xbed3d3433f03eb62U,
  0x3e625f98be929032U, 0xbf209a70be3f3c93U, 0x3ee653553e2c54b2U, 0xbe0ea243bf1c92f8U,
  0xbef0f8bebe6c1607U, 0xbc08bc643dfe877bU, 0xbecba24dbdc9a62bU, 0xbf5b83a93e788085U,
  0x3ecb8ebebe6ec66eU, 0x3ef836b7be54acadU, 0x3e59004c3ec289f5U, 0xbc49181d3dc5950fU,
  0x3e90f0903ea591afU, 0xbe98c3b5be24e291U, 0x3dc1c374bec57633U, 0x3c9bc72a3e9e9da0U,
  0x3f1470e03f14f3b1U, 0xbe946f0cbd27375aU, 0x3dfb52593df8890fU, 0x3e8a83b33e6357c1U,
  0x3f1dbeeb3cda3951U, 0xbe73ac2e3f625ae3U, 0xbe3d8e3cbf600759U, 0xbe1088ee3e452177U,
  0x3d94da0fbde153f8U, 0x3f043bd03d033906U, 0xbe6b0ec3bf1c5ea9U, 0x3f288fe63d74aaa7U,
  0xbd7c70523da9b0dbU, 0x3d5a66a0bd95c373U, 0x3eb2246c3e8e7a4aU, 0x3ea0b8b13d91a173U,
  0x3c3225f63f09e443U, 0x3e5ea0b33e73f10cU, 0x3ea1e6003e33d79aU, 0xbdfbbf353e52db53U,
  0x3e4e04b7bda972c3U, 0x3ed69c8c3f3ec0a7U, 0x3dad21653f61b595U, 0xbd963442bd865534U,
  0x3edf5f063ee272e7U, 0xbe80d297bdcf99b4U, 0x3d638dbb3d516e17U, 0xbe8eb319bed20f63U,
  0xbcd324a9be1ebd18U, 0xbe74bca5bdc8ee2aU, 0xbe2aa45fbb2fa3a2U, 0xbd201468bf2ac923U,
  0xbd4dfda33e932a18U, 0xbe12e198be9f81dcU, 0x3df9a4e03def03d3U, 0xbf2bd0fa3d2bcb50U,
  0xbd8bbf7f3e46136fU, 0xbe183e603e2c2921U, 0xbd96b640bd547065U, 0xbc92c2c2bf03bc3aU,
  0x3cc9be75bd9eb96aU, 0xbf0d28fb3aa2f073U, 0xbe5a1a3dbe3bdc25U, 0xbc957e7b3c147b1cU,
  0xbea52be4be888516U, 0xbe9558833dacf861U, 0xbe3f72d8be119aa1U, 0xbeca1e5c3e918b90U,
  0xbdd093ebbec457a2U, 0xbeeb1fb5be7d9aceU, 0xbe86d5cabe0da3faU, 0xbdb87d9abe9bba09U,
  0x3e3908f2be16cbc3U, 0xbea0d3c93d6dea77U, 0x3e779171be7f2616U, 0x3cb648083e07fb71U,
  0xbe4d7a5ebd9fa2cdU, 0x3eb908df3e8b2ebdU, 0x3ef7d2523f1c00a2U, 0xbde54de2bea5a099U,
  0x3e1b40ba3eb28d27U, 0x3b9757ff3dc53216U, 0xbdd18b393efae304U, 0x3e8f618d3dad85e7U,
  0x3df4130f3d0c7301U, 0xbee73bcebe1ffb7cU, 0x3f198c14be75345bU, 0x3c86f7753e98d592U,
  0xbe2adb5fbe44be01U, 0x3e21bc983ee219c2U, 0xbe290d9d3e87709bU, 0xbe23ae393dade5cbU,
  0xbf24df0ebf56c7feU, 0xbe9bd1823f97f1f8U, 0x3fed3376bfa77fb9U, 0xbf50e5733fe4c96bU,
  0xbe434777bef04d40U, 0x3eea83e5be8e3577U, 0x3f45c5b5bf5902a9U, 0x3e18b0bdc00db6b4U,
  0x3f0c15f4be5dcef3U, 0x3e1dbc0d3e7e47c1U, 0xbde55c5c3ec4240eU, 0xbeee698fbfa29678U,
  0x3ee7cad23ea16e28U, 0xbe64b768bf20aa98U, 0x3cb6ed7b3e3f9839U, 0xbe97ca8b3e194204U,
  0xbed1d28dbfae20a5U, 0xbebdbfe4bea7c762U, 0xbe30fa87bf04d233U, 0x3f13b6643edb96f2U,
  0x3fb1c7073e8b9457U, 0xbe9aae36bf0fe189U, 0xbfa5807abf4f93d6U, 0xbeaf88aabc6b44f4U,
  0x3da2f8ef3f71206dU, 0x3f2631ccbe32380aU, 0xc0088b49be3f4c5aU, 0xbe2df4953efc9bb5U,
  0x3ec5e1643da4506dU, 0x3f26d4b5bf7b5842U, 0xbf05e7e7bdc285bbU, 0x3dc426a1bd4a376cU,
  0x3ee26064becaba37U, 0xbeb5d78dbd81d44aU, 0xbf3a1ba7bf21fbc5U, 0x3f21466dbe1674ecU,
  0xbdeabbd8bef0cc58U, 0x3f5fbdee3c329e6aU, 0xbf2f145cbc9ead9cU, 0x3f8b34cdbf9b9e28U,
  0xbed4eb88bd14125dU, 0x3f0a3202be02b8a3U, 0xbed1b26f3ea810e9U, 0xbd91a638bd802fb5U,
  0xbdfaf274bd441147U, 0x3d355b2e3e9a0945U, 0x3e83526d3ebcf092U, 0x3e7bdefcbe0d38b9U,
  0x3d9102143dfa6979U, 0x3ccf40c63d64c156U, 0x3e07ca54bddbad9dU, 0x3e89fc173f0cc8ecU,
  0x3e11dac43d7ce0afU, 0xbdab0a443e9ced87U, 0x3da455e13e63c23cU, 0x3ee6f7983e523521U,
  0x3e83fe5fbda5055cU, 0xbe3b23db3e963e08U, 0x3e818255be598ef7U, 0x3e2a2b4ebd382d85U,
  0xbe94f74dbd908f45U, 0x3e569f31bdd4a193U, 0x3da8551bbd3b37ffU, 0x3e64db293f18aaa6U,
  0xbe7891913e4fc9c1U, 0x3d49172bbd09fc64U, 0x3deb5993bdc7d3dfU, 0xbec19fd8bf1e12ccU,
  0xbf17ab43bec5665aU, 0xbecaae07beb99b3cU, 0x3ecee465bd914981U, 0x3d2513f1bd73e9a2U,
  0xbc903142be6bfa41U, 0xbc846a823e44f32fU, 0xbbe98b313d15f51dU, 0xbcbeb8d8bd58eb57U,
  0xbdb527743cadcdffU, 0xbb3d801dbe9dbcd9U, 0xbe07c735bde6c555U, 0xbbd67a3c3dfd86c8U,
  0x3cb5d7adbe161df3U, 0xbe9bae15bd17514fU, 0xbcedea49be465bacU, 0xbe3670e0bdd51123U,
  0x3dd9ddd83d473c3dU, 0xbd38f56fbc4adf5fU, 0xbe107aecbe409423U, 0xbe5dd27d3d24fd91U,
  0xbee3a6dcbf0b9a22U, 0x3dbbb731bf0d78a0U, 0x3ea636e83f039056U, 0xbe055ddbbe3be043U,
  0xbed5a2f3bebe8a0bU, 0xbeab9d09be357867U, 0x3ee67963be1fe84dU, 0xbdf202583e0ba58bU,
  0xbdc405163e92dabaU, 0x3b5d7cb5bde8669eU, 0x3d9ed10dbe98dab2U, 0x3e0eb936be494fceU,
  0xbe20e57c3e46113bU, 0xbe7d1d7c3ca91541U, 0x3e2746b7be7ec5c8U, 0xbe828b663ec8638eU,
  0xbd65603cbd79a0fdU, 0xbed280b7bea7ae53U, 0x3dfbd121bd6938c5U, 0x3ea4b9af3e1afc65U,
  0xbde45c413e6b8c19U, 0x3e47e488bde66900U, 0x3df5951bbe1c4ac9U, 0x3e75091ebd3a7ee5U,
  0x3e7eb2de3e69bf11U, 0x3e0d97793d8c60a5U, 0x3e4d10a7bd2cf768U, 0xbd8f896e3e3e4c36U,
  0x3d7be8dc3d99fa6dU, 0x3dc31228be4f1016U, 0xbe16d617be22eaeeU, 0xbe3d7913be894d51U,
  0xbc8177113e00fec4U, 0x3d819d273c2b0681U, 0x3d8ee30a3e064b3cU, 0x3dac3063be779e62U,
  0x3e09d35cbc8098bcU, 0x3d1fbaf43e668c2bU, 0x3e4e16683d8b4339U, 0xbcecc7523dcb6c96U,
  0x3e474af4bdcb81bcU, 0x3cbe1a4d3da66aa4U, 0x3e11aa123b2d3765U, 0x3d4469ec3d0d5a6bU,
  0xbe9a5cc5be2517d4U, 0xbe63b3e8bd9bd843U, 0xbdbd1a9b3dbfee9aU, 0xbe773b8fbde16893U,
  0xbc6264b63ded9bedU, 0x3cb89769be3a482bU, 0xbd410449be21ba1cU, 0x3e6abefebd96fac5U,
  0x3d45a0e2bdd52587U, 0xbe97ef7dbe117c2aU, 0x3e36b412bea8b3b1U, 0xbdd5e7a43cd6dc02U,
  0xbe5637f8be850675U, 0x3e5d895dbcefbb2aU, 0xbd55680b3cb37af8U, 0xbe38a74a3d6104f9U,
  0xbe33fd87bebdcd2cU, 0xbe42de28bcecd489U, 0xbe41bad8be95e3f6U, 0xbd200cf8bd0727b3U,
  0xbe94903a3ddfdd78U, 0x3d094398bf51aa07U, 0xbf2424dfbcf539bdU, 0x3f231b40bdad1c59U,
  0xbe800a413ec275d7U, 0x3e144af33e980397U, 0xbecfa47bbe8c8b98U, 0x3f3f6f84bf01f6f2U,
  0x3ec0acbd3b854d36U, 0xbecc6e5a3e774695U, 0xbf898e39bf50acd9U, 0xbebe342bbf232de4U,
  0xbddaafc8bf925ccbU, 0x3faeeabf3fbd0496U, 0xbfc44936ba87ee80U, 0x3fb1f2f83fb5eb30U,
  0xbf1670863d4ec0f8U, 0x3e920a1e4019ec64U, 0x3f028a69be6e6990U, 0xbf9e147dbef4b00fU,
  0xba4057d8bf7608f7U, 0xbeed90293e995ca2U, 0x3df078463e6d4c48U, 0xbf7cd19ebf1cca7eU,
  0x3f131d47bf9b93d1U, 0x3f1f79d5bf65c1a0U, 0x3f32fba13f53ff03U, 0xbf4c218fbf40b7aeU,
  0xbeec50c73d103a5cU, 0xbeb85a05bd0572ceU, 0xbed0bee5bf0ddb1dU, 0xbf919ae03e42c65bU,
  0xbd9e26723f596a90U, 0x3f1385b7bf4ab873U, 0xbfcd059c3c93862bU, 0x3e00b6443f2e6ecdU,
  0xc00cec27bf76eda5U, 0x3e285f37bf2dba9fU, 0x3f19e525bf221c61U, 0x3dc3a93fbfcb32daU,
  0x3f6145a03ef63778U, 0x3f995532bce22676U, 0x3e90e79ebfac1f30U, 0x3f02dea4bf886574U,
  0x3cd6bf62bcd2c184U, 0xbf8bbca7bf188840U, 0xbee188f6bedac0d5U, 0x3e039d25bf1134ffU,
  0x3ea5ba69bf8edc3eU, 0x3f7a51543fb255baU, 0x40463b63bb9aa240U, 0x3f618097bf9f781fU,
  0xbe037f5dbc14ce95U, 0xbefaa234bdfe3dceU, 0x3e018403bbf8018aU, 0x3e1069ba3dbd9288U,
  0xbe96f0603d57f5d6U, 0xbc52809dbda300caU, 0x3d8fd432be08db5eU, 0xbee0740cbce1c981U,
  0x3df7832f3c6d9af9U, 0x3df025753d964770U, 0xbedea99bbc87c3f8U, 0x3e050045be8f3e99U,
  0x3ec370f03d10055bU, 0xbe521f633e7cc44bU, 0xbdc349eabdb49e23U, 0xbd98cc983bfed2e8U,
  0x3e3f2da73d8badedU, 0x3df3b36f3d938701U, 0x3e34fc473c9fb611U, 0xbe4fb9433ea30288U,
  0x3e0d07ffbebb50bdU, 0x3d12bc8a3daf45a8U, 0x3e0c57223e144e7dU, 0x3e99f8bc3df9aac1U,
  0xbe5f52a2bd012df4U, 0x3e359c9c3dcf49cdU, 0x3e570d59be312bd5U, 0x3dbd40713e2acabeU,
  0x3ec07c063e679321U, 0x3c714e96be577170U, 0xbdb9b4803e8bcba7U, 0x3d6cabf6bd1e61a2U,
  0x3eb64bf63d502279U, 0xbdaec2ad3daedf4fU, 0x3e45934c3eaea218U, 0xbe86b7dabe2b95baU,
  0xbeff69af3e2fa904U, 0xbe3e04793eb94b2dU, 0xbddcc7c4bef4b5b9U, 0xbed38f16bde07a2bU,
  0xbe7fd7b3bdaffceeU, 0xbdc87235bed1cfc6U, 0xbe6c810d3d4e21f2U, 0x3e65942d3ca50267U,
  0x3e99bc963a95bba5U, 0x3dd543ee3eecdcbfU, 0xbe1073143e82f014U, 0x3e2795a9bd3f7b3dU,
  0x3e6d05473db28b71U, 0x3df53dab3e8a18ebU, 0x3e9c16113d72b036U, 0xbe25b16a3d741782U,
  0x3e6d69b8bd351750U, 0xbe25e8c4bdefacb8U, 0x3e98ccd73ea7bbdcU, 0x3e03c31abe33df5fU,
  0xbe8950d33e7e3cd4U, 0xbcc20e24be20fda2U, 0xbeebfdb4becf5426U, 0xbe2b1c7abec6f241U,
  0xbf8a90673d7c29f7U, 0x3de36480beef4e7fU, 0x3e014fa33e6bfee8U, 0x3df390313ce3a3b1U,
  0xbe000c473bf9267bU, 0x3dd388343da708a5U, 0x3daad45e3c20697fU, 0xbd51f38abe390f04U,
  0xbcd937923d9525f7U, 0xbd2f487abe145b7aU, 0xbd330fc0bd6ce408U, 0x3e2650243dcaeea8U,
  0x3d95b49a3d615f06U, 0x3dbdafdd3dcdf42cU, 0x3e2d6ef23dc1aab1U, 0xbe0e04a0bd55a31bU,
  0x3db0d58abe277471U, 0xbe1a46793d8d19b9U, 0xbd4f79d0be0c6549U, 0x3d6fade93dadd38bU,
  0xbe72d44dbcd8cf91U, 0xbe19486abe59eb17U, 0xbc18507fbe013bfbU, 0x3e5e45b73d8ad820U,
  0xbd5e06e03a04c379U, 0xbc8a55efbd30db05U, 0xbe3b9e51bdfbb97dU, 0x3e96ebf1be0fbc41U,
  0x3d8294e73e1fb4b9U, 0x3e084494bbca8700U, 0xbed6580abe661eeaU, 0xbe19b3e8bea7239aU,
  0xbe242bae3d1a8a62U, 0x3dd71db9bca25a15U, 0xbd9ad4213cd8303fU, 0xbe8ba7bebd934a5dU,
  0x3d84da10bd648f2eU, 0x3e5a40943db4a459U, 0xbe78d229bc522028U, 0xbef88cd6be1d6e6cU,
  0x3dd1058ebea32e9fU, 0x3e8643a73e863d02U, 0x3dbf2fd53e0525d2U, 0xbe89baafbe5be426U,
  0x3c999938bc4c76b8U, 0x3ea4c4b5bd34f443U, 0x3d853ffd3ea4c81bU, 0xbe2307dc3dd0655bU,
  0xbb310d2fbe53e520U, 0xbe8fbe753d8b19c5U, 0xbd8aad5cbe8ee209U, 0xbe52f595be5f70d8U,
  0xbd9ee55d3d5e181fU, 0x399d0082be819122U, 0xbe8c356dbe431a6bU, 0xbd16ad05bdcb4165U,
  0x3e24845cbe11a353U, 0xbe98b849bd81219aU, 0x3d11e5c2be03ef1cU, 0x3d3093d5bddf4ba6U,
  0xbd642612bce2844eU, 0x3e0077263c33bc31U, 0x3cdedb293e07fa5aU, 0xbf0d0530bc93f741U,
  0xbfa7c98e3fb7dbb2U, 0xbc977c60bed9ff5fU, 0x4000b6b4beec9fb1U, 0x3fea7477be8add57U,
  0x3f97dfa73ecdda7cU, 0x3d95f963bfc3f8ccU, 0xbf0768023fc035dfU, 0xbeed0839beab5fe3U,
  0xbe58f07fbf86fb2bU, 0xbf12be4abf130eacU, 0x3fc6ac7e3e4692faU, 0x3fd6f8f13ee684e2U,
  0xbfbea8be3fb3ab64U, 0xbf2afe1f3ee74307U, 0x3f5624fc3f262c19U, 0xc0011067bda49c5cU,
  0xbe95bc7ebff808b7U, 0x3d9e719ebf0c99d0U, 0xbef5e52c3e257c3aU, 0xbf17a9433f86c4e9U,
  0xbffaa6373fec6afbU, 0xbf2c91b93f9f3e94U, 0x3fc3530ebea298b4U, 0xbf829523bfbf709dU,
  0xbeb7444c3f65cc4fU, 0x3f865aa2be30f5a3U, 0xbf324df2bf2e059fU, 0x3e97ba1dbd5bc62cU,
  0x3f43c9c33ee54771U, 0x3d89feb93f138630U, 0xbf9474103f029dd9U, 0x3ebcfe343f538720U,
  0x3f13ebb3be149680U, 0x3f00a259bec84f1dU, 0xbeae86373f26251dU, 0xbf42aeb73e131e4eU,
  0xbf1fba61bea53b28U, 0x404ba134bf1e99d7U, 0x3f66db39bebab4d8U, 0xbf16d793bf2edf74U,
  0x3ea3bf0d3d8b8ad3U, 0xbd3a61a33da3d1f6U, 0xbeed0bd93d589239U, 0xbd687a873e5e0fe6U,
  0x3e9629a63e01b773U, 0xbe05c68f3dc7f42eU, 0xbecff7883c2a7043U, 0xbd6600883e447c2aU,
  0x3e81f2173ddd68c7U, 0xbdce7b763e09c5bdU, 0xbea913ae3bb21d8aU, 0xbe2cde4f3e5bb0f2U,
  0x3eb5ebfa3db0169aU, 0xbe13c2a13de0bc40U, 0xbecee7073c2596b5U, 0xbe0f77fd3e29e7ceU,
  0x3e9e9fcebc375288U, 0xbd43bf883e086767U, 0xbef7e9ec3c528538U, 0xbe1727e53e6b4df3U,
  0x3e9417243dc2eed3U, 0xbd5310653e021b1eU, 0xbed0ef0b3d4b3d96U, 0xbe30e9663e338e6aU,
  0x3e91ec713c1ba283U, 0xbe24d51a3d9d8ae2U, 0xbf011d4b3da78decU, 0xbe2f2ea13e08fae8U,
  0x3eac706b3dc8cf29U, 0xbe334f6e3db871d0U, 0xbee6b7a63c259214U, 0xbde4d66e3e2686f6U,
  0x3ea537533d1347bbU, 0xbe0f5a743e1d3ee4U, 0xbf0b4ac43df18e8dU, 0xbe4d6f063d9c21e2U,
  0x3d28914c3d9b0a80U, 0x3ddd0e98beaf264cU, 0xbe4392793eb0afaaU, 0xbd1248cc3e463e4bU,
  0x3d927ed93d386fbeU, 0x3e2db918be420e5eU, 0xbe0d4e9a3e648bfbU, 0xbe06e0853e45479bU,
  0x3da61dd53e30dfe7U, 0x3d3c0bd6be1b7275U, 0xbdb17d703e714bd8U, 0xbe0a50f73e3057efU,
  0x3d8dde6f3d199cc0U, 0x3e07729fbe69044aU, 0xbdd6f1c73e2e5b82U, 0x3c06cd603df86bbfU,
  0x3d8de2ba3d727e19U, 0x3de9b745bea98805U, 0xbdb3db1f3e458dfdU, 0xbdc0eb953d9cdafaU,
  0xba39c53c3e331670U, 0x39cfe5a4be272bbeU, 0xbdfd125c3e70079cU, 0xbdfe10fb3e35d4eaU,
  0x3de142953e35f8d7U, 0xbd24e503be1704d6U, 0xbd8046e43e26fafaU, 0xbdcec6163e62b87bU,
  0x3dd0537f3e0d598eU, 0x3d1d0064be62054dU, 0xbd968d113dba5340U, 0xbd1e761c3d9b4f8cU,
  0x3e2fc4713e88bb4bU, 0x3d1bd9b4bea507d2U, 0xbdc5cd523e4a10a7U, 0xbc46f1ff3d781dfcU,
  0xbbddffb53ea58003U, 0xbb9b33163e60ae70U, 0xbde878023e6c9a95U, 0x3e4b6d61be37876fU,
  0xbdff55b53e837d8bU, 0xbdb19b3f3e0ceb31U, 0xbe23657d3e8ee7ffU, 0x3ea784babca4557dU,
  0xbd25ee383e8613f4U, 0x3d9032113d78f8feU, 0xbe37895b3e96fef2U, 0x3e8cf02bbc81f451U,
  0xbcc62edf3e75bd44U, 0xbd1f41073d7c273dU, 0xbe4e50bc3e3135a4U, 0x3def8041bd87df45U,
  0x3bcdc3d03e5015dbU, 0x3b30765b3cd13fcdU, 0xbe7c67a43e88c880U, 0x3d679b93bc02e8a5U,
  0xbcc382063e971f6eU, 0xbcea54cc3dca1ca2U, 0xbe57f9453e713b3aU, 0x3d8f0b733c281e85U,
  0xbe3883363ebb92bdU, 0x3b186d4b3d4ba718U, 0xbe71f0a13ebde713U, 0x3de60863bd83396eU,
  0xbdc036c13ebffedbU, 0x3cbdc8e63dfad338U, 0xbea8c2223ed2c678U, 0x3e0ff208bd479386U,
  0xbd6ac5183e45baa1U, 0x3d5aa3613d2bf82bU, 0xbe8763eb3eaf3868U, 0xbd467b243d179754U,
  0xbe8670b2becebaa6U, 0x3d6861193e23805bU, 0x3eb97627babcf3ceU, 0xbe134a503e047e09U,
  0xbe8eebe4be8ea155U, 0x3d857feb3d71d588U, 0x3ec2aca83dbb7969U, 0xbe574c383cf32ff0U,
  0xbeb8f6b8be719151U, 0x3cee84ee3e3dd726U, 0x3ec798663d33bb41U, 0xbd9ed21d3dd4f6f4U,
  0xbe79873bbe73692bU, 0xbc7ab00c3e02d8c8U, 0x3eb1c9c1bd6914a4U, 0xbe0853313d0fd6f2U,
  0xbe43effdbe78c156U, 0xbdbe92633cdcc4c0U, 0x3eb2ba55bd66c85fU, 0xbe5db1e63e344079U,
  0xbe50492abe21cc91U, 0x3d6f32433dcb3693U, 0x3e94f14dbe0945daU, 0xbe6650713e0832a6U,
  0xbe769bdbbe5ff25aU, 0x3c012b283d707d14U, 0x3ec3a7d5be1a9319U, 0xbe1d429c3e8b83c3U,
  0xbe936832be3554f8U, 0x3d2850ca3dfe0ad1U, 0x3e7f6422be1362a4U, 0xbe3ba4e73e47e895U,
  0xbe78f348be74a684U, 0xbc44685a3df5a184U, 0x3e6b0c78be243e21U, 0xbeaef81e3e973d34U,
  0x3e45095abeb6f0eaU, 0x3d93c27c3d882db1U, 0x3f0ff725be1c42e5U, 0xbe66c1b7be60eb38U,
  0x3e0d0ee9beb09d60U, 0x3c751a8a3e38b348U, 0x3f11cbd1be4ef9c5U, 0xbe5d2d0bbeca9725U,
  0x3e3f5123be8fb192U, 0xbb6a09643e2d7cd1U, 0x3ef99774be3e2f11U, 0xbe0340febec3e81eU,
  0x3e5d708bbecd71efU, 0xbc66fea3bd7f7bbcU, 0x3ed7dcf8be38f8f7U, 0xbe728b87bef610f9U,
  0x3e5f731dbed9b8d3U, 0xbc408df3bdf9c4c1U, 0x3eb9b4cfbe0b093cU, 0xbea0c868bed51b30U,
  0x3e97bc77be9e9148U, 0xbba19f91bd962474U, 0x3eaecb2cbe4c843dU, 0xbef21529be9a99bcU,
  0x3e6ec771be928832U, 0xbdb7469dbcef46c1U, 0x3ec4711abdf3f740U, 0xbf13d444bd177330U,
  0x3ed23424beaeee80U, 0xbdd974963de9976bU, 0x3eb0c0c9bdb70e19U, 0xbf1446a93e56ecbcU,
  0x3ea5217fbeb62292U, 0xbe488fcd3e4f77fdU, 0x3e93f1b8bce942d4U, 0xbf2bc7063e9452d7U,
  0xbc9658e23e39f4c8U, 0xbdde4c9fbd8dc7dbU, 0x3d98d69e3e405c9aU, 0x3d7a6b083ea2bebaU,
  0x3cbec5413e1cb4f4U, 0xbddd9f77be14c40dU, 0xbcab2dde3e25a214U, 0x3d82721f3e7beb9cU,
  0x3d3274263db19566U, 0xbdd4f5afbde970f5U, 0x3cdcd70d3e0f9542U, 0x3dd0e8513e8f5e9aU,
  0x3d1ad5ab3e18bddeU, 0xbe04193cbd98a4acU, 0x3d9d82443da1df97U, 0x3db77ab03e4b3af6U,
  0x3daa0b913e81a792U, 0xbe254135bde1adceU, 0x3d01893c3d823921U, 0xbbd2cbda3e829991U,
  0x3c70ae083e9f9050U, 0xbd639562bd33ecd1U, 0x3d4dda943da7a181U, 0xbd44a3e93e477aa3U,
  0x3d03a7db3e93cb70U, 0xbd8a481e3b10416aU, 0x3d806fe03e165aa8U, 0xbd901b263e7d45bbU,
  0x3c7c3a3f3e8fb476U, 0xbe17777bbd1555bbU, 0x3d90df173c2ee395U, 0xbd4507ab3e9613e3U,
  0x3cdda6b83ec80610U, 0xbd5541d2be4a20a8U, 0x3dfe933bbc8475e4U, 0xbd584f7b3e7e6e4fU,
  0xbe075d133d78ccd8U, 0xbe1dcbcd3ea1f631U, 0x3c20111d3e82f02fU, 0x3f057f19be1ee48cU,
  0xbd8319ab3d876b28U, 0xbe1a78f13ec9dc3fU, 0xbd39c4eb3e7bacd6U, 0x3eecb816be2d1389U,
  0xbd72db64bb96eb34U, 0xbe663c3e3eb21d68U, 0x3b2b8cce3e855c3aU, 0x3ec68206bdb97ab9U,
  0xbdafc460bd9bfb19U, 0xbe06d1bc3ea221ecU, 0xbcc436b43eaf956aU, 0x3ec02b8fbda716a5U,
  0xbcc65b3fbda46d16U, 0xbe5e7c6e3ecbbb79U, 0xbcf887fb3e84ad91U, 0x3ebfb556be591308U,
  0xbdbb9841bdb847c9U, 0xbe036ac63ec74916U, 0x3c847b373e99a163U, 0x3ee86642bd8b5ca8U,
  0xbccd142f3bf9c196U, 0xbe7d874b3e991bb8U, 0xba6193e43e8476bfU, 0x3eb6d8b4be04a85fU,
  0x3bbf26b93c5ac02aU, 0xbe6eb1473e984766U, 0x3c8ec83a3e8ba11fU, 0x3ea1a1d4be2098d4U,
  0xbb99ff9dbd859831U, 0xbe7fbfc83e9588ceU, 0xbc60120b3e6cd3d4U, 0x3ea4bfb2be3911a9U,
  0xbb4688753e36b3a0U, 0x3e7a10fcbd7cc5e7U, 0x3e413f91be1c42e7U, 0x3e013fa3bd500918U,
  0x3cd6b0403e3f7b63U, 0x3e985165be1fdcd1U, 0x3e14eea4bdd4c37aU, 0x3dac8954bddb0e54U,
  0x3b4d270b3e4d2de7U, 0x3ea7c556bdbc5c31U, 0x3da2fca8be30c429U, 0x3e38bc55be2fd26bU,
  0x3d47c8b33e7dc227U, 0x3ebf3dbdbe271927U, 0x3e0e5b2dbe0c3e6bU, 0x3e29557bbe11d015U,
  0xbc3f0b353e3fbecfU, 0x3ebfb971bd12efb5U, 0x3e220f3ebe7f5e8cU, 0x3e65a34cbe193b26U,
  0xbc3aff603e4ce5d0U, 0x3ea522ccbc7b9cb4U, 0x3de4cb30be2070dcU, 0x3e4c3675be580a7bU,
  0x3cbfe3153e26f79dU, 0x3e9ebacdbda0445bU, 0x3e38632fbe70fa8eU, 0x3e080df1bdf64f05U,
  0xbd0892ad3e1fb679U, 0x3e8563fdbdf7674dU, 0x3df630a8be6d6e95U, 0x3e6ce568be41696aU,
  0x3bd72a183e3729e3U, 0x3ea6e585bdc71adeU, 0x3db6c18bbe996797U, 0x3e3ac47bbdf7f873U,
  0xbf6b436e3f4212c4U, 0xbf710694bba0c800U, 0xbeaf60d53f905d76U, 0x3f202f683d33ced0U,
  0xc07c0f0dc08d8da1U, 0xc01a8622c045d0f9U, 0xbf7a77afbfd955ddU, 0xbd49c789bf0bcc61U,
  0x3f61b2d23ec8ba6eU, 0x4014bb8b3fc5e12eU, 0x405fc9d8404a63e8U, 0x40a10db24093b62cU,
  0x7587492487767684U, 0x86785947d5ba7797U, 0x4803787778681893U, 0x8667f7ef78657767U,
  0x7578868838757868U, 0xb687577877883663U, 0x3efec8113f28ff85U, 0x3e551fbfbf774090U,
  0xbe3e57ccbe28cde4U, 0x3e1bf5a1bf50a596U,
};


ai_handle g_frfconv_weights_table[1 + 2] = {
  AI_HANDLE_PTR(AI_MAGIC_MARKER),
  AI_HANDLE_PTR(s_frfconv_weights_array_u64),
  AI_HANDLE_PTR(AI_MAGIC_MARKER),
};

