/**
  ******************************************************************************
  * @file    frfconv_data_params.c
  * @author  AST Embedded Analytics Research Platform
  * @date    2025-10-09T14:29:35+0900
  * @brief   AI Tool Automatic Code Generator for Embedded NN computing
  ******************************************************************************
  * Copyright (c) 2025 STMicroelectronics.
  * All rights reserved.
  *
  * This software is licensed under terms that can be found in the LICENSE file
  * in the root directory of this software component.
  * If no LICENSE file comes with this software, it is provided AS-IS.
  ******************************************************************************
  */

#include "frfconv_data_params.h"


/**  Activations Section  ****************************************************/
ai_handle g_frfconv_activations_table[1 + 2] = {
  AI_HANDLE_PTR(AI_MAGIC_MARKER),
  AI_HANDLE_PTR(NULL),
  AI_HANDLE_PTR(AI_MAGIC_MARKER),
};




/**  Weights Section  ********************************************************/
AI_ALIGNED(32)
const ai_u64 s_frfconv_weights_array_u64[4382] = {
  0x4080000040800000U, 0x4040000040400000U, 0x3a00000044ffe000U, 0x3f80000000000000U,
  0x3e5cb0f53e2d01c2U, 0x3e503d91bd01f38fU, 0x3dbd1609bbc5fad6U, 0x3e08ffbcbd69bbbbU,
  0xbe0b13d53dffc000U, 0x3d7a791a3e470e17U, 0x3d9cf34a3e391557U, 0xbc2adeee3e060132U,
  0x3d9320803dde20b5U, 0x3d838028bd46b10bU, 0xbc5feb91bda9ca46U, 0x3e1f0751bd91ad42U,
  0xbcf38e4dbe3c5e1cU, 0xbd8302b9bbda6ed7U, 0xbe2a6fe53d7411aaU, 0xbdc0f29c3e7a093cU,
  0x3e1bbb6b3e59c9bfU, 0x3e82f6673d6258d4U, 0x3e8763ed3e0384f7U, 0x3da460993e0c55e6U,
  0x3e185ee73e484adcU, 0x3ecb6ba73e91ac65U, 0x3d69380c3e8e9727U, 0x3e4636503e744b5eU,
  0x3dcae85e3e837156U, 0x3df178babcd6be07U, 0x3e947b783c1c3c98U, 0x3e5835b53e011e6bU,
  0x3e3f48023e3639e6U, 0x3d0d42983ea844d4U, 0xbdf6ea803d813e0bU, 0xbd7a6f863c27b5adU,
  0x3d8053113e1f6087U, 0xbde469c53e283e8cU, 0xbe19799ebe36ef78U, 0x3e131b463e3f2797U,
  0xbe1a45cb3e812613U, 0xbe81be14be897f84U, 0x3cd1779bbe5b6920U, 0x3e0d554f3d878fecU,
  0xbe646ebebe4848eeU, 0xbd9f34ffbc3c865cU, 0xbd9fc1d43daec87cU, 0xbea9e831bd28115aU,
  0xbd4481bfbe975b30U, 0x3da304a23d30caaaU, 0x3dbd50563e35a7e8U, 0xbe63d6c4be92bda6U,
  0xbd8f66c93d06329bU, 0xbda74fe7bc1590a8U, 0xbb80ddb3bd854fa5U, 0xbe263975bdf142deU,
  0xbe038793bd81f9f7U, 0xbc248b13bd5db6f3U, 0xbdc079c9bdcf34a5U, 0x3d34cbee3dfbf022U,
  0xbd4366b23d308769U, 0x3dae00d33d8e5697U, 0xbd4659333e17736cU, 0xbdc5eaf1be1c30aaU,
  0xbd83e119bd717d72U, 0xbe1472903c5eac48U, 0xbe0bf982be051d77U, 0xbe962c3bbe73c976U,
  0xbdcd603a3db8eba7U, 0xbd18af343c8597b6U, 0x3dd0b8f3be7822e0U, 0xbd373ff1bd0f7b78U,
  0xbe838183be4a40c3U, 0xbdb1cf6cbd5da412U, 0xbe17a6ec3de1e72dU, 0xbdd6656d3e796749U,
  0x3da3a41fbb46d30dU, 0x3e69999a3d90b545U, 0xbe3f51ea3e47811eU, 0xbd033de53dda0a8bU,
  0xbd74ab523d006b2cU, 0xbd960beb3e456b5cU, 0x3ddec8303dbcc94cU, 0x3c0368e53e2ae1d9U,
  0x3e34254a3eb817d9U, 0xbdaa127f3df290e7U, 0x3def24f73e171c68U, 0x3eb784473d9de938U,
  0x3c723ca83e527112U, 0x3e1f77e0bcc9b782U, 0x3ddebbad3e6fa1f2U, 0xbc6acd8cbc6b172cU,
  0x3e21345fbdcd707dU, 0xbd464c1c3e77240dU, 0x3e2911e33df5bb07U, 0xbca1f7be3d9d9419U,
  0x3e54aac43e5b19baU, 0x3d2b617c3e30f474U, 0x3d09c046bd532fe5U, 0x3c918191bb9a6d3dU,
  0x3ddaef873c17de17U, 0xbe3586b4be236cceU, 0xbdd115d3bdca01eaU, 0x3dbca074bca92dd2U,
  0xbd3951c0be3673c5U, 0x3d7bcacb3e25b854U, 0xbdf33020bc377d31U, 0xbe7b8d6cbded6698U,
  0x3ccb8df6bd94cf0fU, 0x3d8b39f03d7adc7cU, 0xbd8d3ee3be4b5780U, 0x3e1d6aa9bd1290a0U,
  0xbdf55d503bf00c09U, 0xbe57a203bd85c719U, 0x3d9b0d2bbeb11fcaU, 0xbe80a954be537bc9U,
  0xbe18ffd5bebce59aU, 0xbe6b3ecfbe2fa5d3U, 0xbee0c444bee97564U, 0xbe83bcb9bec317d4U,
  0xbed5c2a2be94584bU, 0xbed520a2bed9308cU, 0xbea1b4d1be44070fU, 0xbf190eb8bebb1150U,
  0xbf0872a9be31253dU, 0xbe90ac34beb41090U, 0xbdaf830abc9c5f44U, 0x3cf48f37bdca087dU,
  0x3d66652e3c8a9489U, 0x3d55b6693ca0acefU, 0x3eca33413eb6fa38U, 0x3e1d7b863ecfa2f9U,
  0xbd937cbf3ee70004U, 0x3e4ff77a3e83e5e6U, 0xbd395f673edc48b9U, 0xbba618a33ef05b8bU,
  0x3ee890663d3eb1ecU, 0x3cf13e28bda5c4c1U, 0x3e2fb84d3ee31537U, 0xbd1521e23f0b0269U,
  0x3f470faf3f0e1b6fU, 0xbcc7f1c73f1c9fc3U, 0x3f22456b3eb08013U, 0xbeda22f03ee07ef0U,
  0xbed2c4afbe5ab03fU, 0xbedd51e2be69aef4U, 0xbe21ad0a3e6eea3cU, 0x3da05eb8bf5c65e5U,
  0xbf099aec3dac6c1cU, 0xbf175caabee89f7dU, 0xbf464b30bf693ceaU, 0xbef58fe8bd5fd01dU,
  0xbf28dbddbf3dd1bbU, 0x3d9dd4e3bedb0d50U, 0xbe15de27beee88ddU, 0xbe8a06c2bdcc427eU,
  0x3eb567cdbed9e512U, 0x3f4c7d563e8e932eU, 0x3d879671be9fd149U, 0x3e73e79a3f1ea29fU,
  0x3eb613fdbe2d72abU, 0x3f27604a3f4fd1f4U, 0x3f5a18563ef0a297U, 0x3ef9cb8c3eb10012U,
  0xbe21f592bd5f4926U, 0x3d1f870abc58106eU, 0x3babc30bbdc350e5U, 0xbe37d7fbbc9c47cfU,
  0xbeae6df3be895a4fU, 0xbdf1f002bdfd4f49U, 0xbe32b970be8c505dU, 0xbe6aaaaa3c8cc197U,
  0xbdebb1e3be0d4f6eU, 0xbc6e9eb9be7226a0U, 0xbe212ef6be19946bU, 0xbe5f79c4be7d0513U,
  0xbde023efbde2364dU, 0xbd92ee943e37335cU, 0xbd4925eabeb0cdeeU, 0x3e9e908d3ba17ec4U,
  0x3de05c0a3ec433c9U, 0x3cbb7d79be84e7f5U, 0xbd73c568bdb21434U, 0x3e8c91e8bd97c9a4U,
  0xbea85465bd6f98a0U, 0x3e189d0bbe52c147U, 0x3c2ee72d386a6659U, 0xbde33cd03d9e32d9U,
  0xbca18b60be140693U, 0x3ea0291d3e518ffaU, 0x3db36777bdf8eb9cU, 0xbc4f7e4cbbb363a5U,
  0x3da5864c3dbe7ba9U, 0xbb9d5bbf3e60aae0U, 0xbda5b5373e2fffc2U, 0x3ddc484d3d8cab78U,
  0x3da8e9debdbd98b1U, 0xbdeb0712be5bd655U, 0xbe34fce43d50bfcbU, 0xbe4c34f4be45512bU,
  0xbd83545fbcf37c13U, 0xbe6d79bcbcf2a11cU, 0xbdb7edf2be4fb702U, 0xbe4ad4a6bd83aa81U,
  0xbd30ed23be6c1b0cU, 0xbd92f750bd88a59cU, 0xbe7de904bdb77c05U, 0xbe0ee9aabe75a8d7U,
  0xbd53df30be47d9d5U, 0xbe1268c9bdc48aeeU, 0x3d0ebc5e3e294cdcU, 0xbe01d2943d9ba7bfU,
  0xbd0f8e67be3e37f0U, 0xbe00667ebe1b6503U, 0xbd817cc63d2daa7eU, 0x3dd06543be0e0575U,
  0xbd2d1b673de30641U, 0xbe29893dbd2db938U, 0x3cdc4614bdb5c875U, 0xbd75a3c83d8a2b26U,
  0x3d36bae0be1518d0U, 0x3e23f54ebe2354c5U, 0x3b50f59fbd6638d8U, 0xbd0e7ff8bd6e73ccU,
  0x3d7ada6ebe19450aU, 0x3e3dc75a3a82659fU, 0xbdfaf5c53e1e645cU, 0x3dc9f0a8be4d7f18U,
  0xbf0a4ecbbe31b2c0U, 0xbf097c11be79da5bU, 0xbe2acb03bed513e5U, 0xbe884746be7a5652U,
  0x3c94861ebee8218fU, 0xbe96bdefbde9648fU, 0xbc46b308be02da09U, 0xbec62cefbddf62aaU,
  0xbeaa9878bdfa8d55U, 0xbea05911beceb789U, 0x3e17a8dc3e59e5c5U, 0x3d9b4c583d68ab1bU,
  0xbe352a3f3ca7fa76U, 0x3bc0bacebe97b8a3U, 0xbe877827be46c015U, 0xbd059b6cbe4fcab0U,
  0xbe58afbbbd448a98U, 0xbd8931afbe99415cU, 0xbe65fdacbe39e056U, 0xbdd8c0a83ddd2cb6U,
  0x3e73f3543e3288d9U, 0x3db017edbc8e2ec3U, 0x3d8eb9cf3dd16d85U, 0x3c8d2e8b3d83a17aU,
  0x3e72cc1c3ca95f42U, 0xbdc58a29be1a20b2U, 0x3ce0d6df3d38df81U, 0x3e8056213e52404dU,
  0x3e4a633e3e89acd3U, 0xbcfd39f4be374b54U, 0x3e38d0e03ddc7c72U, 0xbc0869983e81fcafU,
  0xbe192d9e3d19411cU, 0xbf34b9a83decc210U, 0xbe7242cdbebc1cf0U, 0xbe2d9392be50f016U,
  0x3c5dbe2dbcf554aeU, 0x3ce980efbd54534eU, 0xbdc17e163d390153U, 0x3bb4d901bb260b48U,
  0xbb9fe75e3b2fa663U, 0xbd2e12153c31c8cdU, 0x3d8bced4bcce4988U, 0xbd4e05863ccff046U,
  0xbce3c28dbdf7627cU, 0x3da2ff69bd8dba35U, 0x3d8061f73c223fcdU, 0x3da990833d926ceeU,
  0x3d725de03e177a0fU, 0x3dc5b31d3dcba6caU, 0xbd517d5f3d9cc99eU, 0x3c2eafffbd6fdce5U,
  0x3c9f5069bd777a80U, 0xbd89ecb3bd474be6U, 0x3c7fe7413d2358faU, 0x3d8fc28d3cf802d9U,
  0x3ce923dd3cd73173U, 0xbe06b52fbd3651aaU, 0xbdc086ddbde3d6d4U, 0xbd1d7a26bd7e893cU,
  0xbe3752a7be273f4eU, 0xbdb8d057be13ee8dU, 0x3edecce13e2417a9U, 0x3e89e7e43ef2be43U,
  0xbc8e27bb3da47853U, 0xbeceab4ebe855a45U, 0xbeecd3b8bebba150U, 0xbe45b79ebea1f8d8U,
  0xbe167787be3b8319U, 0xbe483385be5ab437U, 0xbe1c6a52be3dd24dU, 0xbdd4306ebdff3437U,
  0xbe259effbe671d62U, 0xbe316476be42f3faU, 0xbdf32dc2bdcaf7dfU, 0x3d19d3f03d127a9bU,
  0x3e1bdc123b91b83fU, 0x3d413e483d0f39fdU, 0xbd3d6e5a3d24af2bU, 0xbbe5d5b2bd1bb37aU,
  0x3d8745743d802d11U, 0x3b9a19d13d99c3c2U, 0x3e7b92273d5d8f6cU, 0x3e8405373e864709U,
  0x3e6e962a3ea2363dU, 0x3eb1c6af3e8c6a46U, 0x3e173e273e49f783U, 0xbd8d9e2abb8f7c10U,
  0xbe3145d7bd9b1a56U, 0xbe111e34be3879f8U, 0xbe12678ebe83de44U, 0xbdf3b993be28113aU,
  0x3cdadfbfbc52298bU, 0xbdf68575bd94d374U, 0xbe7c6045be5246f2U, 0xbe9d74f5bea2b588U,
  0xbf10e591beb1fe39U, 0xbf315e59bf0eaaacU, 0xbf8528f5bf81d709U, 0xbf15ac8dbf5b8a1eU,
  0x3df9265fbe0f040dU, 0x3e5fba693eb813c1U, 0x3cdb95353e89423dU, 0xbe905ec0be204755U,
  0xbf0a9e6bbeed0c9dU, 0xbe94f857bf0761c0U, 0xbe4c7f89bea418cbU, 0xbe1ef718be954a44U,
  0xbe4755a7be2bf9fbU, 0xbe3ebfdcbe14501fU, 0xbe662bccbdda5953U, 0xbd9d57e0be0a1262U,
  0xbcbdd3bb3c3d3fb8U, 0x3d57377cbdc5ad93U, 0x3c6433333ba27d50U, 0xbcea283abd854a53U,
  0xbcbe689e3d0805b3U, 0x3b8cad9cbd98f25eU, 0x3dd63044bd0048f7U, 0x3d957cefbcbc8996U,
  0x3df139f53d49644cU, 0x3e74f41f3e44ff29U, 0x3e5c2a5d3e2c1c55U, 0x3e17a2c93e08a563U,
  0x3de536103e177d31U, 0x3dd870d4bcfb0b26U, 0xbd8eb80f3d44681dU, 0xbe0222ccbd91d567U,
  0xbdda7320bca229e3U, 0x3cd7c4e93cf1535cU, 0x3cf12074bd777a2eU, 0xbbcc3c4abc821c1aU,
  0xbe27b97ebd33f4d6U, 0xbd908014bc945bffU, 0xbe9257ecbe09a852U, 0xbe5769f8be64de59U,
  0xbdda89e3be834d6cU, 0xbde1064cbd9abb64U, 0xbdc78b8fbe4175a4U, 0xbc459686bc3d78edU,
  0x3e0b8ea93d9c6c09U, 0x3d5df4bd3e5733d3U, 0x3df461a43cf83701U, 0x3d8bcd523d8928e7U,
  0xbdd86a20bdb69dc3U, 0x3da378053cbb3e3bU, 0x3d42f9033d998e86U, 0x3de735373d3e1059U,
  0x3a3734f4bd313d14U, 0xbd190b3a3ddd5805U, 0x3d8ff5e0bd299acfU, 0x3c72de653cd30adbU,
  0xbd373d6dbd837ee8U, 0xbddb379c3d1a0941U, 0xbb13af78bce6c2adU, 0x3d923119bdab36b8U,
  0xbc6cef67bca11b96U, 0xbd8107cdbc1a6418U, 0x3d6627c3bdaac354U, 0xbd7ee1a43d437510U,
  0x3e0508babd10dfa2U, 0x3d83e35a3d87b063U, 0xbd61bb14bd774317U, 0x3b5aed72bd319d07U,
  0xbc5b3ab7bd8c480bU, 0xbe22a53fbdcb3cd7U, 0xbe2c4f14bdcb8556U, 0xbda3041ebe23968fU,
  0xbcf595f4bd2bc4e8U, 0xbe270dc73b8c6ddcU, 0xbcbd5d85be74333bU, 0xbd785ca4bdd805a3U,
  0xbecd7e2fbe6535cfU, 0xbeac550cbe7221b9U, 0xbe4b9398be978c17U, 0x3c4cb23dbe383436U,
  0xbd018a24bd87e0d2U, 0xbcb2e4b3be1b0b08U, 0xbe068ba4bdcccdc9U, 0xbc66f658bd2543bdU,
  0xbdee17113c8c741bU, 0xbc1940babdb22b1aU, 0x3d02e8cc3c9a33d8U, 0xbcfb76723d4013c9U,
  0x3d80a4f43d18bb95U, 0x3d8a143abc1a954cU, 0x3d8d4ae03d31f086U, 0xbc849660bd1b7f13U,
  0x3ca22e5abb37bf6bU, 0xbd0612f83d733305U, 0xbced3eeb3d701c08U, 0x3d229b143da8cdf8U,
  0xbc70c753bd17c578U, 0x3d83c93ebd2a6e58U, 0x3baf5b32bd1c5c54U, 0xbccbff2b3cd44652U,
  0xbda7f5333d0f8926U, 0xbe23d303bda2559dU, 0xbe135bc4be223787U, 0xbe6dd986be241e40U,
  0xbe60f354be45f4dbU, 0xbefa4bf2bec31f43U, 0xbec94032bf0cb406U, 0xbe6facfcbecf5598U,
  0xbe99d8a0be51da07U, 0xbec16285beaa032cU, 0xbec546febeba6b34U, 0xbe814869be7b45f1U,
  0xbddf51febe6d6de5U, 0xbebe5eb9be6b85ccU, 0xbedf2b67bec4e415U, 0xbe84edbebec86d58U,
  0xbe834089be96c84cU, 0xbe96947abe8f0ed0U, 0xbe4ebf1dbe2c907eU, 0xbe51eb37be12045dU,
  0xbd99899abdfa0828U, 0x3c69a020bd5a58daU, 0x3d98180f3d375aebU, 0x3ce936a73dac1592U,
  0x3dcb42263bcfb769U, 0x3da73a773da7a4c3U, 0x3e16fe9e3dde1c22U, 0x3e74238a3e77be14U,
  0x3e4d4f253e4b4867U, 0x3e38a78e3e512eabU, 0x3e4ac5673e85bb28U, 0x3db3a2353e49af71U,
  0x3b60e4d83d3e9240U, 0xbe115bf0be30adb4U, 0xbe814c6abe3a811fU, 0xbdbbb2edbe83c884U,
  0xbc16636fbd2f4bbcU, 0x3dcc381f3e0816f4U, 0x3e6461633e163b77U, 0x3dcf19a73e1fa4afU,
  0x3d7ab91f3b454c6fU, 0xbe51883bbe224504U, 0xbeac65f5be2440aeU, 0xbeab2701bed76b20U,
  0xbe89cad2bebf3c9cU, 0xbda5c33cbd113273U, 0xbd11f0e7bdf3ab9dU, 0x3e7cf4f73e13c4abU,
  0x3df7ff9a3e54d2cbU, 0xbe4668b53cbf09b7U, 0xbe89d862be95bc56U, 0xbe9a1ba5beb51aa0U,
  0xbdc1cc48be8a94eeU, 0xbe8b301cbe4ff291U, 0xbe5401a9be9b4129U, 0xbea99cc7be914559U,
  0xbe3b7df4be74008aU, 0xbe3a4723bdc18df5U, 0xbc8fa198bdc5144bU, 0x3dc4f6b73e093423U,
  0x3d90b9283cd985d8U, 0x3d20d7e2bb1f7cf3U, 0x3dcf69743ca4dce4U, 0xba0b32b23d0a83a2U,
  0xbccf849e3cb63576U, 0x3cef82763d056abcU, 0xbc9558883ca6df57U, 0x3c165c7b3dcce804U,
  0x3c2eb0d5bd6b3000U, 0xbcc1fe02bbcd5560U, 0xbe312478bdad11deU, 0xbdbde725bdcd880cU,
  0xbe5605f5be8d94c9U, 0xbde16026be6087ceU, 0xbe206d39bdcde90fU, 0xbd28528cbdcc2f13U,
  0xbe03d679bdb72fd9U, 0xbd5e72023d22baf3U, 0xbd1742cebccaaa6aU, 0xbe8ded83be0192b6U,
  0xbe8c0c8fbe239574U, 0xbd15d1abbe677c7aU, 0xbe199bb5bdf18714U, 0xbe646561be25dcdeU,
  0xbe988007be7275d9U, 0xbeebfcd3bec25d78U, 0xbe240267beac201aU, 0x3d32c8a5bdcdf472U,
  0x3e1fb6363d398413U, 0x3e883c4d3e98631fU, 0x3ddd37063d48a8cbU, 0xbd4d9d4f3c83f8f4U,
  0xbd8b07f0ba0877fdU, 0xbdb368833c385735U, 0xbdcaa772bd1e4586U, 0xbd927edb3c830214U,
  0xbe116952bd0b118fU, 0x3db6909ebcfca5dbU, 0xbe20ec643b6f768fU, 0xbdd9b175bdc85513U,
  0xbc1998ccbe773bd5U, 0xbcc1c99dbdc9d296U, 0xbcd93b73bdc45bc3U, 0x3e5b59133e1b79eeU,
  0x3db7f1763e3b9935U, 0xbbbaac1d3e807e0cU, 0xbe370150be0ca904U, 0xbde7c0babcc48356U,
  0x3c73eca0bd87689eU, 0x3db3fa4d3db61da9U, 0x3eac2f813e0c0f85U, 0x3e832ae83ea828bdU,
  0x3da44b61bd2bd3f9U, 0x3d8080f8bda76ce9U, 0x3d78fc263d28c9a6U, 0x3d5936283d0b64c1U,
  0x3cd964f5bd20b370U, 0x3d5d5956bd5c9314U, 0xbdd27d7fbdc80494U, 0xbe05f532be642022U,
  0xbe40ebe8be3c000dU, 0xbe21c3d2be0b03c1U, 0x3dc0500fbc3dfd2cU, 0x3df947bb3e2d8141U,
  0xbddd3fb2bce53c21U, 0x3e157fa63dc27319U, 0x3e3720ebbc84b005U, 0x3e191da23e6bc849U,
  0x3e8757bb3db78e1fU, 0x3e7b3bc83e46e98bU, 0x3e29d76a3d1f3c62U, 0x3e4c9942bb8d2db1U,
  0x3b20d646bd42810eU, 0xbd63fb8cbd9fc676U, 0x3ba7d306bdcd2fd5U, 0xbc2796e1bc38b6a7U,
  0x3e7ec9023dc76ac6U, 0x3e0ced683d9fd9eaU, 0x3e0a53e33c27398dU, 0xbe0e9feebc645cf7U,
  0xbf0975fabebcdae7U, 0xbf0f85a8bedc7094U, 0xbed83e02be996a79U, 0x3dcc7109bdd081afU,
  0x3e2798563e0940b9U, 0x3e8c44043c0195e1U, 0xbd91ca853ddaa734U, 0xbd02b4163e06c5efU,
  0x3e6cadb13d7a9a49U, 0x3e0ea7653db6ccdcU, 0x3e89a37b3e9b067eU, 0x3d2e6a0f3e9b5c9cU,
  0x3d08247d3ddf113eU, 0xbe22b9b1bccc7ad0U, 0xbe57231cbd9a1033U, 0xbeb3cc23bee00097U,
  0xbf0ab68ebef1a86cU, 0xbf22d05fbf37fbceU, 0xbef04b26bf0cf803U, 0xbd5ff588bef7c1a4U,
  0x3e29444e3c93beceU, 0x3e772d8b3e4f85faU, 0x3e5e81573d4ba2b5U, 0x3e0d764b3d0d3f41U,
  0x3dd4237c3c8e0a22U, 0x3dd795273db8b1d9U, 0x3e2fddc03dd51206U, 0x3e7921923e95b231U,
  0x3e50e4403e91bc17U, 0x3d4c85c43e6c3194U, 0x3b9699173c24c75fU, 0xbdcc72b8bdfee64aU,
  0xbd90abfbbc07525cU, 0x3ca8e2ce3d078ab3U, 0x3e29ba7d3dc42282U, 0x3e1f6c8a3ce722b6U,
  0xbdb282463dd63fc1U, 0xbd86768ebd8da855U, 0x3d16c39dbbffc706U, 0xbcdde6853da2bf4fU,
  0xbe0b4c5dbdd1675bU, 0x3d8497c3be2456a9U, 0xbdf5d29dbd3b88a1U, 0x3d2c19ea3d9c4445U,
  0x3e18d36b3e427fb5U, 0x3d290cc23e7831c4U, 0x3e87ebc63e8499daU, 0x3e3b4cf73d86948aU,
  0x3d9a62ec3e35e84eU, 0x3c7369c63e011604U, 0x3dc818c3bd8179c5U, 0xbdb58fa73d8da865U,
  0xbdfd2f603c28fa85U, 0x3dd84d9a3db05aeeU, 0xbd99234c3d7b9eaaU, 0xbcc8ace73d5c3636U,
  0x3d385b173ca92302U, 0xbd468dda3dc2dab1U, 0x3d85a00cbd092ae4U, 0x3de9eaeb3cfa9f64U,
  0x3d90fdbe3d1d06b3U, 0x3d59613d3e020d60U, 0x3e0dd84e3e2534a4U, 0x3db5f7793c0bf7d9U,
  0x3d8d2dd63c8b76f8U, 0xbe12005fbcef9d5dU, 0xbd39dcedbd3a007dU, 0x3e2b01273c88e9e3U,
  0x3dcd6955bc97fef5U, 0xbe4022563cbbd656U, 0x3d88473ebd6263ceU, 0xbde915b1bdd56498U,
  0x3d95acec3dbc2c4eU, 0x3c914c4abe0898a3U, 0xbe44e612bdad50b8U, 0x3b46cb69bd22620aU,
  0x3d1bf97abdcb09e8U, 0x3d989fabbda4534bU, 0x3e0fbbe03dd2afd0U, 0x3e10dcaa3dfbfb83U,
  0x3dd42b81bd01826fU, 0x3d96200f3e356fecU, 0x3e5ff432bca8b28cU, 0xbd514adc3e2cf63bU,
  0xbd854c5cbcd98512U, 0x3ae80f54bba79278U, 0xbd82fe0f3d028ac7U, 0x3d1bc18d3cb49d9aU,
  0xbe01be94bdfe20b4U, 0x3c5d0c43bd1ffa95U, 0x3d3c04cbbd35140bU, 0x3e12ab4a3dbd3f7fU,
  0x3e10cd9c3d8cad61U, 0xbc39788d3df3b6c2U, 0x3d2115ac3d0694b2U, 0x3dca9b793d4e673cU,
  0x3d2817653db1afe0U, 0x3c6a594f3e08e167U, 0xbdf1e720bcba3e86U, 0xbf0ef9bebed7a194U,
  0xbf283d15bf3850dbU, 0xbeeb5394bf171a0dU, 0xbe3b33aabeb7a081U, 0xbe042322bcec2092U,
  0xbdd4d8b7be7bebe4U, 0xbdcbbe57be349d48U, 0xbdc04e96bbda5c3dU, 0xbd574cffbe62de71U,
  0xbc8caad5bcce7617U, 0x3da3a4453e1dfe36U, 0x3dd6c0423de2e2c8U, 0x3e08f5a13e2b2f55U,
  0xbd55692b3d28bcecU, 0xbc7520dabda9ab26U, 0x3d325162bd9ccf88U, 0x3e190edd3e0d079dU,
  0x3e26ff4d3e6a888cU, 0x3d9ddd653e3ed8baU, 0x3c7c49a4bc815572U, 0xbe70c6efbdfd067fU,
  0xbea67a83bea722dcU, 0xbe7da70bbed3a8efU, 0xbdd92418bde0b3d3U, 0xbdf9a16bbdc3119dU,
  0xbbbc70d8bb1c7d02U, 0xbb3024f0bd9a6032U, 0xbdeb286ebdc6d1eeU, 0x3c810a143c875e18U,
  0x3c76f4363db4f2d5U, 0x3da23de23dab9cc9U, 0xbd2141bc3db631b4U, 0x3ce0d0533e01eaf1U,
  0x3dd64a1b3e2f1111U, 0x3e054e1f3ce40bd8U, 0x3d74bf713dfe6f9cU, 0xbd6bf3f23d689c69U,
  0xbf3eb2b6be93de81U, 0xbf7ddc85bf785b2aU, 0xbed3e0c0bf2ebc16U, 0xbe6d3361bec2b8c2U,
  0xbda93970bd55df34U, 0xbe61e450be1242caU, 0xbe8312debeaaed1dU, 0xbeb0a14cbe79c31aU,
  0xbe9ec857bee3414aU, 0xbe5ce58ebe7c435eU, 0xbe843ccabe81a43cU, 0xbe07e587be486557U,
  0xbd8ca629be32ed68U, 0x3d44712cbcf2bc78U, 0x3da1d3953d2face9U, 0xbe2f0db5bd2f8cf9U,
  0xbe8f5171be12bf49U, 0xbe75c82abe8366faU, 0xbd975ca1be2fa6bdU, 0x3e5b33dc3e22a257U,
  0x3ead49463e850f80U, 0x3e7b2a483e47029eU, 0x3dc7ac763e5cd910U, 0xbdab84c2bdea414fU,
  0xbdd86afabe29038dU, 0xbd97c16bbdab5be8U, 0xbcb0c73fbd34969eU, 0x3cb632ac3d35a56eU,
  0xbd390f59bda63d4aU, 0xbe27a68dbd31a2e0U, 0xbce51c54bd8238a5U, 0xbdde4069bd85b93eU,
  0x3d51482cbb0ca1c6U, 0xbc3a8c713dcbd075U, 0x3d022bb1bd5b045cU, 0xbcc7ae14bc673f40U,
  0x3c649805bc45ef62U, 0x3d5223403e047d52U, 0x3d689aae3dd4dd49U, 0xbd6c9ad2bd2c2b7fU,
  0xbd290615bda47a4dU, 0xbce593b7be224299U, 0x3d3678edbdb61f92U, 0xbc9039af3d664012U,
  0xba365181bc9bc72dU, 0xbeb2c263be44e9baU, 0xbebde6cebec427c4U, 0xbd4852bcbe6f8172U,
  0x3e67c34b3d8a64b4U, 0x3dbb62763df2a162U, 0xbc578cb03d2d9f28U, 0xbd9fc08ebd6cda7fU,
  0x3cb6f1b7bdc0a900U, 0x3e2ed4e33dd165f7U, 0x3dcbb1da3e25e8deU, 0x3d53647e3df1b89fU,
  0xbdc2d6263db225afU, 0xbe00edadbd627360U, 0xbe0d0d64be1c925cU, 0xbd67698abe41743bU,
  0xbda4f1e7bda49b56U, 0xbd0296f4bdd0868aU, 0x3d85e2053d91304fU, 0xbd486ed13d6541f4U,
  0x3b9ebee33c7fd883U, 0x3de603383d66a036U, 0xbd44a6ac3cb1c0ecU, 0xbcaa43babd0f67b7U,
  0xbdbdea4dbd62acd7U, 0xbbf5910bbcb5a1feU, 0x3d5f272fbd3ae264U, 0x3ad10ed53d755d09U,
  0xbdda67113bd81b6bU, 0xbe4a9ca2be320a95U, 0xbc9615c6bed6d841U, 0x3efda6763e46784dU,
  0xbe47e46b3db2fa81U, 0xbdf3778dbe098a7eU, 0xbe9d298fbee66e78U, 0x3ebee5f93c294255U,
  0x3d0af5813eb16ca4U, 0xbe99f132bbe44652U, 0xbeb1abf5bec931caU, 0xbe58b4fe3cb418ebU,
  0x3e6e1706bd574b01U, 0xbf13a7cf3c9a71aaU, 0x3ee508713e8db84eU, 0xbdf8650b3dc78d3dU,
  0x3e172b01bd2f2cb1U, 0x3ca3a4483e36dd85U, 0xbf0ddd6f3db827bcU, 0xbd8f59d0bd9507ddU,
  0xbecb301dbe9491b8U, 0x3c9e19d8bd1973b8U, 0x3d60b0863ddb2416U, 0x3e85a110bdb5f1deU,
  0x3d68e36c3dc0797fU, 0xbe5c160ebe3637e3U, 0xbdd84286be1bc366U, 0x3d824a65beb854c7U,
  0xbcb4d5653db42b94U, 0x3d9d713c3d7d1e60U, 0xbd9407973dd54a47U, 0x3ea0fd24be3eabe0U,
  0x3dd81f8a3ca2c168U, 0x3dc4c7bdbdf36d60U, 0x3df017c33e8dcee6U, 0xbdf8e948beca9b78U,
  0x3e87d65c3ecaa2e7U, 0xbe4a73b6be751e09U, 0xbdd946e0beac7909U, 0xbe4768793d544b56U,
  0x3de19c98be055794U, 0xbe507ee83e59c032U, 0xbfa8aba5bf8ed6caU, 0x3f703c9a3e7a353fU,
  0xbe9ca36f3f7686beU, 0xbf6a7548bf8ff2caU, 0x3f0206383c537b96U, 0xbf03a2003dcea35bU,
  0x3f3078adbea268c3U, 0x3eb105d43f358eafU, 0x3e3e12d53cabc19cU, 0x3dff0ba03e61fed6U,
  0x3ed923ff3eba51bdU, 0xbfce9ce4bf8a32f5U, 0xbece0397bf2649faU, 0xbf305be2bf1ab217U,
  0xbf7e447fbdc643e9U, 0xbfa8b2d5bf807c70U, 0xbf0135d9bf56daafU, 0xbf83962dbef6a6ecU,
  0xbfa4da0abf35cc46U, 0xbf1a8ff2bf284059U, 0xbd7af8efbecf0ad3U, 0x3f1ba37e3f0033f2U,
  0x3f21ebf23f0232c8U, 0x3e39a91a3e66d36fU, 0xbe3507cebea2cf28U, 0x3e0023ab3d1e5ee2U,
  0xbd9412d4be27e01bU, 0x3e92f9043e3001aeU, 0xbdb256503e5bd077U, 0xbd01f88f3e6fc42cU,
  0xbe75f7a3be0fd1adU, 0x3dea608abb064899U, 0xbe3eba53bda5d472U, 0xbdc1a37dbeb4280bU,
  0x3e652a9a3c8aa34eU, 0xbb5b0bd8bdbe8b43U, 0xbce5388b3e9d82a9U, 0xbe826b86be9c845dU,
  0x3e170acbbcbb626eU, 0x3c12c22c3e6590d6U, 0xbe856817be7ed32dU, 0xbd105905bdaedf7cU,
  0x3cff15cf3dd25d42U, 0x3dc60acb3ddbad90U, 0x3ee82c743eb8ba84U, 0x3e8b99953e886b63U,
  0x3ee3cba63e2f3e80U, 0xbf0f646a3e7cba9bU, 0x3e78bc44be631711U, 0xbe9c67df3f27e2feU,
  0xbed0e468bf1b5d5cU, 0xbe98ea17bf1d3840U, 0x3eb7dfbcbe3b40f8U, 0xbf277e19bdf3c49bU,
  0xbe951615be75b2f5U, 0xbe067f78bef81b79U, 0x3da94e913ba21856U, 0xbe2f367c3d02bf9bU,
  0x3e1ff5eb3e014c0cU, 0x3e15856e3d1da0e5U, 0x3c5133d1be34339dU, 0x3d7801533d521357U,
  0xbdf8fb75bd968aa5U, 0x3a97fffdbe0c6fc7U, 0x3d9d1079be17aea5U, 0xbd818e043db15461U,
  0x3e73ced2bdbcf681U, 0xbeb44ca3bdbb30c3U, 0xbea7875cbe6faf2bU, 0x3e7a269bbde15f49U,
  0xbe98d07dbe1feebdU, 0xbe06a1b8be68d794U, 0xbcfc8e1abe288d18U, 0x3dc09bff3cb901e7U,
  0xbd25ee783dcdce2cU, 0xbe823356be7edbabU, 0xbd6fcde1bf51afcaU, 0x3e9a3af83eed8f51U,
  0x3e2b4f213d8eeeb7U, 0xbf2f32c3bd370e48U, 0xbedfffc2be3401beU, 0x3d1d306dbe73d1c8U,
  0xbea1980bbe91a8a1U, 0x3eea7cac3e23ca8cU, 0xbefded21be98f30dU, 0xbd719513bdb7e268U,
  0x3e16e0eb3d11c476U, 0xbf0beaa73e3c67eeU, 0xbea766ffbee68326U, 0xbd53c2923d0a26e0U,
  0xbd5dc857bd513f82U, 0x3d87a64c3e175a0dU, 0xbe2042093c7d246bU, 0xbd8a492abe4711e5U,
  0xbdaaa2bb3da4a7a9U, 0xbe1db5f13c21d42cU, 0xbbf2fc9dbe4eb260U, 0x3e0bc916bd72149bU,
  0xbca65aaebd2e06baU, 0x3d2a31f03be172ceU, 0x3d7d14afbe3fb4f4U, 0xbe4bb3823d03c68eU,
  0xbdc78bcbbdee34d7U, 0xbeb0e161bd3b8f93U, 0xbda757fbbe709248U, 0xbdc932c1be0cca92U,
  0x3d87d350bca40cfbU, 0x3e780a283eb07e87U, 0x3e8803cb3e6c3e93U, 0x3da242e33e87a29bU,
  0x3dee0e513ba0b112U, 0xbe01499c3d81e20eU, 0xbd3831bbbe4da60dU, 0xbd73a4e93be265d6U,
  0xbdffb1453d71970bU, 0xbe96d23cbd38ff19U, 0xbcc7fb1fbdf0716fU, 0x3e071fd6bca68f8eU,
  0xbe9a5f57bdfd4f79U, 0xbe1f440fbeaff7a7U, 0xbef16f13be8f27f1U, 0xbe253a53be891a56U,
  0xbcd8ce2bbeb01e2dU, 0x3e2011bc3d340496U, 0x3edaca793ebdb6ecU, 0x3ebc0c2a3ec592b3U,
  0x3e290bff3e77451dU, 0x3db3f1c1bcd73734U, 0x3cff884ebddd58c3U, 0xbd7364883c1d3d1bU,
  0xbe3f7e4cbe637998U, 0xbc1fe22e3c5a8794U, 0xbe77be04bd7fe841U, 0xbe821481be831584U,
  0xbecef950be3ee93bU, 0xbf093a2cbebb3183U, 0xbf0248dabf394d10U, 0xbf1a9578bf01c8b9U,
  0xbeedee3cbeeebe90U, 0xbee47f12be9fbfcfU, 0xbe80419cbe3809d2U, 0xbeae2b69be8a6c50U,
  0xbee0e2afbea2acc1U, 0xbf0cc65dbf372be9U, 0xbe3ab284befe3d9fU, 0x3dacd909be1f60c0U,
  0x3e3395083ea62ca0U, 0x3e7a692b3e202876U, 0x3dfa7f7a3e3f8bdbU, 0x3ce5ce483e68938fU,
  0xbbebc40b3c899a9dU, 0xbbe413353d98dd9cU, 0xbe3443df3a25a66dU, 0xbebd6fefbe4dfe21U,
  0xbe6d702cbe918617U, 0xbedf00aebeffbf20U, 0xbea327d0bf02500fU, 0xbecffd4ebf06abccU,
  0xbe6c44e6bd5ee3a4U, 0x3e1620c93e1358e3U, 0x3e6a6d8c3ea9ee6bU, 0x3edfe5f63efb6ff7U,
  0x3ed59b0d3ec62059U, 0x3ddf6e223e32f201U, 0xbc03d0493e8c7dcbU, 0x3ce2ebc33aa13722U,
  0xbd0d825cbd97e12bU, 0x3c75404cbdede9e2U, 0x3c98db7dbe21b0c3U, 0x3d296dbb3df86636U,
  0x3df680433dc3ea12U, 0xbdcd7fedbc5c87c2U, 0xbe4f2782bdff013fU, 0xbdfbc6d6be94f5a4U,
  0x3d0fae74bdcd0500U, 0xbead0896bda80a15U, 0xbe10a1fdbe9a8859U, 0x3d5616f53b7d5cd8U,
  0x3dacfe75bdaaaecbU, 0x3e129b1c3df2a309U, 0x3d78738a3dba7987U, 0x3db7f9ff3dfce1f3U,
  0x3d30845f3de8479eU, 0x3dd1fcb13c80e913U, 0x3e0d90093e01be69U, 0x3dadeb5c3db8106eU,
  0xbd0dc55d3e07ec37U, 0xbe055522bdf80958U, 0x3bf0535cbe10ce56U, 0xba902933be282025U,
  0xbc4b485a3bc34ee1U, 0xbd98a3b63e25020dU, 0xbe6e9ac6bdfeb65fU, 0xbdc741c8be00c4a1U,
  0xbdbb30abbd7fa73cU, 0x3cfdf94c3dacc073U, 0x3c5643193cb35248U, 0xbd9f62323d0facb7U,
  0xbcc1b93e3e2a7654U, 0xbc6d233abcf04c17U, 0xbc0a4c81bbfce428U, 0xbd43ced63df89159U,
  0x3d7e1fdc3daaf4a6U, 0x3c5a20c4bb623cb6U, 0x3d65a0753d6a5934U, 0x3b864a6d3d02cba1U,
  0xbca727adbdf7040fU, 0x3d09ba6f3dd6b5d7U, 0xbdb4ad9d3d06b02cU, 0x3e1144d43db1e53eU,
  0xbdca3e503c5de025U, 0xbd47c67ebd201933U, 0xbdeb052ebdcf7f31U, 0x3d929570bd71a9bdU,
  0x3cf6ef4e3d34b4fbU, 0xbf3412fdbf61eeddU, 0xbf25b987bf1e6799U, 0xbebcbd32bf01d487U,
  0xbdbc2ee1be594959U, 0xbe0e5c3abe04f597U, 0xbcc880313c764083U, 0xbcd923163d84af88U,
  0xbcd0a07d3dcc943bU, 0xbdf50ecc3d3dabc7U, 0xba6d43273cfe7b4eU, 0x3d3b07b0bd9635feU,
  0x3d9be9acbe261392U, 0xbd4180aabcbc6728U, 0xbddffd03bda1719aU, 0x3c30dc93bd1cb516U,
  0x3c980091be338500U, 0xbdfe6ff7bdde941bU, 0x3d0712b6bcd3ad07U, 0xbda39bb9bde0f66eU,
  0x3c9d22993e15ad25U, 0x3d2479193ddb58e7U, 0x3d542a3b3d07c96dU, 0xbe5068d8be27cb08U,
  0xbe0ead5abd91c079U, 0xbe67005abe19ec0fU, 0xbddd151c3c943a2eU, 0xbe6843f6be457107U,
  0xbd3c3487be3dca71U, 0x3e4d73fdbc323be4U, 0x3e3ac9073e0eb052U, 0x3e7230193e9dba4fU,
  0x3e3c902e3e5c7ac3U, 0xbd0530fd3e1cced6U, 0xbdeb09c2bd87cf97U, 0xbc5c8768bdda8843U,
  0x3e2447273d8c7b0dU, 0x3f02655a3ec86675U, 0x3edd14323efe4657U, 0x3e95ad8a3f166fe6U,
  0x3d6e5ee23ea8a7b6U, 0xbeed31edbe3913d3U, 0xbef55b67bf3b4750U, 0xbe7395cebeedcf8aU,
  0xbe534c39bdc06856U, 0xbd24f2bebc07986bU, 0xbdd972cf3dc78f31U, 0x3c6248953d00672dU,
  0xbd6e0d66bd7dba45U, 0xbe799110be1de26aU, 0x3d2c28283d54bce9U, 0x3dade0953de48e0eU,
  0x3e85dd2e3e88a4d9U, 0x3ee04af63eee7cb8U, 0x3ed001363edb5c2bU, 0x3e200c943e21e14eU,
  0x3de4ec0f3e1d7977U, 0x3e4683b63e759974U, 0x3e0ee02e3e81e907U, 0x3dc7d1203c966a48U,
  0x3db6cd093e3f8139U, 0xbe74dad4bd468a21U, 0xbefdbb9cbecf3d9cU, 0xbf1e15b7bee83e0dU,
  0xbf1b1ff2bf0671fcU, 0xbecceaa8bf2bc4afU, 0xbe310295beb68369U, 0xbe1bd487be11ee4fU,
  0xbdd7c129bc72b02fU, 0xbe61b495be9b3707U, 0xbee8948dbef7c22bU, 0xbe074372be9e6fc6U,
  0x3e8679373dbde2cfU, 0x3df25c7e3eb9d8e0U, 0x3d9a05ae3e0e6ee4U, 0x3d24e14e3c9bddc0U,
  0xbe206db9bd16fdfdU, 0xbdd594d8be5c0197U, 0xbd883d2bbe3bc925U, 0xbe869a30be68f2fcU,
  0xbedb10e0bebc0c87U, 0xbe9cc9e1bec75c9fU, 0xbc8504f2be80c7deU, 0x3dc778f0bde114afU,
  0xbd689bd6bcb633e4U, 0x3dad6368bc4037f8U, 0x3cc6da733d556a27U, 0xbbba5488bd48402bU,
  0x3cd0b6bebd3aa111U, 0x3e33ed773d681beeU, 0xbd4868633e0b088fU, 0xbd6e1da53c822874U,
  0xbdc3ac4fbd2ab3b1U, 0xbdabcab63d05c03dU, 0x3e2f36083e2cdb01U, 0x3c418c5a3d3bf19bU,
  0x3cd3357b3e1a1f64U, 0xbd5983fe3dc7ae0fU, 0xbe2282373c26c48aU, 0xbe0379ebbe07ebb4U,
  0xbd737e583b89d3b3U, 0xbe0e18abbe531a6dU, 0xbdc41222bd9528ceU, 0x3dd16c503dc13883U,
  0xbe0923d2bd088018U, 0xbe1d5f4bbd50cf9cU, 0x3d236431bdb75afeU, 0xbbf218b93e377ebeU,
  0xbbfb512d3e03080bU, 0xbe5c961bbdb5bfc2U, 0x3cc37f8c3ca90361U, 0x3d03bc05bd9f3928U,
  0xbdb2e728bb83c3beU, 0xbe7328e5bd85aa87U, 0xbdea1fc8be530e55U, 0xbd89f57c3da900ddU,
  0xbd992f86bd9c3293U, 0x3ce39cb5be1a2f32U, 0xbc389cc63dd128c2U, 0x3b74a4353e14de88U,
  0x3e35c1d23dab6fd3U, 0x3c0546c13e05a575U, 0xbdc347a9bda3aeddU, 0xbb742012bd0a0070U,
  0xbe2a6f0cbd7fba43U, 0xbe2b77b4be54d657U, 0x3d1102e0bc56336bU, 0xbe239ca5bd2865e5U,
  0xbe671875bdc7b912U, 0xbe40122abe882289U, 0x3d9d3b6dbe14cfd8U, 0x3dd5b1083dc0edcbU,
  0x3e0a36933e0f93e0U, 0x3cadef833da2f690U, 0xbc4adb073d9f26c4U, 0xbdb9a586ba1b7e54U,
  0x3d1fa4e63ccf993bU, 0x3e18bb2c3e47126aU, 0xbd1ebd203da9e06cU, 0xbdc6e352bdd5f56fU,
  0xbe1fd96fbe3c2b1aU, 0xbdc0b5e9bdd68d48U, 0x3e04e2dfbdbdeeb5U, 0xbccbeb433e0087a0U,
  0x3d1dcfcc3d8abf0cU, 0x3dd111653cca5f68U, 0x3dbc1de93e51a413U, 0x3ce35ab0bac68674U,
  0x3da4ab6f3ddae87dU, 0x3da20e893dc635b8U, 0x3d92ed7d3d98b293U, 0x3dc3aed53d78c3a3U,
  0x3d30083e3d161910U, 0xbdfa4f88bde07aa3U, 0xbd418ce2bcd2bfeaU, 0x3ccf3797b8a1bd75U,
  0xbcb996613cac5482U, 0x3d9c25093e04db9fU, 0x3e569c2e3e54caf4U, 0x3e3d23fe3dc1b9b7U,
  0x3e8aa23d3d88467cU, 0x3e1fdfc13e86d30cU, 0x3d5c70ea3da185b2U, 0xbe2735dabdc6dccfU,
  0xbee8bee4bec14ff4U, 0xbee7f1abbf059e4aU, 0xbe0c31aebe95947aU, 0xbe54ad34be624cadU,
  0xbd8cf414bdd4179bU, 0xbdce5ab0bcf3f010U, 0x3dd56d703e069d5bU, 0x3dae8e723dadee76U,
  0xbe65cb91bd836811U, 0xbf0aba82beee7f7aU, 0xbeea71d6bed4cea6U, 0xbe9c8f56bee364eaU,
  0x3e29758ebda0e583U, 0x3eb918093e90d370U, 0x3df6b6de3e91c0e6U, 0xbcc3a17b3e6e6c40U,
  0xbcafd831bde7e21cU, 0x3de7723bbd5396ceU, 0x3e5f4f1d3e8a77b5U, 0x3ec6e97c3e5d29a6U,
  0x3edf03813e677cc4U, 0x3e6605f53e6dc45dU, 0xbdf399cebd5c4a1eU, 0xbe6d2748be2da0a3U,
  0xbea1d965be98be48U, 0xbeb36455bed62d30U, 0xbe6e8c91be975b59U, 0xbdc7fb40bdb9c394U,
  0x3e8890623d7e0bf2U, 0x3e90a8ed3e18d557U, 0x3d9f0fa63df7ee70U, 0xbd6392dc3debea1dU,
  0x3d56a2a4bba7e893U, 0x3d5551e03e03b609U, 0x3e011fd03e715e29U, 0x3e0a24693e4eaf8dU,
  0xbdf82281bd3985a1U, 0xbe1c6500be53cffaU, 0xbea46794be84a853U, 0xbe906092becfa698U,
  0xbe884852be0aeb0bU, 0xbe396f8dbe10bbc2U, 0xba8daed43d87fb51U, 0x3e7184f73e1ccbe6U,
  0x3e0157513e51c84fU, 0xbd223f5f3e473b1fU, 0xbe85e78a3cd71d7dU, 0xbe597907be6e72ebU,
  0x3c5997dcbdb8d64dU, 0xbd7d2769bdad6d25U, 0x3d9ac84c3dfb52a3U, 0xbded68a13cc0a94eU,
  0xbd42177bbd291740U, 0x3c2e06983d9c0191U, 0x3d1641173da94545U, 0x3e624c1a3db6e65aU,
  0x3dd9262e3e4dff15U, 0x3e095f7bbbe451aeU, 0xbd35ff103d2770a5U, 0x3cbea1e4bd0d38a1U,
  0x3c6eb2d03d87849bU, 0xbdffb5173ca6ae2fU, 0xbe4961e7bd80fe5fU, 0xbe040ac4be2e066dU,
  0xbda4c0f8be2ada5fU, 0x3d9682a6bdc7075bU, 0x3e30504c3e14759bU, 0x3e8dfc503e1d295bU,
  0x3db0bbd63cdd7e60U, 0xbe33be063cb61f11U, 0x3cbeb559bdee1406U, 0xbd39878a3dc75358U,
  0xbe43c7e93cf0ffa8U, 0xbb3cace9be18e856U, 0x3d9bfa96bdcc068cU, 0xbc37955c3d001993U,
  0x3e89db393e408c08U, 0xbe24455e3da7ce30U, 0xbe24b83bbe0a2b28U, 0xbe02fef9bcda1f3aU,
  0x3bad811cbd651278U, 0xbe467c8dbd84e0cbU, 0xbe53d8e1bd397104U, 0xbe48bddbbed9f6d8U,
  0xbe3089c8be24474dU, 0xbe19484cbe4a4eecU, 0x3d31b916be471eeeU, 0x3d0b13143dbc941dU,
  0x3e183bfd3e73058cU, 0x3cba00cc3e5ae97eU, 0x3d9181ea3d73b847U, 0x3e1c14d03dd6039aU,
  0x3f1bb4293e962c8fU, 0x3df408ddbe812032U, 0x3f9e77ec3f8adaaeU, 0xbf8437ee3f025272U,
  0x3e6072f0be5342c6U, 0x3f86ef68be7eadc4U, 0x3f9f0f71bf4bab21U, 0xbfd8635d3edaea53U,
  0xbeb7029bbd9084adU, 0x3e0887d6bf94af73U, 0x3e828484bee3a9d8U, 0xbe6296573f2e278bU,
  0xbdf21233be5961bcU, 0xbef3875ebf2ca2ceU, 0xbfb555053f97f894U, 0xbd995ca7bf29e377U,
  0x3d6e34593d370f09U, 0x3ec2331f3e0b948eU, 0x3eb96a643e4bab73U, 0x3d737deb3ec56a74U,
  0xbfebe359bf2f73aaU, 0x3efee4ab3df40137U, 0x3e3dbf92bf7fb727U, 0xbd0c0c1fbcc27da6U,
  0xbecbdb6cbf8a6882U, 0x3e17e6c03f33a319U, 0xbf930ff13f495549U, 0xbd6c082cbf5a21c8U,
  0x3e93689c3f1ed22dU, 0xbf2853903dc0e86dU, 0xbf11397e3df29023U, 0xbbf336c3bfd72eadU,
  0x3fa30aebbf86e617U, 0xbe9c712abde37accU, 0xbf96c65b3f51ff33U, 0xbea11dbe3ea0dbffU,
  0x3f33bc0fbf298293U, 0xbfc93d783e38af34U, 0x3c77c3f8befa9ef9U, 0xbe3b424d3e8740d0U,
  0xbd106e13bcd01944U, 0xbd4c7c4ebbffe897U, 0xbd4c5ef1bdbd4ed9U, 0xbd22a493bdaba6a3U,
  0x3d4790d33d8edd47U, 0x3dedf9c73d4ee344U, 0x3d1bbacb3dde7e1aU, 0xbcbe554dbaf924aeU,
  0xbc176c2e3cd802b1U, 0xbc841d6abb31e58dU, 0x3cd7b0b1bc386c20U, 0xbba9801c3c86297cU,
  0xbd731601bbaa0ab2U, 0xbd0635b6bda5bb11U, 0xbdffdac1bda0a5baU, 0xbd2a8645bdb4c25eU,
  0xbd88a041bdafffc4U, 0xbc498b31bd707299U, 0xbc683af8bbbe4438U, 0x3ccdf4b23da92535U,
  0x3d105bfb3dc640ceU, 0x3d861feb3d6aa4a7U, 0x3d9756b23c7e1805U, 0x3d35ddbd3c6c2c75U,
  0x3dc741023cad27b5U, 0x3ddfb2b13e0cecb3U, 0xbd44fc183d1e206aU, 0xbdcf92dbbd61d7b3U,
  0xbdaf6ed8bd8f770aU, 0xbd757514bd905797U, 0x3a59b8173d60dcdfU, 0xbcf7aa6dbd5644baU,
  0xbda25039bda46b6eU, 0xbd5d1a98bd37892aU, 0xbd60d725bc473cccU, 0xbdce9245bd28b616U,
  0xbac365f5bd451c7eU, 0x3ca265f83bedc0e5U, 0x3dd846d83d8ce56fU, 0x3dfaf8213dc3d037U,
  0x3e0d50463df8b2ddU, 0x3c21b86c3dd65494U, 0xbe0779adbce7071dU, 0xbe291007be03b509U,
  0xbd55fef1bd42b5d6U, 0xbd08d7aebc71431dU, 0xbd3c6819bd9b46c0U, 0xbdec14b8bd89d63bU,
  0xbcc52bf3bc813fedU, 0xbdb05286bd2e7039U, 0xbe6d3f1cbdd7bc7fU, 0xbe7f5fd9be7797faU,
  0xbe44482bbe702d99U, 0xbdd50ec9be58f420U, 0x3a04e74bbdea930aU, 0x3d83fb003d455b00U,
  0x3da2e4163db2cd0fU, 0xba68b96d3d77f66dU, 0xbbe3a9fc3d337499U, 0x3c11744f3ce5eecbU,
  0x3dcfb3ed3da24c61U, 0x3dcf43893cd99c60U, 0xbbee38dc3ca1dc7eU, 0xbc555176bd086ba2U,
  0xbda3fe03bd990b73U, 0xbdc7ff19bdee464dU, 0xbdcf6ff3be16d878U, 0xbd0dfacbbd8ba3edU,
  0x3c3580f6bd156147U, 0xbd13776fbca02e15U, 0xbc3b00d43c8539d3U, 0xbd53103e3cc5f1d8U,
  0xbb3724e9bcda2e45U, 0x3d238d18bd0b22ccU, 0x3c5d5fbf3b31314bU, 0x3d0ef9e43c46ded7U,
  0x3d1f7e0a3d358be9U, 0x3dd111113db94a73U, 0x3df72d943e1d7249U, 0x3d79e3593dd7fba5U,
  0xbab5aad93cc4a0f8U, 0xbddae24dbcf91ceeU, 0xbe08b0f2bdc2aed1U, 0x3bdcdb44bcbbeccaU,
  0x3d7446273db1bc0cU, 0x3d1122d23d766834U, 0x3d1106023c857f0dU, 0xbd9feca1bcacaea1U,
  0xbe6c757fbdb01fe4U, 0xbdf5a290be544d43U, 0xbddc64d9bdd3ad71U, 0xbb98b4f0bd0421ceU,
  0x3cc8725bbd569911U, 0x3c33ef6f3c91668fU, 0x3cab228f3db3d88fU, 0xbd1a08723d4e5a58U,
  0xbd558b12bdb5e01aU, 0xbd960810bde8c416U, 0xbdb388e6bd05f8abU, 0x3cff6d84bd3f8cb2U,
  0xbd18e0a33cf282ceU, 0x3b9538b13c5ffe26U, 0xbd2a69813c890f36U, 0xbd07a78ebb0f7badU,
  0xbd80a2b9bd600844U, 0xbd8c887ebe003da7U, 0xbd73583bbd980694U, 0x3bc87ca9bd0d8a4dU,
  0x3a065da03d2a6c2eU, 0x3cdc3d30bba29214U, 0xbce7598a3cf055dbU, 0xbc7f51c63d479b61U,
  0xbbb782ddbd49e5eeU, 0xbcb1ccf93bb2c85cU, 0xbd0365403ca244c4U, 0x3cc7e2933c8f3a90U,
  0x3c4a893f3c3ac44dU, 0xbca1221dbcb41347U, 0xbd08eb76bc4c15d5U, 0xbc6a6f76bd0cbfc1U,
  0xbd250ac7bc6e0d10U, 0xbd9278acbd9c430aU, 0x3d878104bcbd7c80U, 0xbd4705cb3c8b2697U,
  0xbd05a11abd47705cU, 0x3ca4741dbd01a07cU, 0x3da0da843d65f28fU, 0x3e27969c3db67ce4U,
  0x3ddfefeb3e168368U, 0xb9fbc5c63dff35e9U, 0x3ceb97cfbd320865U, 0x3d84c85cbd9bd403U,
  0xbde87b0ebd8318d5U, 0x3d49594abe20403eU, 0x3e81a2493e15d313U, 0x3cf8a33e3d80bba7U,
  0xbe1d9dcdbca7fabfU, 0xbdaad6f4be0d4bf1U, 0x3d6da816be3cb685U, 0xbcb35093bc96bf19U,
  0x3c1ce2973d8149b8U, 0xbc3aeecbbc8db244U, 0xbe2d0714bde34900U, 0x3d05cc6fbe235045U,
  0x3dcdb3673dc03874U, 0x3d3d93573b4fcd8dU, 0x3e017cd2bc11bc5bU, 0xbde2ed9dbd80c2e8U,
  0x3dc497c13dd93fc9U, 0x3e21805f3df25de5U, 0x3e960f3d3df6b8dfU, 0x3e47a4cd3ca95d6aU,
  0xbd4113323e013649U, 0x3d141dedbd5b6921U, 0x3d223c81bd2dd8d9U, 0xbd9d81b23dc0e273U,
  0x3e5067eb3e3cee6fU, 0x3e25cce33da9956fU, 0x3cf782ae3d0e929bU, 0x3d7ce8a33d1cfb72U,
  0x3d09ca053c9397edU, 0x3e4573a33e52f785U, 0xbe756d2bbd260b0eU, 0xbed66d95be809cecU,
  0xbedde44cbef5076cU, 0xbed81567be94a960U, 0xbe94862abe814a26U, 0xbe864113beb54b18U,
  0xbe9f5fb9be890f7bU, 0x3d8aa7c7bd68fa09U, 0x3ea218e43e4b57a3U, 0x3ef05d423eb532e8U,
  0x3eccd35f3eaff529U, 0x3ca9d50b3e977742U, 0xbea6b1e4bdfd1d3aU, 0xbe7132f5beb69ce6U,
  0xbe1bff5fbe3659f2U, 0xbc79a4983c8ad067U, 0x3e6069713d23036fU, 0x3e821ed43d9cc541U,
  0x3e1fc7203e900d71U, 0xbe3bb4dc3d4b3dbeU, 0xbe988529be203668U, 0xbeaa60bdbeef60fcU,
  0xbf1303d2befe0c85U, 0xbe594f58bf11c6deU, 0x3e365c41bda3878aU, 0xbd860ca83de4b1d1U,
  0x3e228ebb3de74c1cU, 0x3c7ff34b3de4e599U, 0xbe45c986be6c6975U, 0xbdb974043cd85ae5U,
  0x3e5d6dd73e0e3ae9U, 0x3e986fe13eb64eefU, 0x3e3e0dea3e32d5b8U, 0xbc9a5f353e2b5a04U,
  0xbe0b6ed83cb9513fU, 0xbea84505bdececd7U, 0xbe8f87d3be9b56cdU, 0xbeff6ca8beadb1ddU,
  0xbf176a59bf1496daU, 0xbe474ccabf1381e6U, 0xbcb0536bbe7527ddU, 0xbe872cc0bd336f43U,
  0xbea96353be9fcfa2U, 0xbb803bfabdb32415U, 0x3e07c3ff3d884976U, 0x3ea8f78c3e8a443eU,
  0x3dabe2853e781734U, 0x3d39a348bd3a9551U, 0x3d9423e5bc802ea9U, 0x3de7bad5bc177a46U,
  0x3cb92ec33bf1d4e3U, 0xbda7a7423d232bedU, 0x3e62ea4d3e70436dU, 0x3ed7f6d53e17d2ffU,
  0x3ea421f63ea6ff6cU, 0x3e07ca453e72b72bU, 0x3de7b18c3e276fcaU, 0xbdec7cdcbdacec72U,
  0xbcf52413bdbbbbffU, 0x3c2ba3403cef2455U, 0x3cbd42e7bcb6a4f6U, 0x3e2603063d9b27eeU,
  0x3d74314b3d26105fU, 0x3c8b6f473dc73809U, 0x3e79df1a3d2bc67fU, 0x3e04678b3e5f4285U,
  0x3e5876693d57fe3bU, 0x3e40606c3d1cf366U, 0x3e849cca3e5deff0U, 0x3dd8a9e83d8079e2U,
  0x3e7368f53e5e2f26U, 0x3e3351b23dc6e714U, 0x3d462e683d86fe75U, 0xbd2465923c9fdafdU,
  0x3d15c793bddd27e1U, 0xbda35ec1be267c75U, 0x3e0fdba6be258626U, 0xbe33286fbce842bcU,
  0xbdc9c330bdd0e6f4U, 0x3d10ff2e3d14710dU, 0x3ccf4d5e3e45af90U, 0xbd0e60763c23e607U,
  0x3d5d999dbcecb986U, 0x3d8c1a90bd5e7330U, 0xbd6ebe0c3da026f0U, 0xbd005209bc806124U,
  0xbd4c29143d1ea5ccU, 0x3cb8e4f73ca073eaU, 0xbcf0e6aabd7dac2fU, 0xbca4f1cebda7494cU,
  0x3c7daf3f3d9959d1U, 0xbd14513b3e04e9d3U, 0x3e8ac0823e0cdadaU, 0x3e8a0f833e8e8045U,
  0x3da2a46a3d73ff68U, 0xbcf306d4bda302c6U, 0x3c939d30bd2330deU, 0xbd9961d4399dbc57U,
  0x3db322e23cb3cb44U, 0xbcc6b0e6bd795c2aU, 0xbd110507be1c26c3U, 0xbdf6b962be235037U,
  0xbd15b8033cc21118U, 0x3cbcdc833c46113eU, 0xbe25748d3d269fbaU, 0xbcddbdaebd0753ebU,
  0xbcf1b475bc4d91e2U, 0x3dcb6ddd3dff4d22U, 0x3bff95db3d52e7c1U, 0x3cb0e8b53dd076a1U,
  0x3d95a3b83e28fd12U, 0x3de1acac3d98f40eU, 0xbc4af60739f0916fU, 0xbd80e9afbd367314U,
  0x3e06de4ebc70dbb8U, 0x3db716153c114dbfU, 0xbe1798df3c62e785U, 0xbdc7807abba683f5U,
  0x3d815cfbbdb89652U, 0x3de20e3f3da248beU, 0x3e26cf573d18160fU, 0x3deab8583e029e63U,
  0xbc60ba233d46c90aU, 0x3e167f423db648aaU, 0x3aff26493d162564U, 0x3e0268753d8d60f3U,
  0x3e4224c63e256d97U, 0x3dbd9dea3d92a9b3U, 0xbb570bee3d08d7cfU, 0xbe50c804bdf7084bU,
  0xbe08e61abd94364aU, 0xbd8ee5f0be110201U, 0xbde76424be187048U, 0xbe4603bebe35c2aaU,
  0xbea62323beb6952bU, 0xbebbb74dbeee33d3U, 0xbe6b631dbe81d9c7U, 0x3c26aacebe8f2506U,
  0x3e2c2e663d900a41U, 0x3de84d5c3e240e7cU, 0x3d70d1a83dc3c0ecU, 0xbd0b285b3c7cb895U,
  0x3c7f82a13d627888U, 0xbc28db453ceba675U, 0x3d3d35143d87c23cU, 0x3d7af15abd7129d0U,
  0xbc4eca5e3cc16bbeU, 0x3cae9a613c1a764eU, 0xbdb7e0e0bc8fdd52U, 0xbe7997f0be18eef1U,
  0xbe76c196bcfbcc87U, 0x3b6992a5be051c07U, 0xbd16a880bd5e1f96U, 0xbec46cdebe8d1d45U,
  0xbe8e871bbecb2fc5U, 0xbd571fafbe302ca7U, 0x3da13b7c3c3aacaaU, 0x3e0a7cd63d68e881U,
  0x3e056c4e3da70708U, 0x3e21002b3e036d05U, 0x3e070a193d95d118U, 0x3e0c5ea13dfdfa94U,
  0x3e6d2d8c3e15cd0aU, 0x3dda94da3e3d4e65U, 0x3e00b4483df49ee4U, 0xbbbc294c3d96fe25U,
  0xbe21e25fbdf4d569U, 0xbe2e7cd6be852788U, 0xbe1d1026bd80d802U, 0xbe2a5cc1be71fcd4U,
  0xbe0958b7be3ca103U, 0xbe342fcfbe12a950U, 0xbe44361cbe1cdb0aU, 0xbeb2b890be9958f1U,
  0xbe071293be624517U, 0xbd4abf8abd2ec354U, 0x3d41bd2fba15c3f6U, 0xbd5db5573bd6ab63U,
  0x3e1721383dc1b27eU, 0x3e08ce303d7bbf7eU, 0x3c827eb93d46c071U, 0xbd34bda9bcf1921cU,
  0xbdd697913cb5c709U, 0xbd03a04e3d200911U, 0xbd2ad32f3d835f19U, 0x39d2c04fbd801149U,
  0xbe2abb7dbc4af2bdU, 0x3ddfc582bc86dc29U, 0x3dd3ed1b3db714daU, 0x3d83c5543e3ed1cbU,
  0x3e2549f33e1693a1U, 0xbdbc0d773cc76af5U, 0xbc8cff20bd024e70U, 0xbd258dc4bc364ef7U,
  0xbc862fb6bd097d18U, 0x3d861682bd502664U, 0xbd80b2babca6a737U, 0xbd1fdae43c9c5af9U,
  0x3d5526b33da4cb5eU, 0x3d8583353d8b5736U, 0x3d8886ae3c6fe66cU, 0xbd56383dba32b8a2U,
  0x3e14121e3d5d1799U, 0x3d71eb5a3dc020c3U, 0x3ddfb2553dcd0620U, 0x3e3203003e3a7bf8U,
  0xbc0fb877bc625e47U, 0x3d3e7109ba79890dU, 0xbcbf462b3e0d13a3U, 0x3e47103d3d8f3906U,
  0x3c194aee3d359ae9U, 0xbe42641fbdf59577U, 0x3d9944aebdcebcc5U, 0x3d37b5223d6e14e2U,
  0x3d4c75073e02c489U, 0x3c97d7ba3d01283aU, 0xbd511818bd89b7c0U, 0x3d480ccb3c504583U,
  0x3dbc53ef3d2f64a9U, 0x3d0746ca3e05e9b8U, 0xbe3c55013e2be134U, 0xbe5cd519be17740cU,
  0xbea3e768be81c49dU, 0x3c18c5cfbe2f8a7bU, 0xbe0a0cfbbdcc9323U, 0xbe84168bbe1fad2eU,
  0xbe24d951be570844U, 0xbd531244bdbf38e1U, 0x3d839f853d6af4f2U, 0xbd93f0db3d0d4edcU,
  0xbdbe4684bd304ae8U, 0xbc9333103c0ffabdU, 0xbe1579753d418f63U, 0xbda4c27cbd0a08deU,
  0xbbe1e528baf21d51U, 0xbd15bd673d912359U, 0xbd7162b83d616630U, 0x3d390b59bd715184U,
  0x3ce008a93bf3242fU, 0xbc85297e3c989be3U, 0xbc8e885bbd02f10bU, 0xbc98e4d2bc058c1dU,
  0xbd9194f5bd7917f0U, 0xbc3dc0b53d6410a6U, 0x3aea7fcd3d36e551U, 0x3d33bc0e3b2d59f8U,
  0xbb36a169bb7dbbbfU, 0xbc9d05fbbd42507bU, 0x3c51e5c33c03569bU, 0x3dcd32473d30dcaaU,
  0x3d246eb83dff9944U, 0x3d2834003c72cbbaU, 0xbbf5c02cbbf4b9f6U, 0xbde5320ebcc6a402U,
  0xbdf07c52be2ec214U, 0xbe06faa8bd8624c2U, 0xbe509d9cbe55dc32U, 0xbeb491cfbeb02c17U,
  0xbed12962be940539U, 0xbe7762c0be9044a2U, 0x3dd77da3bc2b54fcU, 0x3c7dd4933dee9408U,
  0xbdb5484cbc538299U, 0xbdb92d74bdecc417U, 0xbd6f703e3d069f10U, 0xbdbe04d5bd09fb7fU,
  0xbd33b6f9bce90737U, 0xbe12d1b4bda31ac7U, 0xbeb11604be949865U, 0xbd930454be94ab52U,
  0xbc8db9c1be09ac3dU, 0x3d4b8c9f3da70d9cU, 0x3e3852cc3e2995e8U, 0x3e06f77d3dc91fd3U,
  0x3ddd1c963dd5f630U, 0xbd9402643dba9e0fU, 0xbe818e72be2b21d2U, 0xbe8a4eccbe8d9ac9U,
  0xbdc8d87dbe777b48U, 0x3ab97fa8bd9f1ddfU, 0x3e16cb783d94cf63U, 0x3e2345af3e85f5f4U,
  0x3c9a4e2a3dcc8992U, 0xbdd8fa51bdc27353U, 0xbdd5a079bd89aad0U, 0xbe03e50fbe011a8eU,
  0xbc7794f2bdc791d9U, 0xbb9bb9bc3df3a61eU, 0x3d0414fe3d7c3d52U, 0x3cca5d583d55e86bU,
  0xbd94d267bcb01b7bU, 0xbcc6cec53c8577f1U, 0x3d9bcac63d265f1bU, 0xbd6d99323d758044U,
  0xbe332c66bdef53ebU, 0xbe5346f1be8199deU, 0xbe2fd24ebe856245U, 0xbe247ababe6168d7U,
  0x3c26e0353cebc3ceU, 0xbd790ba7bc83ec18U, 0xbe3ecf4abe4cb4b5U, 0xbbefc7a6be1b3597U,
  0x3c4e5d75bcdb770dU, 0xbd38af27bd54926fU, 0xbd69e0733d495288U, 0x3bfe4054bb5777beU,
  0xbdcbb165be09022eU, 0xbc6a542cbd214577U, 0xbcf2f69dbc494357U, 0x3e17140f3dabb7deU,
  0x3cbcf3723ce27bd6U, 0xbd0927aabc9e637cU, 0x3c5a1a71bc3a2066U, 0xbd68da5f3d342ec5U,
  0xbd78e6c1bd63aec7U, 0xbdc8fc37bd900a37U, 0x3d69d794bd990572U, 0xbcc9a9c7bd30d9bdU,
  0xbc5b28ca3dc734b1U, 0xbd4272963d4a3ba6U, 0xbdc40909bd1ff3b5U, 0x3d228d82bc0d3888U,
  0x3c10e84cb9cc1006U, 0xbb1600a9bcc1d9cfU, 0x3ca1a5093d290b30U, 0xbc1ff590bd5c373bU,
  0xbdc64064bdb0ef7eU, 0xbdd7a7d8be035d36U, 0xbdc71c8dbe49dcd4U, 0xbd88d6e9bd921749U,
  0xbc0ca28b3c40619fU, 0xbdf7add4bd3112faU, 0x3d14954dbd989251U, 0xbdcd6f153c4a2db6U,
  0xbdbb370fbd5be2b6U, 0xbd884e21bb22d36dU, 0xbdabb058bc586cbeU, 0xbc8a1807bd8b4f1eU,
  0xbca4ed1dbd79745dU, 0xbc7bf4cfbd51f011U, 0x3d27e53b3d33a9a0U, 0xbcd348abbd8b17b7U,
  0xbcb1f54bbd851b5cU, 0x3c4ecf833d5c591bU, 0xbd58d8f33cb2df58U, 0x3c438f5e3bf7565bU,
  0xbd1b6c373d1cddcdU, 0xbdc7dc693d1b0d74U, 0xbe2838e6be20d012U, 0xbd301090be11bbcfU,
  0x3dd5b522bcfd157aU, 0x3ddd20713dc5c0b0U, 0x3e3dc5ab3e42bd36U, 0x3bf963683c81ba4fU,
  0xbde6d9c63c958d1cU, 0xbe0740acbc99587fU, 0xbdc98201bdd3a135U, 0xbcd9ececbdacb14fU,
  0x3cc1beeb3d4c77eeU, 0x3c8c20f0bbfc4e96U, 0x3d0d1ce0bbc8cf57U, 0x3e04329c3e0ee2cfU,
  0xbcab25b23c8d7469U, 0xbc1a6fc53c34e15cU, 0xbd45d1c3bd98ef4dU, 0x3e1bd3a73d860842U,
  0x3d8420603d970037U, 0x3d9ba2ad3d9019c1U, 0x3e358a963e03f681U, 0x3cd31d013df9fce2U,
  0xbcd720093d6b1052U, 0xbcb8a1493d5e6908U, 0x3d754ee63d84b83dU, 0x3dd27f293d73c7ebU,
  0x3bebd8103ba0b979U, 0xbae77d343c85027eU, 0xbd9971bbbd5730cdU, 0xbd597432bdb6ee8bU,
  0xbd9f66e7bcdd15e7U, 0xbd9fb65d3c6a0e24U, 0xbde842c2be2a95e0U, 0xbe0d5af5bdea0102U,
  0xbe482473beab0f78U, 0xbe89f0e2be53a084U, 0x3d2d6a44be02b9b9U, 0x3e23a5513d930908U,
  0x3dc18c9a3e2de68eU, 0x3d09d45f3ded8334U, 0xbd7ab3e7bd106cffU, 0xbdcad4ce3d56f65aU,
  0xbe4542f4be2bebf0U, 0xbe378ac6be4a8f38U, 0xbe4d0be9be4430b9U, 0xbe37c94dbe3d69c8U,
  0xbd933febbde8dc49U, 0x3d95be1ebd7c38bdU, 0x3c3e538bbaa38fcbU, 0x3cb1d8863d2d8490U,
  0xbc67e1c1bd068637U, 0x3dcc37573dc9a186U, 0x3d11c6d83daac618U, 0x3ba8ea103dc16bb2U,
  0x3d2847c63e004a7aU, 0x3ce73692bc93add5U, 0x3d97d2583c22f1f9U, 0x3e45f50f3d63d2f5U,
  0x3e111bd83e5835f9U, 0xbdd2b4d93d5d0d70U, 0xbd27ca42bda33ddfU, 0xbb2e4d3e3b6e068fU,
  0xbd9708ee3cb74ff1U, 0x3a333ac4bdb4cc2bU, 0x3c463f1b3b864bd7U, 0xbca229ba3d5b145aU,
  0xbdc9c8e9bdaefd17U, 0xbe1c4f48be147bceU, 0xbe669fc1bdd8374eU, 0xbe4e0a1fbe763ad1U,
  0xbe40fdebbda46b55U, 0xbe422f9dbe69e4f2U, 0xbdb437a1bd5efc9bU, 0xbe08a478bddd434aU,
  0x3cb66ddf3cf8805eU, 0x3d61babe3c6fae15U, 0xbd4644c0bcd62ad0U, 0xbdc7690dbe27a427U,
  0xbdc5ff73bd82dc27U, 0xbe62fc11be7d7f89U, 0xbdadd257be428b9eU, 0xbdaddbb5bd912beeU,
  0xbe0853edbe4b00b8U, 0xbe88a42fbea54779U, 0xbe18ed86be37b55cU, 0x3d2eb3cbbd1a8722U,
  0x3e1ff5923e01c8d1U, 0x3e1a992c3e44668bU, 0x3e4dfc313e1ca2e7U, 0x3db02adf3e2fb454U,
  0xbc9bfcfebcbf60f1U, 0x3db354dc3d229b91U, 0x3deaf5c53e17b89dU, 0x3d2700243cb599baU,
  0x3d06c3773d180faeU, 0x3e214acc3db116ccU, 0x3d84a8263dea4514U, 0x3abd97f4bd205d68U,
  0xbe0f0649bddb29c0U, 0x3d93d51a3c915729U, 0x3d98dbcd3d7b7f8cU, 0x3e4746933dcb69c6U,
  0x3e12f8a23e27dfa4U, 0xbd251e303d100774U, 0x3cdddffebd44de97U, 0xbe737251be25e388U,
  0xbdca307abe741f14U, 0xbd415cd9be3b648bU, 0x3d9b1fa1bc68f04cU, 0xbdf7fbfb3c877d56U,
  0xbe00c6dabc550ba9U, 0x3d67fe86bcbd458bU, 0xbd9489703bd45e28U, 0xbe2cd8d2be163a71U,
  0xbe792be3be4b63cbU, 0xbe22e97cbe506970U, 0xbd6d861bbd9226cfU, 0x3dcfd5dc3ca897ffU,
  0x3cfeefbc3cca1f03U, 0xbadc3b4cbd290519U, 0xbe8fd653bd870d53U, 0xbe96d381be6a62dbU,
  0xbe82965dbea26ef9U, 0xbdb566ddbda135b5U, 0xbcd9f61dbdbeb3c5U, 0x3c2d44f63be803c0U,
  0x3c80e9463c096c67U, 0xbd97f8263ccd279cU, 0xbdfdf9fe3bbb9317U, 0x3c1c244bbdf1a434U,
  0x3cb3cd9f3ad78d27U, 0x3d1932e93d600bb8U, 0xbd4f60d73de160eaU, 0xbcfd4398bcac1866U,
  0xbde44240bd88aa48U, 0x3c3a8b52bd949d57U, 0x3d7562f4bd8d4642U, 0x3d024b633d12af08U,
  0xbb93379c3c9f85ceU, 0x3c2337d23d6c0f43U, 0x3e158c2b3cfa3d9eU, 0xbd0740743e05b666U,
  0xbdb1e6f23b3204dbU, 0x3c6f2431bdbb8da5U, 0xbd189475bcbc9cfbU, 0xbd6364083d7f1e89U,
  0xbd547aa4bd817b07U, 0xbaca6b61bb1f141cU, 0xbd2af40fbd7a438aU, 0xbc999f5ebc96bf09U,
  0x3bad5b403db83bfdU, 0x3d75f2323d383605U, 0x3dff6abf3d40375aU, 0x3dfb55323dd2e333U,
  0x3cd16a7f3c06052cU, 0x3c8f84783d1101a1U, 0xbd0cce91bd502e74U, 0x3c72b790bd906bd4U,
  0xbc37cc05bb63e4acU, 0xbcb1a926bcf10fecU, 0x3c68e7803cd26253U, 0x3d9ff3763d838b3cU,
  0x3dd3dc643d1c837fU, 0xbdeae73d3d896d07U, 0xbe0ce900be11ae39U, 0xbd24ad27be0c68ecU,
  0xbbe6c77f3d54c7c1U, 0x3d40f4403d24d66aU, 0x3d0165ec3d6a6949U, 0xbd3f6d1ebb8ea445U,
  0xbc6cad393d393381U, 0xbd8b0a89bdd63cf0U, 0xbc37210bbdc63c84U, 0xba8f40a73cd5195aU,
  0x3d14c2243d8ded01U, 0x3e388b063dbecce0U, 0x3d7097783d8c7aecU, 0x3d8c64b63de0dae2U,
  0xbd7cc7c83d79fa65U, 0xbda9bf063bddaad4U, 0xbccb64e5bd30c929U, 0xbd4ee1f7be0bba97U,
  0xbe866b65be7e4ce9U, 0xbecbf1acbec0f8a2U, 0xbe35fa99becc54efU, 0xbe17c176bdf2c525U,
  0xbe0b48e9bda661b8U, 0x3d61f728bd8680b0U, 0x3daa52363dbeec16U, 0x3e10a43e3e6b9fe7U,
  0x3d909e043dbc739fU, 0x3d8e4d603d538f28U, 0x3be2bd9d3cc1d2acU, 0x3d849893bcc361f6U,
  0x3d85fcf4bbce13ffU, 0x3dce334f3d8a05eaU, 0x3d09dcd1bce8999bU, 0x3ca97985bd075aa4U,
  0xbd817954bb412d3dU, 0x3d048d7c39b80ec7U, 0x3d35b8893d0b5fe6U, 0xbdbb3932bcfbf140U,
  0xbdf0fd16bc030d44U, 0x3c5a0ab23da94f03U, 0x3c7a789b3d3f66cfU, 0x3d83c5663a3ab6fbU,
  0x3d2197803ca50ee9U, 0xbddc48eebbee092bU, 0xbe2444d2bd620de0U, 0xbdb0df7bbe167becU,
  0xbe029871bd44d7b6U, 0x39ca8987bd2ed509U, 0x3d40f7ef3e14d4a4U, 0x3d2bced23dd1a637U,
  0x3d8ba11d3ce04b49U, 0x3e124d513cff6231U, 0x3d46a2e63d1d9d7aU, 0xbdf58c1dbdd9da17U,
  0xbe145f5ebe7aa886U, 0xbe7f6283be4caa02U, 0xbedbf7a7bec8bddbU, 0xbea2fe70bef50e8cU,
  0xbdf5aa88be4344d8U, 0xbda6bbc7bdddf77bU, 0x3ce8ca593c1f41fbU, 0x3dc012f0bb5110e2U,
  0x3dc43ae63ce110a7U, 0x3e1d2e1c3dbfb7cfU, 0x3e1a58273dd5c84cU, 0x3c30b6673daea866U,
  0x3cb3dec73d982499U, 0x3d945f2ebc821dc3U, 0xbd8e1343bc5ed544U, 0xbd0561713b8762a6U,
  0xbd90eb4bbd29bdcdU, 0x3c7f00fdbd170125U, 0x3e2d78c93dd3aec7U, 0x3c001c053c51b9aeU,
  0xbe1b2296bd73b0b4U, 0xbe2fce7dbe2575e2U, 0xbc07deda3a730adbU, 0xbd80fdeb3d235627U,
  0xbe28fd09be1cdb55U, 0x3dd6d9783bf3231eU, 0x3cc133583bf518deU, 0x3cf559d93da712e0U,
  0xbd79b7b8bcaefaf3U, 0xbdf806a6bd906c3cU, 0xbe19b0d0be13d00dU, 0x39f027bfbdbf3209U,
  0xbcd0fc5f3cf28f5cU, 0x3c0a074e3d84bb0aU, 0x3de98d113e18588fU, 0x3c17fd263d71c29eU,
  0xbd0a2e3d3e0a0480U, 0x3c798b303cd873ffU, 0x3b603051bc75d25fU, 0x3d08c8d8bbc1f9d6U,
  0x3ce3f6fb3c577de0U, 0x3d1694d438eae67cU, 0x3cf4f0143b177039U, 0xbd014c833cf85996U,
  0x3cc6cb1fbcc0ff0cU, 0xbd1178d33d10ef94U, 0xbcaacce1baa5eabfU, 0x3cf079df3d0ab01cU,
  0x3c98803c3cd96f1cU, 0x3ccac4f1bc893738U, 0xbd0051c5bd3784d9U, 0xbdb42e43bd61b45fU,
  0xbda9a340bdb5a22cU, 0xbe0d08eebde1914fU, 0xbe13a6acbe0cebe1U, 0xbdf1daeebe46c6d2U,
  0xbe073109be2dbf3aU, 0xbe234f5dbe1b4a7fU, 0xbdb3729fbdffc7f1U, 0xbdb8f6f1bdb2feb0U,
  0xbdfc0cb4bd81f862U, 0xbd8b8f4fbd9b8a4cU, 0xbdf160c0be045226U, 0xbd9f8140bd8bd0d2U,
  0xbdbc5c81bdbf9683U, 0xbc9c1bd6bc3c2d74U, 0xbd2ef181bbb53b95U, 0xbbe0b8d73d1f08a5U,
  0x3caa7fc23d0b1ad1U, 0x3d5ef6253cbf8be0U, 0x3ce7ee7c3d0a5efcU, 0x3cb779443d977b04U,
  0x3d468acd3d8d7bdbU, 0x3da6781d3d329453U, 0xbb7426673d526f36U, 0x3c156d583d7138a2U,
  0x3c48eda33d6ae0cdU, 0x3d3e72b73d8a971cU, 0x3d455d443d0f4d53U, 0x3c1601303d0c7dd0U,
  0x3d4d2b173d2bae81U, 0x3d8086e53c968628U, 0x3c4fe96a3cd49267U, 0x3d6ffc033c584240U,
  0x3d36e9363c5f1f28U, 0xbb57476cbcbcaa72U, 0xbce42537bd4138c1U, 0xbd9ba9dbbd1ca7e6U,
  0xbe274f9dbe01ec45U, 0xbe25c5c4be2666b0U, 0xbe1f5555bdc66ba8U, 0xbdd50299bdf6f8a8U,
  0xbe4140bcbdfbc49eU, 0xbe3c70c5be3473b6U, 0xbe1ae346be04b124U, 0xbd86cad0bdf9848cU,
  0xbd516fadbda26f74U, 0xbcc6f7f6bd84dee6U, 0xbd9bb634bd411fe0U, 0xbde4cd61bd92c095U,
  0xbd7e484ebdb6fd7bU, 0xbd7bb4cebdc8b20fU, 0x3b1199273bb69497U, 0x3d005eb73c8cec1cU,
  0x3d8e07aa3c9bddf4U, 0x3ca067a63d010766U, 0xbc1114a23d527b40U, 0x3c02aac93c2301c3U,
  0x3d0869423664e40bU, 0x3c384932bc7fa9e0U, 0x3d87484c3c3da983U, 0x3c40289b3d49d8a1U,
  0x3d0f475a3d67676aU, 0x3d65cf6d3d7e6fcdU, 0x3d8335b23b9c6c44U, 0x3cbd97053cd5a2feU,
  0x3d9c829c3d302d08U, 0xb9ad4b5e3d560c2eU, 0x3d99d47d3ce87905U, 0x3cb6c2a93cef3dbaU,
  0x3cc157d53c87dd14U, 0x3d6305453cd7e40fU, 0x3db760d83d7cbf1cU, 0x3d03e3bd3d808b05U,
  0x3d26e9013d82ba70U, 0x3c8da44abcd51477U, 0x3ba9a268bd3817a6U, 0xbd5bcd50bd845ef1U,
  0xbd0b6902bd37e54fU, 0xbdcae10bbd60c354U, 0xbdb248f1bda7b97cU, 0xbe158d09be055826U,
  0xbdb29b40bdf44a17U, 0x3b84daffbcf043d8U, 0xbc9b93fd3a570f6cU, 0xbc81dada3c0c6fd8U,
  0xbc9ddb9dbd1f643aU, 0xbbf7061ebcb6ddb3U, 0x3c947290bcde56f0U, 0x3d050bf5bc76cdbcU,
  0x3adc66713d4a5226U, 0x3bc72fdd3c32b9f0U, 0x3cf76c2a3d2e6841U, 0x3cd8c75ebc18acadU,
  0xbd18bc223c6e9f0aU, 0xbcd004d6bbc5f8aaU, 0xbbbaa56fbcc5aacfU, 0xbd4062c6bcd00e03U,
  0xbd2837713c9b1874U, 0x3c8824fcbc92a21dU, 0x3d15d53f3cf5b663U, 0x3c368e88bc0cde92U,
  0xbc33da1bbd0a69e4U, 0x3baa7821bc8ba855U, 0xbc836f48bd24493bU, 0xba112493bbda121dU,
  0xbb122173bd0c5f56U, 0xbd57a61cbda33fedU, 0xbd0a0a4dbce24760U, 0xbd869265bcd0e05aU,
  0xbd4c0d1c3b8f98a3U, 0xbc798680bd238e41U, 0xbd01c8e3bd2d92fbU, 0xbb9a4a21bd356cd2U,
  0xbe739432bcc78b22U, 0xbd4b17b4bdb75956U, 0xbd0fa676bd3084fdU, 0x3d15f075bda7de1fU,
  0xbe0d653dbda56308U, 0xbde37067be284590U, 0xbd4f1be0bdaca95fU, 0xbd924b6cbc966bc5U,
  0xbde4e098bdee24e0U, 0xbe9043eabe8c6480U, 0x3cbac739bda67ab2U, 0x3db63fd43e0378a7U,
  0xbe126bc0bd59a0efU, 0x3de2b534be1044dfU, 0x3d9a898d3dbd2ba3U, 0xbda9eb29bd5148c1U,
  0x3d8d4f71be1a89b0U, 0x3dcda8de3dc03015U, 0x3dca9fa13dc1e8b1U, 0x3d937d353d63d821U,
  0xbd8064543b2b3ec5U, 0xbd3532efbe0936c7U, 0xbcb7e3173c15bffeU, 0xbd99525b3d4deae4U,
  0xbb3fc70bbcd8dadeU, 0xbbc9103d3d2df478U, 0xbdbf5d18bcd74ce9U, 0x3d02b4ddbd22e129U,
  0xbd8d2e7abb8b7fddU, 0x3dc1b2283d849282U, 0x3dd4c6683cc78f08U, 0x3b79a43f3e12c14cU,
  0x3dbe05b8bb0b1a4cU, 0x3dae1dc03d55f7b4U, 0x3d94ca543caf6caaU, 0x3d2b20733dc93848U,
  0xbd7c034fbcad3b7bU, 0x3e058e463c9079ccU, 0x3dc4b47a3d60f53cU, 0xbde661e93c956ffcU,
  0xbd6ffa08be09ae3dU, 0xbe09ad02bd813992U, 0xbd075ec1be687312U, 0xbd86ab50bd7ed46cU,
  0xbd58f7cbbd9afae6U, 0xbe1323b2be371589U, 0xbe24bfb7be36404aU, 0x3df713c3bb99d45bU,
  0xbdf627a8bdd0d825U, 0xbded6cd4be232e9aU, 0xbdce02e9be0d4030U, 0xbda38e29bd62cf34U,
  0x3cbad4febdb106d2U, 0x3db2e26d3c075c44U, 0x3e68e6c13e0493feU, 0x3e8de8753e8a3262U,
  0x3dd292db3e2129dfU, 0x3e3faea33e05400eU, 0x3e9257133e6d36a8U, 0x3d4e7a8f3dbc5b82U,
  0xbcd752a33d87b955U, 0xbd9ae3e63c9f6b6fU, 0x3d279260bb90bb12U, 0xbdf420de3cd7cf6cU,
  0xbd078bfbbdcc2824U, 0x3d02f966bcf12dd6U, 0xbd1cc2b4bd0b8d46U, 0xbc0983c5bcf8ad0bU,
  0x3de0688bbcf6db32U, 0x3ddbf0c73e210d06U, 0x3e56b3773e723ed5U, 0x3dfa4e5a3e5734beU,
  0x3dd49d713e3ac841U, 0x3e22b6203e6caaa0U, 0x3e71e7ed3e6478d0U, 0x3dbe9aaf3e9b6b94U,
  0xbe1fb4a0bd0c2b2bU, 0xbe68c756be84e92aU, 0xbe3c9b52be5fb8f9U, 0xbd9b1b40bde9407bU,
  0xbd75d4963d9d3ca7U, 0xbdea4224be1ab069U, 0xbd3957c8bde94b4fU, 0x3e25cace3de9d520U,
  0xbe4f0a7abda3d1ddU, 0xbe2fce3cbe35d5ceU, 0x3cd2a15abcac7e92U, 0xbd7eab053bff541bU,
  0xbe2637f6be2b5f3dU, 0x3e058ce8bcde5382U, 0x3cde87c43bf7669cU, 0xbdd59ec5bdc86482U,
  0xbc8475a8bc196d39U, 0xbd2110d23d910daeU, 0x3df81bcc3a542e69U, 0x3db86b523e08b867U,
  0xbb3898873b583675U, 0x3d2dba363d8b23fcU, 0xbcbcc29d3e1d7c33U, 0xbca597823c93e9daU,
  0x3d431f11bd9f6698U, 0x3d1a984a3d94ecb8U, 0x3d544a6ebc3a4269U, 0x3e317e763e026b4fU,
  0x3d6c46723d813d94U, 0x3dce2078bb218b56U, 0x3d90d7d53de630d5U, 0xbb3dfd49bd550f90U,
  0x3de25590bbc265e6U, 0x3cab9f583e142144U, 0xbb7dc1593c5c641bU, 0x3da35079bd4ef65aU,
  0x3e514fe93df6b27cU, 0x3dcfc46b3dfc761aU, 0x3dbab9993dabe999U, 0x3d14de08bc277aecU,
  0x3a1c85133c0926f5U, 0xbcef1754bd9fa27eU, 0xbdcb84303d029a32U, 0xbbd1efaebd5ee835U,
  0xbd13678b3d667321U, 0x3dc7c6563d8e923dU, 0x3d5d03623bebd85cU, 0x3cae310dbd33ef11U,
  0x3d248abc3d72085dU, 0xbca6a3fa3ac409b9U, 0x3dd6283c3de6abf0U, 0x3cf5b928bc465e7aU,
  0x3c0fd6cc3f63dfbcU, 0x3fe47cecbcc3150eU, 0xbf4d74af3f6f3dfdU, 0xbf9d379dbe4a308eU,
  0x3dac80a1bf33548cU, 0xbe1dab70be11450bU, 0xbdff86c43ebea4afU, 0xbe84d10eba4ad1fdU,
  0xbefdc28b3f1157ddU, 0x3d10baa1be26bcdaU, 0x3dea0c203f29920dU, 0xbebc5f683ef9c0c4U,
  0xbe210ea03f2d97e6U, 0x3fb91a303f0f9d3aU, 0xbf5d7eddbee15eb7U, 0x3e1d1d1f3f407855U,
  0x3e6640aabeeb3754U, 0x3e43d478bede5edeU, 0x3d31416e3f06dc7cU, 0x3e612a37beae27f7U,
  0x3ee6235e3f416200U, 0xbe569cd9bf2b9215U, 0x3e4461ef3ec343cbU, 0x3cd2bbc7beb96399U,
  0xbe9194923eb9011aU, 0x3f9d3483bf8e08ceU, 0x3effd9debe6cb179U, 0xbe490c2cbf6cae84U,
  0xbe48d95a3f1ec8aeU, 0xbefdb4f33eb282e9U, 0xbe02749a3f09ea1aU, 0xbf9170e8bece33f5U,
  0xbf80df67bf00d82eU, 0xbe256f0ebf9c442cU, 0x3ebadc31beec86daU, 0x3ef10be6bcf8382eU,
  0xbf909f1d3e19e5b9U, 0xbe0965c2bf8745d2U, 0xbc757fa9bf5ccf00U, 0x3e77ed183e8228beU,
  0x3dae98043de1e152U, 0x3d8ccf8e3dc9603eU, 0xbd98b6a83d37b4e1U, 0xbe3eea97bdfaf65aU,
  0xbc452c52bdf69bd4U, 0x3c82b991bce011f5U, 0x3dea52293d79bdcbU, 0xbbd3bbfb3d953447U,
  0x3da1d08b3da75ce2U, 0x3ccc3a3d39f91b2dU, 0x3d21c7e33ce4621cU, 0xbd8f9592bac177fbU,
  0xbcf24ef4bd920f14U, 0x3cde39a73c8475eeU, 0xbcfdabf23d1436adU, 0xbd0a44af3b92e821U,
  0x3c908e6cbcc7fd90U, 0xbd0a0e7abca3b128U, 0xbd45c017bcf7df39U, 0x3cfa936dbd00c6c6U,
  0x3cdc169ebc50b4dcU, 0x3d102889bad48b7bU, 0x3d1cb6ab3d56c1e0U, 0x3d9583f73d299de0U,
  0x3d0c73663ae94b03U, 0x3c57cb6bbd4d8b24U, 0xbcf5ab76bd6969aeU, 0xbc58b282ba88464bU,
  0xbd0dd7353d1800c7U, 0x3d50a9d6bcbff998U, 0x3d2fd6c2bc545927U, 0x3d0dc5d73d2f1853U,
  0x3c636704bc2bf521U, 0x3ca8c1cebc91cf8aU, 0x3dd3c8853deb4299U, 0x3dbe36533e118ecbU,
  0xbe4d3ee7bdb4904dU, 0xbe700264be5fa144U, 0xbe01216bbe05080aU, 0xbe8c27eebe53c14eU,
  0xbe1887b2be3ad6e9U, 0xbcf6859abba5dc1bU, 0x3d335f3c3cb4b958U, 0x3d6cf4443c73e2c2U,
  0x3c6c1323bcb14c8fU, 0x3d2fcafe3be1bd17U, 0x3cb247ee3cc38f56U, 0x3cd20cfb3c2cdb8aU,
  0xbdb66cb1bd73cdc6U, 0xbd2c8817bd971832U, 0xbd471039bd888073U, 0xbd7b9637bd5c79ecU,
  0xbc94e96cbc2d52daU, 0xbc301a2f3c91edd2U, 0x3d6f0740bd11ebceU, 0x3dcb66ea3d956d3dU,
  0x3d8744303db80db3U, 0x3b18eab33c916413U, 0x3db322513d4595e9U, 0x3d357c8e3d491cd9U,
  0x393ef2bf3d847bb5U, 0xbcd910b13d550bfbU, 0xbd59516abd56e712U, 0x3cc92f29bc8ef9e1U,
  0xbb19ac3a3d4983aeU, 0x3d6d278a3cc7b74bU, 0x3d5070e53ce56201U, 0x3d1110033db399b0U,
  0x3d43600a3d77f4d2U, 0xbc50c562ba4a3518U, 0x39ee7bb7bc9172ceU, 0x3dace6d63cdc2f62U,
  0x3d37cf4e3d9e0df2U, 0x3af362563db1638dU, 0x3cf6a59d3d3ae64aU, 0x3d2422203d512be8U,
  0xbe2255e3bdae81aaU, 0xbe6221b8be57435aU, 0xbe0bc8d5be462f8bU, 0xbd08bdb3bcbd3a05U,
  0x3c2c8c3b3c4fe010U, 0x3dfd498e3d30ea0cU, 0x3d9724063dba9a1eU, 0x3daa26493dc1a4e6U,
  0x3cc3424d3db9a979U, 0xbcadfb9f3cbaed47U, 0xbcb1bc41bd57b351U, 0xbdeb9211bde6f38dU,
  0xbd0f522dbd74e62dU, 0xbd46529dbdc9e506U, 0x3dc02deebb9e4ed9U, 0x3dcfbd583da9ed8dU,
  0x3d5234e73db8db79U, 0x3d6653fe3dec05bdU, 0x3ce9a6933d4e4a48U, 0x3d6be2453d403729U,
  0x3d4b9f823c518915U, 0x3ae74ff239a7084cU, 0x3cde77b13ca557d2U, 0xbc107b0fbcfb4717U,
  0xbd0c2a4a3c7f9709U, 0xbdf99c58bdaed682U, 0xbe641a67be39ffdaU, 0xbe14532abe706b53U,
  0xbe4f0609be40fe09U, 0xbdd98501be53d66dU, 0xbd7f16fdbdab2320U, 0x3d921185bd386d5cU,
  0xbca7a95e3d8b962cU, 0xbda4d50dbdda3fb6U, 0xbe391cb9be59c0cbU, 0xbdefb010be5dec3bU,
  0xbdc00a10bdd3c49aU, 0xbe229ec2bdee1d13U, 0xbe0cef43bdb2a67bU, 0xbdb9f87bbe4701f9U,
  0xbdb29de2bd91e1aeU, 0xbb4ae12abdc2112bU, 0x3d6984b3bd121f18U, 0x3d8a97583ca2fb9bU,
  0x3da0fcc43e197cedU, 0x3d4d323a3dc36aeeU, 0x3c086e733da4b05dU, 0xbbc54753bbe5c8c5U,
  0xbe1e0e66bdd85ac4U, 0xbd910e3dbcf1af2dU, 0xbc8733afbd2e5371U, 0xbc251554bd90f63aU,
  0xbd089b8cbc3e1949U, 0xbb8e5789bc367c1dU, 0x3c5a24123d332a95U, 0xbc5a53e6bd4ee631U,
  0x3d27bfbf3c7ced20U, 0x3d9dda833d461b02U, 0x3d7894513d6f1fa1U, 0x3d9523e13d069963U,
  0xbc3357683d595eb1U, 0x3d21e94abc9dd2a7U, 0x3d715c17bc6e9a32U, 0x3d0a289c3b03c24bU,
  0x3d4c284d3cd72be6U, 0x3c93806cbcfe044bU, 0x3d3f6e3e3b6d64d1U, 0x3c899d763ca9f09dU,
  0xbca555863ce761ceU, 0x3d040a33bc56fc39U, 0x3d00caea3da6a69bU, 0x3b676fcd3c815a2dU,
  0x3d20d4c93c8df9ddU, 0x399918063c15851eU, 0x3bfe4b19bc8a5879U, 0x3d133435bd29c8cfU,
  0x3c3d4e46bbef455aU, 0x3b3e0a0a3cb5aeb4U, 0x3cef55cd3d4acd38U, 0xbc8988083cfaf056U,
  0xbc7125ee3b956256U, 0xbde5e795bd64a8a6U, 0xbe741292be213004U, 0xbe9df848be8ef810U,
  0xbe70e636be8acf97U, 0xbdad533ebe2285efU, 0xbd88537dbd367883U, 0x3ba8c267bd87897cU,
  0xbd7aad43bb8ab93cU, 0xbdad41eabcd03461U, 0x3b509529bb2b5187U, 0x3d9db934bc08d347U,
  0x3d1c4cde3cfdbcaaU, 0x3d577c7b3db113c7U, 0x3d8bc76a3d648251U, 0x3d9b92743d52da8fU,
  0x3d0344453d8a4642U, 0xbc9a411b38b3624dU, 0xbd246389bd0fe2efU, 0xbcb2762dbd2d6ad3U,
  0xbd79b2dcbcd231e3U, 0xbda5e644bd6f4629U, 0xbd8e7cf1bd8f0144U, 0xbdc0ea00be14211cU,
  0xbddfcde8bdb9e36aU, 0xbda0fe9dbde48ec7U, 0xbd62f1d5bd1db1f2U, 0x3d4d176f3c9d936dU,
  0x3d984ca13c3dfd63U, 0x3c0aeb3c3d6ce994U, 0xbccea1183cc661d6U, 0xbaa29e8e3cf831b4U,
  0xba8afa00bc8483a5U, 0x3c0f846cbaa454e5U, 0xbd25d83dbc3ecbe6U, 0x3ca28bba3d30ae3eU,
  0xbb4b0a6f396e18feU, 0xbcd509d63ceb81dfU, 0xbd948cf3bc931e7eU, 0xbe2761fabda8050cU,
  0xbdf48021be0ab893U, 0xbe86d796be864399U, 0xbe252053be75f206U, 0xbdb45a8cbdbb4ac3U,
  0xbdcddf38bd6193d7U, 0xbd5d6d50bd68d97dU, 0x3c52109bbc8155b3U, 0xbc08b851bd0cc4d9U,
  0x3d15671e3d921f0dU, 0x3ddd59143dce2ec8U, 0x3d58991b3d9e90aaU, 0x3d9a0e6d3db3d511U,
  0x3d1c10c13da07f91U, 0xbcc78de03d353548U, 0xbbdcfb5c3c0933d1U, 0xbd2c901c3c2dd6d3U,
  0xbd856bd4bd20d6f9U, 0xbd93fad0bdbda23cU, 0xbd8be6ccbdad5b18U, 0xbdf15558bdd5e927U,
  0xbd6c6f1dbdd9c55eU, 0xbd5f5bc2bdcdda6eU, 0xbca5cbb6bd1a1273U, 0xbc82481cbd8acb76U,
  0x3c73e7acbd561300U, 0x3d11e6d33d738d2fU, 0x3d0c0c973d7ba3b3U, 0x3d7114a63d77fe1bU,
  0x3d23faf13ce6f4fbU, 0x3c9e808c3d5ff0e3U, 0x3905274e3d91388eU, 0x3d84d36f3d5d4442U,
  0xbb6d93ff3d7102b2U, 0xbcab8c4dbd2cd70dU, 0xbc0b970d3ccc1a90U, 0xbd9631133c8f2464U,
  0xbd79a64dbdab8eeeU, 0xbe1f6097bdceefbbU, 0xbe4459edbdf25dc0U, 0xbd805586be2f1190U,
  0xbddcf18fbd9914ecU, 0xbda2e021be04b5dcU, 0xbb840babbd42a3f8U, 0xbc8e5d14bd1b96d7U,
  0xbcfef0d93d0babc3U, 0x3bddff98bc342201U, 0xb9a418dcbc21c963U, 0x3c99d5d03d5ecfc0U,
  0x3d03638e3c91c649U, 0x3cfaf7f93d08c716U, 0x3b4d7ff93cc774c6U, 0x3d1ca9d83cbdc396U,
  0x3ce9d46d3c0cfadbU, 0xbc110c4e3c0955b8U, 0x3c29dd383d4fa5d3U, 0x3cc5ca473c9bd952U,
  0x3d95f4ea3d214345U, 0xbd102d663d55fd8fU, 0xbde3ec33bd1be41aU, 0xbc804584bd5434c5U,
  0xbdec6a3abdcb680cU, 0xbe15b93dbd91a7b7U, 0xbe15fb89bded2bc5U, 0xbcb44220bd08a87aU,
  0x3d5f2db4bd0d915fU, 0x3c52dd103d2e78efU, 0xbc84460abd78ea9cU, 0x3d14babb3d3b243cU,
  0x3c2f720abcf4628dU, 0xbc15f009bd72c89aU, 0x3cae91e93cc73502U, 0x3c800178bc9613fdU,
  0x3c71c8d33d479334U, 0xbcb62424bda2c038U, 0xbd9766abbd94b29fU, 0xbe4c48b6bdfef1cfU,
  0xbd871546bd85faeaU, 0xbe0edc4ebe39bb71U, 0xbe1e436bbe2a8e0dU, 0xbe8257d8be55067bU,
  0xbead5b36be8d4e16U, 0xbe6c8fa5be7c615fU, 0xbd897a68be01e924U, 0x3d44b49c3cad0255U,
  0xbd9660d83dc49582U, 0x3d00e206bd58b6adU, 0x3d3eaeaebc9b9db1U, 0xbdaba94cbc61d3faU,
  0xbd39a2a2bc83b895U, 0xbdb7a7d2bc34c5baU, 0xbd5f461fbc127947U, 0xbd79669e3c0c2821U,
  0x3cf092ccbd1c499eU, 0x3d52a01a3d5e9a76U, 0x3d9438d23ccced73U, 0x3cd3bb3cbb35c5a1U,
  0xbb89883aba3042f7U, 0xbd8377453b6a03b2U, 0xbcbb7393bc991c2cU, 0xbd8a0fa7bd559099U,
  0x3d22fec3bcff0efcU, 0x3c855b573d617588U, 0xbc8353e3bb437458U, 0x3d427fb63c214837U,
  0x3df9b3393ddbcbc4U, 0x3dfb08603e3307a1U, 0x3e5fbddd3e300f26U, 0x3dd1cee43dfd4701U,
  0x3d081d7b3d82556fU, 0xbce456783cf43eb4U, 0xbd4d97e9bd4c7cd8U, 0xbe91b69bbe1268a6U,
  0xbea9d56abe964e5dU, 0xbecef140bec9b60cU, 0xbe9b10f6beac4877U, 0xbea3310bbe99b716U,
  0xbef68983bee0f523U, 0xbecb18e9bec23da1U, 0xbea318bfbec57405U, 0xbe18ce69be77ea02U,
  0xbd4c5275bd8e6a67U, 0x3d255f4b3dadf4f4U, 0xbcd292fbbc9367edU, 0xbd57b5393cd31339U,
  0xbb4d8c5bbcf8ea89U, 0xbd3681653c7bbd93U, 0xbd960570bdc8a2e0U, 0xbcb15ef5bda3ea55U,
  0x3d6e4376bc80165aU, 0xbc9b7fcb3cd216c1U, 0x3d753ce43d992d5dU, 0x3d2ea46d3df7bef3U,
  0xbd56efdc3cbbde30U, 0x3d0f808bbc97a09fU, 0xbaa036213db10facU, 0xbb6fbbc03ca82aa6U,
  0x3bf8419ab936c591U, 0x3a8531e83b82e8daU, 0x3cff89f83c9cb3c1U, 0x3e01ebe03de889cdU,
  0x3db9ffcd3dcc5cddU, 0x3d7d5e7c3daa4f13U, 0x3e0dc9ee3e0152e8U, 0xbc8ba89f3b60349cU,
  0x3c85794fbd1189fbU, 0x3c51f7d93d6ac16aU, 0xbc3c188d3d3d21f7U, 0xbe119530bda065c6U,
  0xbe393af8be07a79cU, 0xbea08dedbe7457faU, 0xbe486d48be994cc9U, 0xbe60798abe73b0e9U,
  0xbe27243bbe758ae3U, 0xbdc6934fbdacbf56U, 0xbb7040ab3d331b56U, 0x3c209fb6ba2102bbU,
  0xbd2c5062bb813aebU, 0xbdc743edbd88b8f2U, 0xbdd2c6edbdcf6038U, 0xbcffc5cfbddfff2fU,
  0x3c8c5007bb724f03U, 0xbc265c873cd72e9cU, 0x3d7d70443d2ad5bbU, 0x3dd94bb93afa4663U,
  0x3cf8bbdf3d9ce162U, 0x3d89f7493d7d0ea9U, 0x3d307096bd0214efU, 0xbd05ee2fbd1c8241U,
  0x3daadb18bbbf98daU, 0x3d9e393cba9d3c43U, 0x3d899f533b8bd2f9U, 0x3c8ed78e3d668af8U,
  0x3da581ca3d78cae5U, 0xbc58c7593d641f74U, 0x3d6c16c93c0ac48bU, 0x3ca1ec423d2bc317U,
  0x3cfb2edb3cd42dd2U, 0x3d7913e53d4218a4U, 0x3c5078883d97bc3bU, 0x3d3adca73cdb6fa4U,
  0x3d02cbaabbedd310U, 0xbd8a74273c35c7c4U, 0xbdbe0697be06d671U, 0xbe3e774dbdb92149U,
  0xbe7020b2be394ec1U, 0xbe39cb0dbe3bf8deU, 0x3c2856b7be8ceac9U, 0xbc9529e9bc6477e1U,
  0xbd055195bcf82aa5U, 0xbd1ce1d8bd2824aeU, 0xb9ca47f3bcadf8ceU, 0xbb4b7fe0bc07a25dU,
  0x3c0189ffbd240037U, 0xbd36c5db3c201197U, 0xbba49568bd277e89U, 0xbc725624bd24c0d4U,
  0xbcc5fa78bd002357U, 0x3be2ba88bcdaf927U, 0xbd0bdf4a3b4ee5ddU, 0x3c433ee33d07316dU,
  0xbbd57054bd0166d8U, 0xbcd83173bbe83285U, 0xbd0e75bebd1ea989U, 0xbc7ad015bca9ae19U,
  0xbccfbab3bc80eef5U, 0xbd5a16423c685e64U, 0xbc467b10bd4dc05cU, 0x3bf930c9bd49a4c3U,
  0xbce16945bc3da2ddU, 0x3b1568963bd1a462U, 0xbb2ccd3a3c19d15cU, 0x3bfa2953bd0cddd0U,
  0xbcabb328bcd40d35U, 0xbd21504ebc48f10aU, 0x3c8d1cd1bd15df9bU, 0x3c3a37b1bcf1bc49U,
  0xbd4383ec3ba786c0U, 0xbd14c833bd176507U, 0xbd1bceffbc023afaU, 0xbd54dfa9baf78e49U,
  0xbc1c5fb6bc8b9ec4U, 0xbce2693abceef290U, 0xbc153f54bd0f24faU, 0xbd0b25afbbf9b360U,
  0xbcfccda93bf6fb3dU, 0xbcb88a8fbd298e43U, 0xbc8b349bbcf7061cU, 0xbd639e2cbc88ad8aU,
  0xbc13dc8abcfbfc8fU, 0xbca95488bd42772aU, 0x3bc228a43c3c996fU, 0x3c2a67b3bbef55aeU,
  0x3c629defbcb51d7aU, 0xbd056ad63bcc3ee2U, 0xbc935e88bd031dc0U, 0xbceaa74b3c9e2b34U,
  0xbd1c10be3bb8d4f4U, 0x3c6ea6ff3c25030cU, 0xbc4254b33990e40aU, 0x3cbc1cf3ba158fa9U,
  0xbce41ed9bb4e76f7U, 0x3bf6f581bd36410cU, 0xbc525743bd21d865U, 0xbc4a4389bd08ad1dU,
  0xbd706da3bd9d2eafU, 0xbd853e67bd54d4b3U, 0x3c01b0a7bce71e1bU, 0x3c456ba33c7113dbU,
  0xbc16129cbc48a5deU, 0x3b3fb5ebbcf85673U, 0x3c270b13bc578eceU, 0x3c6a7640bcad6e00U,
  0x3c9a126b3c1e1e62U, 0xbd057d7bbbf709eaU, 0xbd843c76bd440f54U, 0xbd959d7ebd08f148U,
  0xbcf57d55bd7c07acU, 0xbca2a549bbd5f6c9U, 0xbc05490e3bacac64U, 0xbcbede2dbca1d2ebU,
  0xbd04555cbd3ff5f4U, 0xbdb6b0d4bd8069c7U, 0xbdc13c94bd611bf7U, 0xbd6298edbdbcc2bfU,
  0xbd8e9c14bd8150efU, 0xbd438d50bd8a3ec7U, 0xbb6cd0d3bd5e0c22U, 0x3c2f69cebc98f0c4U,
  0x3ae338ee3c7c6368U, 0xbc865f2cbb988b07U, 0xbc40c5bd3c88a282U, 0x3d53e31e3c1a4452U,
  0x3d12bcea3bcad5dcU, 0xbca503fd3cc243d2U, 0x3c9d2cf7bd4786d6U, 0x3c337835bc652017U,
  0xbceae6fabd58d7daU, 0xbcd07198bd5ee536U, 0xbd429d34bd47933dU, 0x3ca43592bc8b0aebU,
  0xbd1d60b1bc898be4U, 0xbd127468bb85977cU, 0xbcebb512bd90dbd7U, 0xbc5006b7bcaaa670U,
  0x3b2a0005bcd4f936U, 0xbbec0f37bd004f90U, 0xbd048703bd1ff7ccU, 0xbd31a4993abe0017U,
  0xbd0aed853b8aba3eU, 0xbc2036a6bcaf86bfU, 0xb840630fbc9ea712U, 0x3c83408ebcddf22aU,
  0x3cb180bebc625d98U, 0xbc925e28bbba47a1U, 0xbcd3cdca3d0536a1U, 0xbb415289bcd3f534U,
  0x3c9dd3693936401aU, 0xbb37311bbbbe34e3U, 0xbc9254223aedccbbU, 0xbd75946bbcd0a227U,
  0xbd61719ebd8e0cdfU, 0xbd8ccc32bd777fc4U, 0xbd8fa66cbd990601U, 0xbd50942ebd7d7852U,
  0xbda6bc73bd15a112U, 0xbd129120bc3e8a25U, 0xbc727affbd676725U, 0xbd73b2acbd6eb866U,
  0xbd4244d4bd163384U, 0xbd9f85b3bd2a8365U, 0xbc9a7d87bcfe6fbeU, 0xbcf16b78bc28c2ccU,
  0x3bbff28dbb63a734U, 0xbc857a093cab3a37U, 0x3c9701893c330b70U, 0x3d7c89a63dacd974U,
  0x3cd7476e3dca2ca0U, 0xbdf61648bd170faeU, 0xbd95fe53bc56a9f1U, 0xbd90bdccbd9a758cU,
  0xbd433755bdcc6063U, 0xbdcc9c78bdaa150aU, 0xbc2cf442bc9d678aU, 0xbb2d93743cf9d537U,
  0x3d8b200e3d11aeedU, 0xbca2a4363d813c20U, 0xbd024b71bd6f6c92U, 0x3d09eb343cce089dU,
  0xbd801825bc0eac20U, 0xbe5d36c6bd8bbee2U, 0xbe4d1027be83bfaaU, 0xbe111f67bde88321U,
  0xbdb3ea41bd2a16dbU, 0x3d118b22bc8cf231U, 0x3ca67eb73d31bdafU, 0xbc8926babd064694U,
  0x3d4ada003ce9ac45U, 0xbbe65414bc029822U, 0xbcd0219bbc5b2dd2U, 0xbd5ca831bbbd80dfU,
  0xbd4d645a3cfc3e29U, 0xbc85818bbd5be8eaU, 0xbcb1a291bb9eb7a7U, 0xbc1515053c27b2feU,
  0xbccde7b8bcda9a75U, 0x3da5530c3c28f9b4U, 0x3d4838023d1c021cU, 0xbca58c983ce8112aU,
  0x3c900a2b3da221ecU, 0x3d936ce53d843a09U, 0x3d90fbae3d46bfbeU, 0xbd07461fbcfc4910U,
  0xbd8eefd9bdbb6310U, 0xbb1420b4bcbbe252U, 0x3b843243bceb796eU, 0xbce1a9d0bd447602U,
  0xbd9edb07bd92df37U, 0x3b61eaa5bd3fb70aU, 0xbcb51abdbc54ee9dU, 0x3d70460e3d1b7156U,
  0x3c80b9313d5ecae4U, 0x3d12333039639c0cU, 0x3c7b75213c905b74U, 0xbc998ce33c7381bcU,
  0xbba2bae93cc996d7U, 0x3ca02a0e3d02d608U, 0xbd993134bc959e2dU, 0xbe1ed395bdc85276U,
  0xbe002f09be1c455dU, 0xbbb936f3bdcc93a0U, 0x3b360c2bbc6567caU, 0xbcafab3a3b322791U,
  0x3d802d2b3d08db25U, 0x3d8091383d808d9eU, 0x3d5a33913d7f2473U, 0xbc12f2823c216f39U,
  0xbcd916693d964f48U, 0x3c1bc206bca5e532U, 0xbd7349aebb695344U, 0xbdba2189bcd42cdbU,
  0x3c1dafd9bc017a5eU, 0x3cbd49373cdf1e5dU, 0x3d9948523c9692b9U, 0x3cd659163d3fb169U,
  0x3c1694a83d7617a6U, 0x3b8b176d3bfcf583U, 0xbbb52bd53d0d49ebU, 0xbd2e37dabcec66e3U,
  0xbd4a7556bce11e20U, 0xbc223a1ebd4236aeU, 0x3c053be2bd417477U, 0xbd2a4a95bb6e2942U,
  0xbbe950e9bce1e871U, 0xbb1edc17bd97914eU, 0xb892bc50bcca84b5U, 0x3d7b2e4a3d07afe9U,
  0x3c9e87693cc0717eU, 0x3cb0794d3c4ab7c3U, 0x3b2cadf43d291de5U, 0x3c35ebf53cc2b632U,
  0x3d0af03f3d1e3d30U, 0xbd8309353ae4166aU, 0xbd9776a8bdac06dbU, 0xbcdfa60bbda71910U,
  0xbacdd5ccbdd8a206U, 0xbddbe067bdb0c89dU, 0xbd93222dbd9926aeU, 0xbcadbca3bd9c07a3U,
  0x3c0e937b3c932405U, 0xbcc5d36fbc5efc2eU, 0x3d8e66c5bce24ffdU, 0x3b71ccb13c0434d4U,
  0x3c48445e3d8886abU, 0x3c3426f63d564cf0U, 0xbcd5142a3d2e463bU, 0x3da1844c3d385a50U,
  0x3d472a8b3c9f06b7U, 0xbcaaacd13c571502U, 0xbd2a9df33ca1bcaeU, 0xbc96df30bc0b1863U,
  0xbce51902bc97e229U, 0xbddab7f2bd7565bcU, 0xbd849445bda3bb00U, 0xbd69880bbd5f44e2U,
  0xbd26cac5bd322976U, 0xbd654af93ca463b6U, 0xbd764dc6bd14906dU, 0xbb18b2903cd03be4U,
  0x3d61f8303c4f9507U, 0xbc7f56cabbb5c5a0U, 0x3d16193f3d38cc7dU, 0x3c764d4ebcdc96ffU,
  0x3ccff7ec3ca228f4U, 0x3cd37b73bc9bd39dU, 0xbd59d4303b27b4afU, 0xbcdd75fb3c833dd0U,
  0xbd50933f3c7c9787U, 0xbcc783abbd17cd37U, 0xbd834485bdaab722U, 0xbda7d3d4bd4a93fbU,
  0xbc736967bd19d290U, 0xbd9d323ebc94e6e1U, 0x3c811e043ccb5bf6U, 0x3c83ea483dc247e2U,
  0x3dce87d53cff3482U, 0x3d0b4e3b3da44bb4U, 0xbb42f9b03d04cc3fU, 0xbc9ef17b3c0edef7U,
  0xbdb5a288bd69b262U, 0xbe0d65c3be27066eU, 0xbdac92c7bd6a3283U, 0x3d87eb59bd6ba994U,
  0x3da767033d8eca32U, 0x3d4db5cf3da414efU, 0x3d29e9903cb52c6aU, 0xbe12b776be000588U,
  0xbbb2135ebe0dc7ddU, 0xbe9ac0d3be018363U, 0xbeaeb94ebecb0a6fU, 0x3db920c9bde9ce5fU,
  0x3d1d46503df5dca8U, 0x3e17a67a3e3fa89eU, 0xbc0856d23d306e39U, 0xbd78ab093cf5a0d0U,
  0xbdae22453cbb6c1bU, 0xbe3d5059bdc49f7bU, 0xbe17f487be641adbU, 0xbe01d4f3be3a6374U,
  0x3c62b01cbd3ed8c5U, 0xbd79f40e3d20ab36U, 0xbdaa6996bd24ac14U, 0xbe16ee60bd8afb0fU,
  0xbd5f9205bdaae4daU, 0xbdabe2acbd245873U, 0xbc2c34683d35ff19U, 0xbd518d543c8a815aU,
  0xbd60cf3fbac9e862U, 0xbd85a5a2bdb26f9dU, 0xbd782b50bdf902beU, 0xbd98a677bcb41284U,
  0xbdd03c38bddd4027U, 0xbe80c923bdf35cf5U, 0xbe8772f1be8743ecU, 0xbeb85df2bed61729U,
  0xbf099cc1bf02845cU, 0xbebeaac4bee950a0U, 0xbe8abcbcbe830f0eU, 0x3c91bd863bc9ee98U,
  0x3dac06d0bd4cf187U, 0x3d70fe323d33354aU, 0x3c885f8a3e32681dU, 0xbcf2b579bcc20043U,
  0xbe4ddccbbe19c0d9U, 0xbe9c2d89bebe3c86U, 0xbf026fa0bea897d9U, 0xbed235a0beff54f5U,
  0x3af349d2be9be5ffU, 0xbd91d984bd683f11U, 0xbe3ef80abe68bbcaU, 0xbe39e519bdfa7045U,
  0xbca8f44dbe39eb58U, 0xbd5aeaaebdf3fabfU, 0xbe153f2bbd9ab3f7U, 0xbe235418be314dbaU,
  0xbe4d7d97be316028U, 0xbd9ee4f8be4df542U, 0x3cfc7e833d10f66dU, 0xbd8db4943d1d0a89U,
  0xbdcff9a8bde2504eU, 0xbd933f52be3f17feU, 0xbdeca859bde04e35U, 0xbd70dffbbd6f19c1U,
  0xbd2103eabd922590U, 0xbc31b0cbbd65e0c1U, 0xbd854ba3bdb2f751U, 0xbb305986bd9729a3U,
  0xbc8c63f2bdaea74eU, 0xbd7817643d122eeeU, 0xbc0738a4bd3dc2c8U, 0x3d206130bd53a486U,
  0xbde60db8bddf5506U, 0xbd25a53cbe4e89faU, 0xbdc05957be43e9b4U, 0xbcf7263e3d8885c3U,
  0x3c86eaf6bd76ec0dU, 0xbc8df4b1bcd72855U, 0x3d82f5f0bd47666cU, 0x3d1b6a80bc42c9d6U,
  0xbe05c7f7be097cd0U, 0xbde1f9a1be2c74b3U, 0xbdf30953bd9fe0cdU, 0xbd9bf0ffbe105c87U,
  0x3dd7bb573dc20847U, 0xbe3792e9bd4aad98U, 0xbdf17f08be0dd625U, 0xbdebc79ebdaa0162U,
  0xbe1060bdbb16ce95U, 0xbe002358be51be2fU, 0xbd0e1297bd5e0618U, 0x3de26e273d95a4f7U,
  0xbe04fe06be1da8ddU, 0xbd5d5862bd943fdaU, 0xbd2a266e3a4c7784U, 0x3cf667c73e17590cU,
  0x3dee8a4e3d7b61a9U, 0xbe0a9b48bdc7f20fU, 0xbd198c99be127d31U, 0xbdeb9f40bdc1f091U,
  0xbe100da0bdb828d8U, 0xbc87dcd5be03be2cU, 0xbd819bcbbd8437b0U, 0xbd4d5f433cb49020U,
  0xbd1547fb3d0e5e6dU, 0xbca43a8a3c5ab659U, 0xbdacdf68bdda6077U, 0xbcdd5f063baebcceU,
  0x3d6af56f3dad725aU, 0xbd15df0bbbaf2b17U, 0xbd409521bd703f7eU, 0xbe2209c8bd87d324U,
  0xbd97dc2abe3dbcc9U, 0xbd927125bdbb5696U, 0xbdf9642fbd8909e1U, 0xbde67029be1df515U,
  0xbca5083bbe2cacf6U, 0xbda0d27cbdc16e6cU, 0xbb179985bcbd9b9eU, 0x3c6ce8ef3dc94e9eU,
  0x3cd4b0503d6c8b6bU, 0x3dae740e3df8fa5fU, 0xbd1787053cbe8aa0U, 0x3c8fb41ebbb1607bU,
  0x3d114dbfbb8e10a1U, 0xbd47b4e0bbd9c7aeU, 0x3d846036b9d181e2U, 0x3c9e08a13d680073U,
  0x3c5f01583d1bf392U, 0x3db6e0833d2ed64dU, 0x3d95de353cf0dc3fU, 0x3b0ca485bd1ebd6eU,
  0xbd0e59c0bd22784bU, 0xbd3608cdbd53fcc4U, 0xbd06b8ddbd1b2aebU, 0x3d3a522b3d2f93d5U,
  0xbb148f263c87ea15U, 0xba84eded3c5003bfU, 0xbca1f0eabcdaad7fU, 0x3d6db75a3d8ef95bU,
  0x3d5c0ad13d803682U, 0x3dbf289b3dd73419U, 0x3dd48fc83ded9a3fU, 0x3d90c5723da5f5afU,
  0x3be795943d239158U, 0x3d7034413d3ac0dbU, 0x3d1e3f723d61db7fU, 0x3b08f2693caaa708U,
  0xbb0042ca3c546ae1U, 0xbd330becbd775a3aU, 0x3d1cfc5fbd15d2bdU, 0x3d9390703d9adf24U,
  0x3df70ce33daff430U, 0x3cdaef8f3e060cdbU, 0xbe0b16b2bd96a653U, 0xbe41376cbe3abe29U,
  0xbe40d788be5212ebU, 0xbe2f567ebe33b580U, 0xbdea807fbe04a065U, 0xbdb41ffcbda8b435U,
  0xbc5618cbbcd99897U, 0xbda97799bda7e888U, 0xbe226fa1bdfebc60U, 0xbd581c6bbdad52f2U,
  0xbddde2fabe00450bU, 0xbd9a1ba6be252457U, 0xbdb2064fbd8f514bU, 0xbd4402803bea4b06U,
  0x3cb7ff3c3d7af9f8U, 0x3e0363003db56587U, 0x3e20e5d93e150e88U, 0x3e10db733e15defaU,
  0x3d9f75ce3e2716adU, 0x3cc292ee3d1c426aU, 0xbdc4ed29bd5f4f2fU, 0xbe00b777bdf6c71eU,
  0xbe48f388be2de9ddU, 0xbdf1cff2bdeb2575U, 0xbd86e86dbd737c7dU, 0xbe099c03bd8ae529U,
  0xbe78984cbe4895ddU, 0xbe637b7dbe5b3673U, 0xbdd46f3fbdef8362U, 0xbc9ca33bbcd8dcecU,
  0x3dc5f3923d68b883U, 0x3e0ba55a3dbcf709U, 0x3ddb8c0b3d84dd92U, 0x3d4d1ac43da5cc7eU,
  0x3d7e80dc3dd4c8abU, 0xbd102fc03c5b557fU, 0xbde17e6dbd2ff8ddU, 0xbe5f2f0ebe47988fU,
  0xbee295a9bec1bac9U, 0xbeb92e35bee11851U, 0xbeac86e8bea0c4efU, 0xbe68e69abe7a1980U,
  0xbcb67603bda7a3d1U, 0xbd7ae9e7bd2561e4U, 0xbe22166bbe0d46adU, 0xbe239257bdd7a53aU,
  0xbd8adebbbdd90946U, 0x3bacc38dbd9c70fcU, 0xbd44d0fc3ca0a86dU, 0xbc282ed03c606169U,
  0xbd41fd0d3ce55a3eU, 0xbc852f803d311117U, 0xbcef93dc3d2807b3U, 0x3c8f060539a9cb54U,
  0x3d589b9e3d5bf8afU, 0x3d42e0ed3d97a55cU, 0x3d5eb0393caea392U, 0x3d5068e63dc94308U,
  0xbd291a80bd4d7ebbU, 0xbdd367cebd8e51e8U, 0xbd4995babd6bd6f7U, 0xbd2af961bc7b95ffU,
  0x3d8d51a6bc9c714bU, 0xbdb874313cbb2d64U, 0xbcca589bbd4f7dc3U, 0xbc1a8970bd99cc4aU,
  0x3d2b77113cc32b6fU, 0xbccfb7d63d60e9c9U, 0x3d1ad2bdbd181784U, 0x3d8e3f46b9d19a5dU,
  0x3c72aad73d9810d0U, 0x3cb1225c3d307ab0U, 0x3d569655bc46e5efU, 0xbca050a5bc0bcbaaU,
  0xbbb1e664bd07e0e9U, 0xbdfc0faabe1d7f4aU, 0xbe3afd50be35bcceU, 0xbda43c24be2e93b0U,
  0xbdf477a1bdf04c2aU, 0xbd8408eebd4f8c52U, 0x3d31956dbcea177bU, 0x3d19a5e63b74d7d8U,
  0x3c79ad70bc95ae15U, 0x3cfa94df3d28b206U, 0x3d929c323b93cf52U, 0x3d6a1f4f3d8cacd0U,
  0x3cffa6863db4c2beU, 0xbc00d2f63d198edcU, 0xbcca7e98bc45a903U, 0x3a965db8bcc049f4U,
  0x3c27b060b9f787dfU, 0x3d2de119bd0b5d64U, 0x3d5b2ee73d51a48eU, 0x3c8c439c3d37fe13U,
  0xbe03ae4c3c6ccb60U, 0xbe7042abbe7b1b22U, 0xbe37e63ebe8abfabU, 0x3c84dad3bd8b9d6cU,
  0xbd1754123cd4799dU, 0xbb80f995bd3c51dcU, 0xbde6b8abbd938bddU, 0xbdd2f3d4bd6407dbU,
  0xbc745beabc0548ffU, 0xbd9e9df53c383fb4U, 0xbcfc493cbb8cd04fU, 0x3d0fe22a3c9cbf62U,
  0x3a66ae2e3bd1a4a2U, 0x3d9c6e023ca59ecdU, 0x3d806fe63cacc59fU, 0x3d6838893d0b1a0fU,
  0x3db3448a3d8cc610U, 0x3b5cae0b3c5d501bU, 0x3d142f12bcc84dbcU, 0x3ce3b6c13d12b3f3U,
  0x3bae8ceb3ccc2049U, 0xbb2f3b603ce36682U, 0xbbf7980a3d8945a4U, 0x3d1a71bebc86db5fU,
  0xbd3026353d3ca54fU, 0xbcc524ab3cea047fU, 0xbc345589bd16bc24U, 0xbd172f933d03dbbbU,
  0xbc80df843cc55339U, 0xbc1c45a2bc4a7b69U, 0x3dae185dbb1f8057U, 0xba1b64a63ccba7bfU,
  0x3d3e9b233c01ccf2U, 0x3d609cb23d1330f8U, 0x3d3a5be23d1391beU, 0x3c588e9a3b7beeaaU,
  0x393247f5bc8da96fU, 0xbd72e97abbca4c3eU, 0xbddc601dbdf7a01cU, 0xbda90c7abdf12972U,
  0xbdb3fbf4bde44061U, 0xbe0d5a73be0beac1U, 0xbc38d3cfbd6ddb6dU, 0xbd78b0d9bda01271U,
  0xbd1487dc3cb76988U, 0xbb94c4b4bda2ed42U, 0x3cb125623d36688bU, 0x3c2186393d92e648U,
  0xbc21f067bb553ff4U, 0x3c48c452bd90966fU, 0xbc1a7d70bc8460efU, 0x3c9482443d28c50cU,
  0x3da4e1ab3d2a5e66U, 0x3e082e273de52555U, 0x3e0e7d973df769b2U, 0x3e0d542e3e2f8aecU,
  0x3dc814ea3e3d09bdU, 0xbce061323d8c4dd4U, 0xba96026a3bb37128U, 0x3db6416fbc378b67U,
  0x3dcea6a53d940e3cU, 0x3dda57273dfc297eU, 0x3d0c40273dc5543bU, 0x3d841ad03e01ba6bU,
  0x3b07a6c53c38a312U, 0x3d7c75053cb3f480U, 0x3d933e473d8cb9d0U, 0x3ca754d33cf183e8U,
  0x3d133f573d8334c4U, 0x3d960ba23d03b9dfU, 0x3c003fc83da03ffaU, 0x3d93ddb63a58333aU,
  0x3cd8b4853d764e38U, 0x3c89eb6f3c91973fU, 0x3d6f320e3cc3262fU, 0x3d6ad8443d4abac5U,
  0xbca521c73c857ec9U, 0x3cb03f1c3d2d3c9cU, 0x3bc5be90bd3a0c1aU, 0xbdb08b40bd0e0ccfU,
  0xbd93c6b5bd618e2eU, 0xbdb42708bd89107cU, 0xbdb4f2cfbe465954U, 0xbd8684e1bdf2a9e0U,
  0xbdde46c8bdebb2d2U, 0xbd63edbd3be7b6faU, 0xbd4a0c20bd931612U, 0xbd60ca87bb0e3793U,
  0x3a71eb673c40122fU, 0x3d2592283ce3570aU, 0x3d40110a3bc0bbfaU, 0xbc0ea3923d64660bU,
  0x3cde4ad63d3bd9d3U, 0x3cb3a5f53d6cbbccU, 0xbc36296dbd2a0650U, 0xbd56a0073d1fe571U,
  0xbcc6e6bfbc4664bfU, 0x3cdb18553d2cb78aU, 0x3d9607013dd07fc5U, 0x3df99e633d945e29U,
  0x3bc7a0523dc7fa5eU, 0x3d17aaea3bf19ecaU, 0x3bc0ba033cea8390U, 0xbcc73f87bd273d2bU,
  0x3d1f39663d60a81bU, 0x3c46326ebcbbf04bU, 0xb82a4df63d407861U, 0x3c8964b63d85b8f7U,
  0x3c251744bcd166a2U, 0xbcd4092c3bf7464eU, 0x3cbcaab53ca42f9cU, 0x3bb90bdfbc5af88bU,
  0xbd058ee43bb609c1U, 0xbb9a4523bd1e4b44U, 0xbcbd39ccbbb689f7U, 0x3c1a84093d559da7U,
  0x3ce310353d8fae63U, 0xbcd1c8f9bcc311c6U, 0x3d0f32973c0f5bf1U, 0xbd72d3e3bc6b352eU,
  0xbd160dabbc974060U, 0xbde93c61bdb4f3e6U, 0xbc491922bd9584e9U, 0xbcfef899bd70f067U,
  0x3cbb6446bd126725U, 0x3d364eee3d272103U, 0x3ccb2a0b3dc885f7U, 0x3d2fa0f63d4e44b3U,
  0x3e26de72bf7e2e31U, 0xbf35fda73ef464cfU, 0x4031af563ffa249fU, 0xbf82fbbebf6212e1U,
  0x3da7098bbbc0197eU, 0x3d8d7465be84e891U, 0x3f1940f23e7e2829U, 0xbf0a7426bcd7ac36U,
  0xbecd23853ef9f5c1U, 0x3eab15a3bf8548d0U, 0x3cb4be8bbf4509adU, 0xbf85d779bd942bc6U,
  0xbfe67c283f2fd84bU, 0xbe363c2abf681839U, 0x4022870d3ec7fe4dU, 0x3b97563e3faae750U,
  0x3d2503003df34673U, 0x3f42045c3e9b26b2U, 0xbffd2cf9be99830cU, 0x3e982bc33dff8f13U,
  0x3ecc126b3d8a749eU, 0x3e1e32773ef3e8caU, 0xbf8cd950bea8492dU, 0x3e8f20343ed4f210U,
  0x3ef56bdabf194b14U, 0xbf220d903eaeef88U, 0xbea81f50bea6220fU, 0xbf4cc5213f2f9f19U,
  0x3e97c0c6bea92c31U, 0x3ee3348bbf3acdabU, 0x3f1a59183eaccea1U, 0xbe93099e3ef23de7U,
  0xbf4476773efa707dU, 0xbeb0a173bc94a775U, 0x3eac9ed8bf955f6aU, 0xbee6580bbeddebdcU,
  0x3ee96bd33f0115dfU, 0x3e5af466bf714737U, 0x3b50bb10bf5178d8U, 0x3f0313a7bedebd4eU,
  0xbd6bc448bd47951dU, 0xbe1d0edcbe36cdaeU, 0xbdc6e6d4be070df9U, 0x3ba0edf83e0ad458U,
  0xbcdff5aabe079bbeU, 0xbdb9e480be023234U, 0xbe34dd223d591190U, 0xbd082175be2a3d6aU,
  0xbe5059ce3c88ff8eU, 0x3da55454bce13b94U, 0xbde57758bda727d8U, 0x3d81e48d3d64c458U,
  0xbdd9c88cbcc22c41U, 0x39be484f3d4e56d6U, 0x3e263707bcaa283aU, 0x3d861e7d3e0f609fU,
  0x3df49669bdc91fceU, 0x3e1e8d083ded60e8U, 0xbce5c43a3cb88f5dU, 0x3dc0837ebe0a00f7U,
  0xbdd058b73cb00b6eU, 0x3d41f8bb3e43ec23U, 0x3c81afab3e139de9U, 0x3e23ae893c9afd41U,
  0xbd5669633deea962U, 0x3da51ab53cb308cdU, 0xbc915cc03c701e3cU, 0x3dff28713dcfc217U,
  0x3de2be3e3c8e82d2U, 0x3d51f5b93d3b6c2dU, 0x3c42a6ea3dfd85d0U, 0xbc783f4e3c3bed03U,
  0x3dee1b7abd96c383U, 0xbc62c5c2bc20c50bU, 0x3c2e553e3d473383U, 0xbc038a1e3bbd5135U,
  0xbee218133cecb90aU, 0xbdd94bdabe843ceeU, 0xbea9ef05bec43ef7U, 0x3d2f54be3dc33850U,
  0x3df8f9cfbddda208U, 0x3d7d875a3df317a2U, 0x3d6582523e8fcb31U, 0xbe44e9843e49a464U,
  0x3a9babbebcea1460U, 0xbe7623b03d062e03U, 0xbecb5b8d3dbcf3f0U, 0x3ccb4137be952d8bU,
  0xbe6c9f82be47bb8fU, 0xbe687bdcbdce233bU, 0xbe0271c9bd3b9accU, 0x3c4a9aeebdebcb78U,
  0xbe242403bc78d5b1U, 0x3d827a1dbe14308dU, 0x3dd44d053d1856baU, 0x3cc820edbd42d0a0U,
  0x3d77b9de3dcefaf1U, 0x3e2ad75f3d95bcb4U, 0xbd2637ea3c80b67dU, 0x3e31e7a53e2f856cU,
  0x3c8fccf6bdf88162U, 0xbd5eb65e3d653404U, 0xbc7428c9bbdde03aU, 0xbc4348e03d742e22U,
  0x3e20aacd3d9f6660U, 0xba2633a23c0571efU, 0x3d5a9af7bd5187dcU, 0x3e3ab7eebd39a88eU,
  0x3dd572873e4df7f3U, 0x3dbee3113e1d813eU, 0x3e2d966e3dd71804U, 0x3da4ee03bc6e3aeaU,
  0xbe202191bddf11f4U, 0xbd1ef0babddc5f5bU, 0xbd5a444fbd5df164U, 0xbe3a7e78be36de6aU,
  0xbe62588abda6b717U, 0xbe4072fdbd93e695U, 0xbd099a97bdfd4ad1U, 0xbe5a77443cec1143U,
  0x3c63e4173d89c07eU, 0xbddbe154be06806fU, 0xbdc0b86e3d9fa645U, 0xbe39db073d1a51c0U,
  0xbeee7c9ebd84e381U, 0xbb47d222bdd6452aU, 0xbdebaeb8be3f621eU, 0xbd4fb043be5f49a3U,
  0xbe1caf9f3e4240cdU, 0xbe91f368bde92ea9U, 0x3d295408be4cc541U, 0xbe86ce05be47d3acU,
  0xbded7dcfbdc622a8U, 0xbdd726a7bd235c98U, 0x3baeda473e0288a2U, 0xbd27ef00be2cfed9U,
  0xbf5fce253fb2197cU, 0x3f181c4abf4ebb78U, 0xbee2d7283a4aeb00U, 0x3fc50a023f8a3111U,
  0xbf7169e73f62d0e6U, 0x3eef103cbfe56639U, 0x3f31c1323e0106b4U, 0x3d7d681abed8273eU,
  0xbed14339bebd7422U, 0x3e515a043f2a6c64U, 0xbfadbb11bfb034caU, 0xbf642685bfd27a5eU,
  0xbe13271abf13ceebU, 0xbf83a08abf679b8eU, 0x3f65fd5b3eabacacU, 0x3d2121a2bf083c54U,
  0x3ef605383ee5ed7fU, 0x3e9a8123bea717eeU, 0x3f901c363f65461dU, 0x3f2cba31bee03eb7U,
  0x3ed2d114bf5d099bU, 0xbe84fed23ed78698U, 0xbef98b19bec899ccU, 0x3f27c5943e5993f1U,
  0xbf746bc43f5bb261U, 0xbecdb6963eb12059U, 0xbd86a8a33ea8387dU, 0xc0277e85bf3f7a6dU,
  0x3dd60cf1be086d0eU, 0x3d004ca73eee8b5dU, 0xbf0f4fb6bf179aeaU, 0x3ee7cac03eaf37c9U,
  0xbf4ce6113fa1c106U, 0xbfd434763f14b0bfU, 0xbe06c18d3ddcd4a6U, 0xbedadae63f8d082aU,
  0x3f81ba55bf022608U, 0xbfdcb29dbe7a04aeU, 0x40185fd53eccf00dU, 0x3e08fa6ebed7e237U,
  0x3ea52a503ed88e90U, 0x3eb256b03e2921baU, 0xbe3d3e89bbe2f1caU, 0xbf862e6bbf740143U,
  0x3e59ac54bea2780cU, 0x3e5163e73e65534fU, 0x3ded26e83e8c84e3U, 0xbea072efbf440a3fU,
  0xbe805656bf226a7bU, 0x3effa121bed474ddU, 0x3d5857ff3d9d8053U, 0xbe4bbd02be88a056U,
  0xbf274eb0bf093d1dU, 0x3e58e56abeb6a464U, 0x3e08b3f83eed2044U, 0x3f0abf7d3e8e8e5eU,
  0x3e0e81473d37adeeU, 0xbe830c67bd322098U, 0x3f11a8a33e97261cU, 0x3b334afe3d01a637U,
  0xbe908bc83ed90f46U, 0x3e6cd371bd6cb1daU, 0x3f486975be75d189U, 0x3f1ec5353f053bfbU,
  0x3d96fb47bd2491b4U, 0x3ebe52abbf29d665U, 0xbe1c95c53dd68b7aU, 0x3f2073eebddc9b1bU,
  0x3f00488b3f7ff01cU, 0xbeca45883eacb464U, 0xbd2239373dc2d17bU, 0x3c0ba39abf4b5752U,
  0x3b5d6008bf2a2407U, 0xbda07168bea0ff0dU, 0x3e3bad073eae68aaU, 0xbf1a6769bd453bf2U,
  0x3e2e99f13eb3f657U, 0xbf41b4a9be5a1794U, 0x3e9f597abf4f8f29U, 0x3e0213b23e8ad4acU,
  0x3ead2db4bdf63764U, 0x3ec175f7bd68a56fU, 0xbf23e8753e9352dbU, 0xbd5a8bdfbeb345ceU,
  0xbe5be518bdea24f8U, 0x3e0ce6babe709122U, 0xbed4da193e0e2249U, 0x3cdef650bd97d957U,
  0x3da40ef83ead14e5U, 0xbe84a02cbe585ad6U, 0xbe9d5595becbb5ecU, 0x3e308c323e58c047U,
  0x3e5db2903e968e13U, 0xbe362a72bcea2484U, 0xbe816a89bea15d48U, 0x3d2ec6983d498780U,
  0x3e622fe5bcabe6e3U, 0xbe34a33a3e91a6ddU, 0xbf189b78beb6368aU, 0xbe331e22beb7338bU,
  0x3da050c3bdb9cfeeU, 0x3df68f2fbe47c961U, 0xbf1a18553d470f2eU, 0x3e575b87bf04e437U,
  0x3d5a4f6d3f82122aU, 0xbec2f8593e54b06fU, 0x3e9c8f0e3eb61422U, 0x3eb95b0b3dfead57U,
  0x3f4394203ea42c2eU, 0xbca719f43e90d226U, 0x3e5a168b3e627b01U, 0xbe011699bea941bdU,
  0xbe3ba5793e83884dU, 0x3f15f6513f4fd252U, 0xbd88f1403f46d7a6U, 0x3dc8e3b23f1308f8U,
  0x3de4edba3f005594U, 0x3f19e4b53e54df2cU, 0xbf0010873f2f77a2U, 0xbf695e24bec131bdU,
  0x3ead331fbf3dd07dU, 0xbe99faa13f0ab6c0U, 0x3e88efc33ed00f85U, 0x3e378cbdbf0102e8U,
  0xbfbd2fb2bf5cdc6bU, 0xbd50192cbeaf98e6U, 0x3d5e13243f26b7b4U, 0x3e5be6313f55f7ecU,
  0xbe54ffa0bf51572cU, 0x3e97c79fbfa81a45U, 0xbf283cbd3ef43f1cU, 0xbe3b7664bf428103U,
  0x3e38ebb6bea44b0cU, 0xbf1a5e363edc9befU, 0xbf4df5d4bdd52f59U, 0xbd82f7713f0d3009U,
  0x3e8390c0bebc37c7U, 0xbee66b7abde0265cU, 0xbf853266be5b1dd4U, 0xbebb83973ddec19cU,
  0xbf6211e9be512335U, 0xbe516bf4bf2812edU, 0xbf0008ddbf04122cU, 0xbf08efd9bdf9a237U,
  0xbe55dcd1be3f1042U, 0xbd6c5a51bf896fabU, 0x3dd375973cc91c70U, 0xbf18c07dbeef59a5U,
  0xbdba567fbefe4038U, 0x3dce53493e59e81aU, 0x3dcdd06a3e86cfcfU, 0x3f0f060e3e29a465U,
  0x3e5647893f4e14beU, 0x3ea5de523f04030eU, 0xbe2327003dbc0046U, 0x3eac263cbd09c6f4U,
  0x3eb4d2fe3ecc40e6U, 0xbe7ed626bddc135fU, 0x3e83b06fbce39b0eU, 0xbf01226cbd2639ffU,
  0x3e1c3fc9be2b573dU, 0x3e9712d13f42ccfbU, 0xbea2326a3eb66935U, 0x3eaf25d53f0aadb4U,
  0xbe9a2f54bead54d3U, 0xbf4e353f3efd37e1U, 0x4006cd7abf8c3db1U, 0xbef1033b4034b5f3U,
  0xbf185ff4be92cf9cU, 0x3e07183bbe32ccf9U, 0x3f31824cbe995917U, 0x3fcabffcc023c828U,
  0x3f134acabf10380eU, 0x3ecef9863e8c1278U, 0x3f376f663ed9a213U, 0xbee3af32bf942c95U,
  0xbd03c4803f57abe5U, 0x3f1edf1fbdcb8734U, 0x3e334b26bee2d19eU, 0xbf986db83f76c502U,
  0xbf025453bf99e54eU, 0xbec0d977bf4a978fU, 0xbe8bb83fbf3a80d4U, 0x3e83364b3f3e4289U,
  0x3f3e2f603f2762c5U, 0x3dde5d183e4cd256U, 0xbe765c403d8648faU, 0xbde9578abc5940e3U,
  0x3f149e203c05f9b4U, 0x3f3023793f3b8efdU, 0xbee7d145be4f02f6U, 0xbe9be7023fca0a6cU,
  0x3f6d0f133e53642bU, 0x3f294e49bc992993U, 0xbf17256c3e0ec31dU, 0x3e9fbee2be348cacU,
  0x3fab8727bf2295a0U, 0xbf187501bebd182fU, 0xbfdbcd45bfa4d4faU, 0x3e4d1b36bc94284cU,
  0xbcbb92173edd51acU, 0x3f4dfa05beeacc1eU, 0xbeda1196bf0accb6U, 0x3f0b499bbf880bbdU,
  0x3ec3d2893ebdb815U, 0x3d7d70593c43ec45U, 0xbf9bc292be3e3a1eU, 0xbe8abeabbf270f96U,
  0xbefd438bbe6b9091U, 0xbd705c5abeb734a7U, 0x3e368cc03e73739bU, 0xbe1da8febe277800U,
  0xbf21de1ebf08578fU, 0xbed9ba0ebf02bbd4U, 0x3dfeabc4be85dabaU, 0xbda773c73ccee8fdU,
  0x3e236df5bd392ceaU, 0x3c0cf9683ed68284U, 0x3e534a1c3e4dbf2dU, 0x3e4feddd3e2bcf00U,
  0x3d8ce0cdbe072c4dU, 0xbc44655bbcab7d2cU, 0x3eb46891be76849cU, 0x3de37d963e82f79bU,
  0xbe4975093d837b37U, 0xbe80b331bea8861dU, 0x3e73f3cebede6575U, 0x3d93be983e586183U,
  0xbf0bcd2cbeb3311cU, 0xbf135873be61a319U, 0xbd552a10be0c1e81U, 0x3e94a427bedff2a4U,
  0xbd664278bdc071c5U, 0xbe572ac5bc2bfcc4U, 0x3b825470bdb7d894U, 0xbdf1bedebf0e8ffaU,
  0x3d79181cbecafbb5U, 0x3e9c89713d87bf1eU, 0x3e02962d3e2fc529U, 0xbe8a224bbe0d39f7U,
  0xbe33c83dbe7acd75U, 0x3dddf426be689274U, 0xbe4173aebe185c1dU, 0xbe66ec043db5ad70U,
  0xbeac948fbea86bcaU, 0xbe4458fbbdb3d5faU, 0xbe68f6803d9fbc9fU, 0xbe974db23d07741eU,
  0xbd8b0fc2be80dff8U, 0xbe316ae9bdd6ed53U, 0xbd7769cbbd91ddd7U, 0xbe8061763db02fc2U,
  0xbdc5b3eabed9d087U, 0x3e6cedc3be2557d2U, 0x3e86d96e3e76a317U, 0xbe056457bdbc004dU,
  0xbeb4361bbe85bb67U, 0xbe4e1d94bec07620U, 0x3e60cce0bd9016adU, 0xbd9e55383e2d5b91U,
  0xbe67cfbdbdab8127U, 0xbed72a03bec25583U, 0xbe717f30be9fd633U, 0x3e234d643ddca54bU,
  0x3d8a38773e86fc45U, 0xbec22f78be142187U, 0x3d9cce353e1d308aU, 0xbd41991b3e32cf18U,
  0xbde44ba83d2dbf2fU, 0xbc828943bd98c10eU, 0x3d9e33b33d327627U, 0x3e3f0bb13e860ec7U,
  0x3df4c35c3e1a0bd8U, 0x3da75ce2bc1ae5ecU, 0xbdc0182dbdc9502cU, 0x3e66f8febc24dfccU,
  0xbccf87773e733adbU, 0xbe1d672039d7ed8eU, 0xbdbf5b8cbd06ca22U, 0x3bfd856f3e25cda9U,
  0x3e373bec3e816aa5U, 0xbdd101c23e156703U, 0xbeb0a343be7d3d0eU, 0xbd08dab8bec4c993U,
  0xbe267eef3e9b30aeU, 0xbec12612be3b50dfU, 0xbef7d491be9bc525U, 0xbec30d2fbf813036U,
  0x3e8e943d3c750126U, 0xbe98a51bbc2eadd8U, 0xbe061aa4bec66124U, 0xbe0de481beb44164U,
  0x3e296e07bed2687cU, 0xbee1f602bc965651U, 0xbf14a16fbf4e83ebU, 0xbdb8d7c6bbe71bbcU,
  0xbe9482e73d787e58U, 0xbeb1ef52be1aaf27U, 0xbdee4923be2bb0b4U, 0xbec05bfdbe4a73dbU,
  0xbe547d85bdce2285U, 0x3e0f3ebfbe5077b1U, 0x3d0c7fb0be3941e0U, 0xbca3d006be6d54b6U,
  0xbf07c4f3bec87ad5U, 0x3c868be8beaa5215U, 0xbcaeb60cbcdc0e2cU, 0x3d45dc2dbe180f28U,
  0xbe0656a1be4ee3f5U, 0xbed67f79bf02baceU, 0xbe816516be4141d0U, 0xbdb5f6c83d49d8c4U,
  0xbef87e00bba9ba24U, 0xbe20d8dcbe88f4f3U, 0xbd87178a3e7553f6U, 0xbc84776d3e851325U,
  0xbdda783e3eb97ff2U, 0xbf0caf16bef1dc09U, 0xbcd14121be6359f4U, 0x3eb932dd3df15395U,
  0x3d55eaa33ea02d0fU, 0xbe7d85f83ec4d52fU, 0xbe166d20bf07223bU, 0x3ebb59143d338a9eU,
  0x3e60853c3e172209U, 0xbdd63f973e0396fbU, 0xbe79ff5b3c41457aU, 0xbe48af38beac91c5U,
  0xbdfe20883eb0cef6U, 0x3f50472b3f969e11U, 0xbecfd258bec69fbaU, 0xbf05fb57bf4f1814U,
  0xbe0a60ca3e14ee6bU, 0x3d93be633fb21e17U, 0x3e82111cbf1258a8U, 0xbe4701103eef8d15U,
  0x3e7e268dbf7b62f1U, 0xbb870b593f1fe912U, 0xbf81fe053e9d6389U, 0xbebf558bbed3955bU,
  0x3ee569ebbf7448f2U, 0x3faa9792bf871cf0U, 0x3dcb82793d4dff24U, 0xbf146b8ebe76bb5aU,
  0x3fbb4e9c3e3d2798U, 0xbf093819bde179c8U, 0xbf1530f4c012313dU, 0xbfdb88763e0099ddU,
  0x3ee8e72e3db2041aU, 0x3f96111bbfc96e6aU, 0xbe52a911bd3a4469U, 0xbfaea3a33f1f40e3U,
  0xbf4b6ac1bef18e15U, 0xbf14d320bef983eeU, 0xbf111b96bdf719a5U, 0xbf3e1d42bf6b386cU,
  0x3efd32eabe7a939fU, 0x3e138207be2771eaU, 0x3f3635a3bb2e0403U, 0x3e9e43e6bf43db04U,
  0xbeca48643f76b4a6U, 0xc0328ca2beed8201U, 0xbda739c0bfcc70cfU, 0x3fc3322ebe7dcd02U,
  0x3e91c6c3be0e8faaU, 0x40346e013fa6bb77U, 0x3fb2a3babf04a35dU, 0x3f8d52a0bf0fa3edU,
  0x3e48480cbeb0ab2eU, 0xbf025c613e5444c8U, 0xbea0bdbbbe14ed2bU, 0x3dfc83f63e86e441U,
  0xbf01939c3d853a63U, 0xbe651a95be2c2d86U, 0xbe9e1a80beaecc97U, 0xbe62f0eb3e64e7d5U,
  0xbd2c3be93e25962dU, 0x3c6b86cabe2f26f2U, 0xbe8d3ebb3d8848c2U, 0x3d8c0bdbbecae11aU,
  0xbc97e5f6be83fa98U, 0xbe868b45be7b95c7U, 0xbeabd7c23cab8da6U, 0x3d891f3abddba6beU,
  0x3e49ddc8bc518248U, 0x3e09217b3c9ab232U, 0x3d41e6f13c20f24aU, 0xbd53d016be288a48U,
  0x3dd4e0593ce1da7aU, 0xbc3c438c3da10104U, 0x3e0aa9753cd91e4bU, 0xbcc79f033d964577U,
  0xbd8b0e91be4516baU, 0x3e20b3c53de4ad23U, 0x3d8d023ebdb8d233U, 0x3dce2873bd189c21U,
  0xbdf62bcdbd56fc82U, 0x3dfde85fbdde7471U, 0x3cd59e7f3e4345dbU, 0xbe0c34bf3dc44c70U,
  0xbe9a64d4beb86d49U, 0xbe6b2f33befa1fd4U, 0xbd8ca58abd8f83a2U, 0xbeb125c7becdb37aU,
  0xbf30e7d6bdf9222fU, 0xbe803f73be5e0443U, 0x3dc9cf7f3c515c54U, 0xbe47f7de3ca15284U,
  0xbe8b9faa3bf62be5U, 0xbe489117be5e5445U, 0x3de1df44be2877f0U, 0x3ea35bd8bdb41e2bU,
  0x3de9b4823e80c6b8U, 0xbed19a7c3db3eba4U, 0xbf22ac19becb4c2fU, 0xbbf3247fbd5924edU,
  0x3d3cc0d9bf1534b4U, 0x3dc21b513c41d585U, 0xbc83eb0dbf1a0b1eU, 0xbefcd88bbe8ab661U,
  0xbf34ae7bbe5365bdU, 0xbf6aa339bea24073U, 0xbeba1f0fbe13fe6aU, 0xbc08d149beea8d45U,
  0xbd90a887be91e5eeU, 0x3dbebba1bdb4e8b6U, 0xbed04516bf120a2fU, 0x3d980579bdb1cb23U,
  0xbf238f523efda50bU, 0x3d83cb113ccba73aU, 0x3c084d48bb8787e2U, 0x3dc0aeb0bbf9c7b6U,
  0xbd133f853d942982U, 0x3e3cd4c93e0e90aaU, 0x3ca349b8bd23b8f4U, 0x3dc9b7c2bd53472eU,
  0xbd84c4943d519482U, 0x3e5b2fe93df66b18U, 0x3d1f52243db5e130U, 0x3e24d25b3dafebf5U,
  0x3bdb51ae3e09b3b6U, 0x3e32c5133e1a15c1U, 0x3e16c8fb3e533061U, 0xbd32c7c6bd6f7bd3U,
  0x3e3b46c4bcbe945fU, 0xbe684c273d015bbeU, 0xbec437e3bec3d025U, 0xbe69c8f1bddce9f1U,
  0x3d22b80abe4e64adU, 0xbeadbfedbd5ddc0aU, 0xbdb717e0be2252baU, 0x3e47fd21be46df6cU,
  0xbe250663be33071cU, 0xbe19968d3d52a997U, 0xbecff263bf073c95U, 0x3d0fd08bbf34f53fU,
  0xbe8992a4be5eaa16U, 0x3cc69703bf0aab0cU, 0xbf0c2ca5bf073566U, 0xbe9f36a6bf1c7745U,
  0xbf053ef4be2299b8U, 0x3d96f6c0be23fcc4U, 0x3aa033963dcdcd67U, 0xbe318026be20795bU,
  0xbdd36f50be1446cdU, 0x3e0d2623bdefa4c6U, 0xbd4f98ec3d8164e1U, 0xbdea52423bdbd3d3U,
  0x3d9283debdf2eb4fU, 0x3dbfb3523d271e30U, 0x3b85aba23c3e85d8U, 0xbdfd768d3d2c0642U,
  0x3ddb6b13be3c29f2U, 0x3e0208683c89388cU, 0x3df4e4933e2e52fdU, 0x3b08b0823c229fd7U,
  0x3be06d06bc91143eU, 0xbe8476963d9e6136U, 0x3d8e4b52bedae642U, 0xbcfd97453c893e4dU,
  0xbd7fa2f03e141112U, 0x3df805fbbdeeb525U, 0xbefaeca0be9fd5deU, 0xbce8f88b3c9a171aU,
  0x3e579bb4bd2950fbU, 0xbde3297c3d9a847bU, 0xbe9859c9be3d1511U, 0xbe9660e1bed8da0cU,
  0x3e49ff43bbf5d9eaU, 0xbd86e4f6bd313badU, 0xbd076ac73dff8607U, 0xbec47a93bedb664eU,
  0xbf250ae6400e250dU, 0x3fdb78963f6dd342U, 0x4030fbd9bf577f53U, 0x3fdeee62be3e9a81U,
  0x3c475b82be56129aU, 0xbe9846fbbd93b195U, 0xbe8ace583ea5a0c2U, 0xbf49d3a3bf133e32U,
  0x3eabc742be1bc08cU, 0xbf0aff70bd77fd59U, 0x400006f03f056223U, 0x3f83de003e95defcU,
  0xbee0fbad3eafa570U, 0xbf7cb796bf9d89f9U, 0xbf0ca56f3f8e76b3U, 0xbee60d283e56ce56U,
  0xbfb4a1fc3d56bd1eU, 0xc0092a223f6c2381U, 0x3e893ea63da8deadU, 0xbf9c12c2bee3f49eU,
  0xbf6b6173bd699f72U, 0xc02ce3d53ef2a496U, 0x3f9e3a5dbe71e898U, 0xbf826908bef6c535U,
  0xbfc76f733fd0df69U, 0xbfc5b0cbbe897d5dU, 0xbed261f43d8b6160U, 0xbf329f48bf83a00eU,
  0x3ee59bc53e88d200U, 0x3e894264bf143057U, 0xbfc425983f61df80U, 0x3dfcbca83f1fd252U,
  0x3ed16b3fbf602c66U, 0x3f8d51443f527327U, 0x3e81c0e23e81ddd9U, 0xbf26f3ea3f29cba8U,
  0xbdf1b1943eb23ec0U, 0x4023a1c43f7ec447U, 0x3fad376e3e479a80U, 0xbfb816c9bf6cf030U,
  0x3dad32693d7ebd42U, 0x3e9397aa3b7a8e87U, 0x3d7f6cec3de2119fU, 0xbdc27ee7be44c23cU,
  0x3daa5a9e3de883d1U, 0x3e0986ef3cca66a3U, 0x3dc944453db49080U, 0xbdacd5b3be460c1cU,
  0x3cbd38813dff6fc0U, 0x3e41293c3d3f1335U, 0x3e570c323d9af442U, 0xbe2e575dbdf153a7U,
  0x3e025f713dabc629U, 0x3e4ee9cb3cd6865fU, 0x3ddc6bde3d86796cU, 0xbe1a7782be128545U,
  0x3d5b73f6bd041fa9U, 0x3eb06dda3d6abcf2U, 0x3d035a653d944203U, 0xbe1de649bd5fe26eU,
  0x3d4ed0363defebb4U, 0x3eac74693d046d21U, 0x3e2529983dbfada4U, 0xbdfef634bdf7128aU,
  0x3da7279e3d277648U, 0x3e59e32cbd6c6389U, 0x3d8222163d8d34f3U, 0xbdcb2ef8be30b186U,
  0x3e0c4b1b3e193a9bU, 0x3e5d84e4bd001196U, 0x3e432d40bbbf8095U, 0xbd6e126fbdb17adbU,
  0x3db10cc73d555fedU, 0x3e80144f3cabba2eU, 0x3d4d0a2a3e22a7b3U, 0xbe3073e1be210f0cU,
  0x3cd583753eafb39dU, 0x3e92b644bead3ab6U, 0xbce661d93e4d7155U, 0x3eda9c4cbb4639fcU,
  0x3c4d678b3e069dffU, 0x3eb02632bd0392a4U, 0xbd88de0a3e15dbf4U, 0x3eacfcf8bd89d8e0U,
  0xbd1dbde53ecb560fU, 0x3e538f02bd8a73f4U, 0x3e2fcd253e33178aU, 0x3e4ddd93bdf3b560U,
  0xbd68bf993e228fbaU, 0x3f12de92be0c4e1eU, 0x3e28ac573daadcceU, 0x3eb99da5bdcede9eU,
  0xbd985d923e30bfe3U, 0x3f0704b3be800cbcU, 0x3e63bc593e918107U, 0x3dfe9310be1b76b2U,
  0xbe4f9ede3ec99ceaU, 0x3e804ebcbd8616deU, 0x3b78e1623e895289U, 0x3e3be3b0bc81c94bU,
  0x3d8b82973ed2ef7aU, 0x3e2d230cbd934e0dU, 0x3dee5eef3d93be96U, 0x3e3b65e83d251704U,
  0x3d1c2e0d3e46642aU, 0x3ea16abebc76f141U, 0x3dbf916f3e3545a4U, 0x3e7c32c4be3b75f1U,
  0x3e0fef4f3ec6b365U, 0x3eef526fbe9dc084U, 0x3e1e40473e9571c6U, 0x3e9a4527be563c9cU,
  0xbd6febbe3eb84734U, 0x3e21c2803e081125U, 0xbec4ce293d1d3565U, 0xbd31accf3e23f1c7U,
  0xbe19f0cd3e83887aU, 0xbcd4810d3dc7a3e6U, 0xbec84cd43e203e00U, 0x3dfcadbb3e957967U,
  0xbdcfabe33e88ba31U, 0x3e26cba23d00181cU, 0xbeaab2603e34b348U, 0x3dd8452a3e5c4ff8U,
  0xbdb64ab03e5e3f9eU, 0x3d3e911d3c873012U, 0xbeb0ac7a3d7eda77U, 0xba8595b03e11b42fU,
  0xbaecd4873e52a3c6U, 0x3e1679bdbca054d0U, 0xbed1b9723e5124dfU, 0x3d7fbd723e7326c2U,
  0xba26b7ba3e9b3872U, 0x3dadc8013dad9cd0U, 0xbeab8c0f3e1b9162U, 0x3ddd064d3e6b6243U,
  0xbe1d92a93eb099f5U, 0x3e21640a3ce5489bU, 0xbe8d52443e4a7c69U, 0x3e2764aa3df775e0U,
  0xbd33e9f63eb8bdbeU, 0x3e2d16333dc449dbU, 0xbea510093e39a29cU, 0x3e2c36b43e211fbdU,
  0xb8bde2483e36a018U, 0x3e5323993c6e318eU, 0xbe74939b3da2697cU, 0xbb86513e3e864181U,
  0xbe964eafbe8fc72cU, 0x3e014ead3dd74de9U, 0x3e2d6461be88c7ddU, 0xbe230330be4e7ba1U,
  0xbe92ed86be3d2dc5U, 0x3e1b046dbd0f8b0cU, 0x3e267270be5333f5U, 0xbe64c814be9e79cbU,
  0xbe989eb4be14ade0U, 0x3e0cb44c3dacc1b0U, 0x3e1e29b6be5bf357U, 0xbdb877edbe5b72c0U,
  0xbe4d9811be1f4ee9U, 0x3dcd8df13d518a83U, 0x3dd8c871be8b8ec9U, 0xbdfe0f87be8edc91U,
  0xbe458eecbe3808b5U, 0x3d305a21bd1a99e5U, 0x3dcde347be7a981cU, 0xbe457128be79e9e6U,
  0xbe44fda6bdfb8533U, 0x3e45563e3d2116ceU, 0x3d4159d7be905b80U, 0xbe45c4e1be8ef6dbU,
  0xbe2ff676be60ef18U, 0x3e11d9bc3bc339b7U, 0x3e1f1e91be708bbcU, 0xbd6b885cbe38876fU,
  0xbe927b4cbe4405e7U, 0x3e4049fe3c3da021U, 0x3d191b98be6f17c7U, 0xbc941a15be9df119U,
  0xbe75c26cbe81f96aU, 0x3e24be43bd02f5b0U, 0x3cce4748be957339U, 0xbda9c767be73e602U,
  0x3ea251a2bc7ccf9bU, 0xbde45edabdff150fU, 0xbd0c2747bcc8462cU, 0x3db621ab3dac47b9U,
  0x3e7408a4bd3764c7U, 0xbe3fea90bd8b780aU, 0xbb8d19a5bddad2d4U, 0x3d37439bbb3005fbU,
  0x3e7cf8fe3d844a7eU, 0xbe6bb76b3c4063a2U, 0xbd8daa9abd895b60U, 0x3db2ac8f3dd349e1U,
  0x3e762774bd1a79fcU, 0xbe72a76dbe032fd1U, 0xbdc00aa9bd9f6eefU, 0x3cd24e213da30674U,
  0x3e46720ebd363c85U, 0xbe5a92ccbdeba971U, 0xbde9529b3bd34f88U, 0x3e08aea43c0a7e29U,
  0x3e8a3cdb3ce05113U, 0xbe432a5bbd81b7f9U, 0xbe3619e9bdcccbf2U, 0x3d0940833c91dfa6U,
  0x3e45f8fc3da2dde4U, 0xbe62b2f6bdb63e51U, 0xbe100d08bd084db7U, 0x3d32126f3da58bbdU,
  0x3e9bd5f93d488b68U, 0xbe0f3141bcf1e5c0U, 0xbdaed6bf3b70721aU, 0x3df92dc8bc809e5cU,
  0x3e2f76d53cf86264U, 0xbe64272e3c5d890bU, 0xbe022acebd355996U, 0x3d5809fbbb769a9fU,
  0xbdc5ff7b3c7cf724U, 0x3e0542563d005b64U, 0x3e3a29b1bdb97ee1U, 0x3e890dcf3e10c2daU,
  0xbe07626abd07151eU, 0x3de4346abd582462U, 0x3e0927acbe0e479dU, 0x3e3fdf463d63d45bU,
  0xbe0af820bdb8bf8cU, 0x3dcf2fbe3d8f3d4aU, 0x3e3e376abe0603cdU, 0x3e4197203def1c93U,
  0xbe13160abcb2caf6U, 0x3e07c1233dd8d8faU, 0x3e78789bbe24784bU, 0x3e8092d83cd95468U,
  0xbdc631433d185f79U, 0x3e01b8783d4125c3U, 0x3df43e66be4e60bbU, 0x3e5b3af83de255cbU,
  0xbe04b1373d8d039aU, 0x3e824d153be1edfbU, 0x3de20cdabe766d07U, 0x3e3e1e193d47a881U,
  0xbd6333833da094e0U, 0x3e640c5e3c50248eU, 0x3dc9e8f0be2b1cfbU, 0x3e80a46d3deb38bbU,
  0xbe0269b1bb24e800U, 0x3dbef8093d90c9f5U, 0x3db3a53bbe8c2fb0U, 0x3e9689483e0399a3U,
  0xbe3365983db68cf0U, 0x3db4b10fbd58c5b4U, 0x3e3090d9be7e83c0U, 0x3d99592c3d299668U,
  0xbd0e618a3e00f11dU, 0x3daa7a803e2dbdb5U, 0xbca93d4a3e2b9feeU, 0xbd11c73a3e124891U,
  0x3c778de53e2b4bc1U, 0x3dae95b33e7d5320U, 0xbd8002e43e243ea3U, 0xbd56f3ab3de03ffbU,
  0x3d0f403e3de35552U, 0x3c3707e13e2b110aU, 0xbcab29343e204b79U, 0xbd9e7c7b3e0cc178U,
  0x3bcc79703d919305U, 0x3d4971043dd5552cU, 0xbd4518893e726bd4U, 0xbd8df39e3e053415U,
  0x3d893f373daa9cc6U, 0x3c531cab3e72c512U, 0xbd9c2c683e2690e3U, 0xbda11f723cd9bbc6U,
  0xbc4563b53d6665adU, 0x3cfc1fc83e5ddeadU, 0xbc0918503e4d48dfU, 0xbc958c933e1e708cU,
  0x3d1e8ae83dd10be6U, 0xbd0e7f283e2d4d12U, 0xbc22a3f63e525dc1U, 0xbdaef9093dce32b4U,
  0x3da922ec3df64b55U, 0x3ce8a4b53e5017c1U, 0x3d1bf7213e58c142U, 0xbda1397a3d8b2424U,
  0x3db8ff903d93a19eU, 0x3d55590c3e51982dU, 0x3d46c4f03e303f7bU, 0xbd9da7ac3d7f4e63U,
  0xbd7f81bfbd8b6482U, 0x3bee154a3dcac236U, 0x3e68aafe3d49fa86U, 0x3dab163d3daa45bbU,
  0xbd01c80ebc9883d1U, 0x3da0f8be3d2e65d8U, 0x3e36fe513e092569U, 0xbd0d4d013d80d88dU,
  0xbd29efadbd43f9d6U, 0x3e04e6d63e1e37a8U, 0x3ddc00fb3e0944f2U, 0xbc2f78e23affc494U,
  0x3c2620ffbbfc5191U, 0x3e18c5973d84ffe5U, 0x3e2f5a1d3e4b9ed6U, 0xbd5aa895bbe7529bU,
  0xbcd3a714bdab3901U, 0x3da7d6a73e245145U, 0x3e4574753dd28984U, 0x3c710a06b80c18b6U,
  0xbd19ab61bda00a04U, 0x3d896b6e3e40cdc3U, 0x3e1222c93e2986d4U, 0xbcb7506cbd6508ccU,
  0xbc04d87cbd991e58U, 0x3d5bd78a3e0c5d02U, 0x3e5e625d3de71009U, 0xbd89865b3cdfe3dfU,
  0xbd94052bbdaf2147U, 0xbcb643ea3db609b9U, 0x3e4275823dfd02fbU, 0x3d85e0d3bd7fd0e5U,
  0xbd221881bdaedd70U, 0x3d6007a73e2e2e82U, 0x3e051b7e3d65cb38U, 0x3c8c13f6bca4ba76U,
  0xbe6fe1313f873048U, 0xbf9bc64ebff498c4U, 0xbe69aab93fb11d0fU, 0xbe01399cbf4f3034U,
  0xbffa8bf7c0138001U, 0xbfc7c821bfe7856cU, 0xbf7a418abf99ed70U, 0xbef9e04ebf2f4345U,
  0x3c464d12be7038b5U, 0x3eded6813e44e02aU, 0x3f5db4ec3f2bbf06U, 0x3fb517643f9ce41cU,
  0x68a6b898b887a688U, 0x94a8a968d88b88b7U, 0x7a8579a9987998d7U, 0x78a8f97e8997a8a9U,
  0x7a8a6ba84aa5aa79U, 0x17e0797b979a6876U, 0x3dadd0123d8642d9U, 0xbe15a175bf0d666dU,
  0x3d788dd23e2faaa6U, 0xbe47387cbef98e0fU,
};


ai_handle g_frfconv_weights_table[1 + 2] = {
  AI_HANDLE_PTR(AI_MAGIC_MARKER),
  AI_HANDLE_PTR(s_frfconv_weights_array_u64),
  AI_HANDLE_PTR(AI_MAGIC_MARKER),
};

