/**
  ******************************************************************************
  * @file    frfconv_data_params.c
  * @author  AST Embedded Analytics Research Platform
  * @date    2025-10-14T15:22:11+0900
  * @brief   AI Tool Automatic Code Generator for Embedded NN computing
  ******************************************************************************
  * Copyright (c) 2025 STMicroelectronics.
  * All rights reserved.
  *
  * This software is licensed under terms that can be found in the LICENSE file
  * in the root directory of this software component.
  * If no LICENSE file comes with this software, it is provided AS-IS.
  ******************************************************************************
  */

#include "frfconv_data_params.h"


/**  Activations Section  ****************************************************/
ai_handle g_frfconv_activations_table[1 + 2] = {
  AI_HANDLE_PTR(AI_MAGIC_MARKER),
  AI_HANDLE_PTR(NULL),
  AI_HANDLE_PTR(AI_MAGIC_MARKER),
};




/**  Weights Section  ********************************************************/
AI_ALIGNED(32)
const ai_u64 s_frfconv_weights_array_u64[4416] = {
  0x4080000040800000U, 0x4040000040400000U, 0x3a00000044ffe000U, 0x3f80000000000000U,
  0x3e784bb23dee922fU, 0x3e65f47d3dd59f29U, 0x3e5735703dfce162U, 0x3ea580c1bb7048d4U,
  0x3da526bd3e83bb59U, 0x3e2aaf6a3ebf4389U, 0x3e34ea453e9cf335U, 0x3e2af2303e707f6fU,
  0x3e89ea3f3e953627U, 0x3e2c58aa3d5018d4U, 0x3e1386f03d099f1cU, 0x3ea8fd843da1f173U,
  0x3da0233fbbcb575aU, 0xbd8b1bde3de2901eU, 0xbdfe112a3db1f161U, 0xbd9bf48e3e81f86dU,
  0x3e192a973e5590bbU, 0x3e06c2ea3c60778bU, 0x3e4c53a63dc4bf32U, 0xbd1db9313d0598feU,
  0xbd5734c93ba0af33U, 0x3e05b8b33ddd0d54U, 0xbdef35483e190cadU, 0x3caa97d33da5958cU,
  0xbe1ec5fcbbc12c03U, 0xbe25cd91be4f72a1U, 0x3dd2297dbe0d7800U, 0x3c3de99fbcf43634U,
  0xbb022204bd4f069aU, 0xbe5221cb3e0a6252U, 0xbe6435ef3bc774fdU, 0xbe24019ebd64f9f0U,
  0xbd5f8499bb59d8daU, 0xbd8eb6883db46551U, 0xbe2b9395be27dfccU, 0xbd02581c3cbf50f8U,
  0xbe0c73563def13ffU, 0xbdb4a1f2be0ccc95U, 0xbd85fa08be4437d3U, 0x3d0090dfbdfd73f3U,
  0xbe0086a5be147e60U, 0xbd85d8623d84210aU, 0xbe60e26bbc52c205U, 0xbe97bf90be054d40U,
  0xbd291165be2ca647U, 0xbdd9c4debd84b305U, 0xbd885567bce5fa69U, 0xbe919b3ebeaa8f3cU,
  0xbe4bf1fbbbe3f392U, 0xbe5d86f5be310215U, 0xbd903bccbe2297dfU, 0xbe99084bbe44b404U,
  0xbe8c4e70be101b03U, 0xbe115f44be6a8d13U, 0xbe1b2ccabe3de498U, 0xbdbced433d09e368U,
  0xbe6ee75bbd382abbU, 0xbd040c7bbe308191U, 0xbdbeafb43dcb778fU, 0xbe3b67dcbda73e84U,
  0xbdaf20f8bd27772aU, 0xbd1ac959bc3fad21U, 0xbcdf4b9739b07b25U, 0xbe421970bd62d1f6U,
  0xbe2e03f93f314640U, 0xbe917fea3e3d1f96U, 0x3edc9486bf3eaaf4U, 0xbd168fd8bde2306dU,
  0xbf8ae915bf4cf51eU, 0xbec8ecb0be999b5eU, 0xbeca87f83db4f999U, 0xbf24a53ebd6b42d7U,
  0xbe466246bf196e34U, 0x3e0dcab93e165d29U, 0xbf4628a43c9b63e6U, 0xbf03e2c7beb612b9U,
  0xbee77f80be830956U, 0xbf46c7653e1c8c22U, 0xbded36fbbe1084c1U, 0xbd878a653d9e59c2U,
  0xbd90c0e73efaa670U, 0xbf5a1e83be08e894U, 0xbd904a53bd816305U, 0x3efe4572bd2a5770U,
  0xbecf4ff03dad90b5U, 0xbcad4d7cbe921933U, 0x3dd362443ed59b95U, 0xbe416067be2497e2U,
  0x3d28fdd7bec11ba7U, 0xbe1e87b63ecb3e48U, 0x3e9f2dec3e97b10aU, 0xbcba7b653d69cebfU,
  0x3eb8ed103e9e87deU, 0x3e547eb33ec166bdU, 0x3e1814b33d5bafdaU, 0x3e070aaf3d0c2f5eU,
  0x3db1a81e3cbb0f6cU, 0xbc55c1f6bdcc4c9fU, 0xbd0ad523bc0c67feU, 0x3d9e6b083d68267eU,
  0xbd9c4c58bde07e4aU, 0x3d1f37943daecbe6U, 0xbd1ec8ecbc3c9133U, 0xbda89eed3d3fc054U,
  0x3dd11f123c8b43a9U, 0x3e01f4a73d124e0cU, 0xbc24eafabd70c0d0U, 0x3e300b423d5a47ddU,
  0xbda026f33d0e17e7U, 0xbdca447fbc8722e5U, 0x3e356cf2be07fa61U, 0xbe0013e4bdb3f88dU,
  0x3c121affbe80d67bU, 0xbd2ee028bcae8573U, 0xbe7faa6dbe6bec4dU, 0x3ca63718be3c6090U,
  0xbdcf2799bd08a213U, 0xbe124060be423c65U, 0xbe53e07ebe23edcfU, 0xbea62bbcbe8b33c5U,
  0xbeb2a91dbda99d4aU, 0xbe98d647be96c474U, 0xbe8b7768be26c1f5U, 0xbe0694a8be966dd4U,
  0xbdab66c5be82198aU, 0xbe9ab808be873bc3U, 0xbe308d53bde03a26U, 0xbe810c0bbe15e604U,
  0xbf058a713e2eff81U, 0x3e882fb73dab09a9U, 0x3d92eff63e90cb11U, 0xbe52eb513e3dfed3U,
  0x3bc4260bbd409fc3U, 0xbbdf243abe904622U, 0xbefb47f2bee22f00U, 0xbf331019be80b800U,
  0xbdc17bb73a4cd289U, 0xbe00131e3e1702c0U, 0xbe73805cbf38057bU, 0xbf2ef84abe391e19U,
  0xbeec12e7be16d731U, 0xbec665fdbe58c7adU, 0xbec2ce4ebf0c0712U, 0x3e73532ebef4546fU,
  0xbdec012f3eb509fbU, 0xbe9453a0be11f6ffU, 0xbed751fabeed2ecaU, 0xbe74fd043d4dff9eU,
  0xbe09ba37be7be7f1U, 0xbe00305bbe57b2c4U, 0xbe0039dbbc0c62acU, 0xbe76a15abe790a2aU,
  0x3e5eb3d1bec9e131U, 0x3e5addbcbd90b151U, 0x3dc6a3863c7690b0U, 0x3e1a94fc3e9abfbcU,
  0x3ea4be87be287a7eU, 0x3eb8454f3f161f0bU, 0x3ef645b73eefa9deU, 0x3e6f8eb03da7abfeU,
  0xbebcdd82beb18df6U, 0x3e33ebae3e268b77U, 0xbe6189bcbe55bee6U, 0xbec1d850bef24e2dU,
  0xbe8a26d3bedeb62eU, 0xbe7c48903cc6d7aeU, 0xbee9c4bbbf153854U, 0xbe7557653c24e661U,
  0xbdf4618fbdfad3d4U, 0xbed5d2e6bf14889dU, 0xbe2fb3adbea3690bU, 0xbe8fb001be7e279bU,
  0xbedb5af9beb7e1fdU, 0xbeb70bbe3dfd5aebU, 0x3e272305be89bda8U, 0x3ea422003e1788c1U,
  0x3e1432213ed30b31U, 0x3e52fa6cbe52ff75U, 0x3e5486973eb9b693U, 0x3ed92b76bdaf7b95U,
  0xbd80e792bd32d10cU, 0x3eb2e57ebdda205eU, 0x3eacffc03ebbc885U, 0xbe0a01f53e9b9137U,
  0x3e321d51bd50e9baU, 0x3f0db8da3f23f76fU, 0x3e4ca30cbbc51a74U, 0x3d231949bda4683bU,
  0x3ebb141c3ea86989U, 0xbdaf0a4b3f1e4638U, 0x3bab6af73ef0e1edU, 0x3eec8d513ea5d39dU,
  0x3d649138be190308U, 0xbea5e5e7bed8e490U, 0xbea7569cbe3cd5a4U, 0xbe2d242ebe9a6bf1U,
  0xbda7597c3e08086eU, 0xbee98dfabe06851cU, 0xbd8204a3bf0a1936U, 0xbe4511c8bd8e927aU,
  0xbd6f9a06be9b62e8U, 0xbc1e5b0cbde268b2U, 0xbe8a5bccbe27af02U, 0xbe133c9bbeb4611cU,
  0xbde61b5bbe75aabcU, 0xbe0ef31abe43861aU, 0x3e1920cd3e6b7b12U, 0xbdfa339e3e3023a7U,
  0x3d64a15bbe1a0ec7U, 0xbe03b07ebdf0019fU, 0xbded42ecbd929331U, 0x3e9fa571be557f1bU,
  0xbc97a8973ec5b2cfU, 0xbeb24bbfbdd035e0U, 0x3e6112eabe10ac61U, 0xbcfb92503e9c46c1U,
  0x3c311f37be716094U, 0x3e9c4fb3bea8f978U, 0x3e31da45bd9b8731U, 0xbc896f57bd21cafcU,
  0x3e807bbfbdb91910U, 0x3eced5573dc956dfU, 0x3d0cfce43eed7f14U, 0x3ebc7560be1713fdU,
  0xbf04d57e3effdc67U, 0xbe36cdf83ed73489U, 0x3e653671be435b9eU, 0x3e347538be0125cfU,
  0x3f2c2718be8477ceU, 0xbee494003ee31463U, 0xbed4a503beb8f516U, 0xbf4b58e7bf02bc42U,
  0xbf7df51ebf221e77U, 0xbe1ffa08bf3c9418U, 0x3f5f77623f05297bU, 0x3f224b473f63a789U,
  0xbe3698383e60b6e8U, 0x3f7088ea3b0a3379U, 0xbea3a6cb3d37305cU, 0xbf258030bef2d99aU,
  0xbe971907be391267U, 0x3eb0074fbe5fcefcU, 0xbf372dd0bf0947d9U, 0xbd32b06bbcee09a9U,
  0x3f6647ea3f3c3961U, 0x3f5fd0fe3f44148cU, 0x3e71c9283f22fa00U, 0x3e6fe7e4bdf14d0eU,
  0x3f0971243ead9306U, 0xbef423cbbce388d7U, 0x3e757e7c3d8aa417U, 0x3f55e2cf3eb44f0cU,
  0xbea5c36c3d4e7920U, 0xbf59a436bf8a98eaU, 0xbe1a1a2a3d49c8c4U, 0xbf84be4ebe94d4edU,
  0xbe933067be170067U, 0x3e003921bf171e7dU, 0x3da83433bd82ed5eU, 0xbec4d6f0bf2e7e31U,
  0x3dd13f633cfbd101U, 0x3d914fe63c348e8aU, 0xbdb0b7553d4bf1dcU, 0x3d2f07883d5a8d0dU,
  0x3af2a2bc3cad3065U, 0xbe1b47e5bd21bd73U, 0x3d804a3abdacf024U, 0xba01e0dc3d4c558bU,
  0x3c638881bd946227U, 0x3d926bb4bd87b6d0U, 0xbd3800fbbd8fbad1U, 0xbcfac666bd99b9bfU,
  0xbd21b24e3d4dbcaeU, 0xbc1ce9f2bc7a9c9aU, 0xbdb893cc3c7bc61aU, 0x3d0be8b5bdb06a23U,
  0x3ddc0967bc930bb4U, 0xbd2942f93d157ceeU, 0xbce2dbc23cc43e82U, 0x3d9a2bd1bb5af14eU,
  0x3b7525693c657609U, 0xbe8dd3bcbe13b72fU, 0xbe7203e4be925fd1U, 0xbc5a2ab8be1bd2a1U,
  0xbd5d5721bd18ccfeU, 0xbe094aafbdbc24e7U, 0x3d5e19cdbdccf827U, 0x3cb500043dc8809bU,
  0x3da0724ebbc0be19U, 0xbb854c43bd10e036U, 0xbd0eacb63dc9d654U, 0x3e2e73f63dadf7c1U,
  0x3d9f16d43da72ac1U, 0x3d7f671d3ba30d77U, 0x3d8557213d04ad5fU, 0x3dd6da933d413350U,
  0x3bdb15f5bdc6b5f2U, 0xbdda8961bdb6a990U, 0xbdc97341bd3ab88cU, 0xbd6c7c133bbfce2bU,
  0x3b3af3eabde3ab06U, 0xbdc482a3be0a07f8U, 0xbda6afe9bd19cf24U, 0x3df3badcbd1108bcU,
  0x3e92177c3e68cc9eU, 0x3cce424a3e5d10b8U, 0x3cb80347bd611e68U, 0xbd8a7d8dbdb454dbU,
  0x3d25a04d3caf6c3bU, 0x3ee963a33e78a3bcU, 0x3ed958ea3ed1beb5U, 0x3e99b7b63ea15f3aU,
  0x3d90a07f3e8d9ca1U, 0xbd13ac893c667eeeU, 0xbe44edbdbe7ba29bU, 0xbe58183fbe913a55U,
  0x3da16555bcca3efbU, 0xbe542e91bc9caf4cU, 0xbf4728cbbf074067U, 0xbf825841bf81a1e8U,
  0xbf3a75a4bf659f47U, 0xbd887ee8be656ae5U, 0x3a5fa0aebdc4d107U, 0x3dabd1693e0788a8U,
  0x3da12cd03e0fdc34U, 0x3d410d763e59b080U, 0x3ddd9d4d3e4e99deU, 0x3e4868f73df68d59U,
  0x3e0a30ad3df7df0bU, 0x3eb992c93e65f3e8U, 0x3e8d2e463e5663fdU, 0x3e2466073d8f90feU,
  0xbb9ad5f03d6c0d21U, 0xbda4e1d3bcd5720bU, 0xbe4422f7bd3a7d5aU, 0xbda357babe1e92b8U,
  0xbde3ce4dbd66e1d6U, 0xbdec0d52be91ff1dU, 0xbdff657cbe321810U, 0x3d56fe76bdc1abffU,
  0x3e4f983c3e72bb9fU, 0x3e69408b3e1c0053U, 0x3de426a23da16018U, 0xbe281cb8be1f382aU,
  0xbe285550be795894U, 0x3d9fa6e4bd5fbd4cU, 0x3e3157e23d96ba95U, 0x3e526c563e1e4c14U,
  0x3e8a31a13e951e63U, 0x3e8f225b3e31c2a9U, 0x3d6681c03e85c437U, 0xbd43e91f3d81bfe6U,
  0xbe1d06263ca64170U, 0xbd9ec5dabd185969U, 0xbd91923cbe1e77beU, 0xbe05a7c1be12dfdeU,
  0xbec6fbefbe2925c2U, 0xbe5a9c51be71f7faU, 0xbe8356e9be523113U, 0xbd98d089be1fd33bU,
  0x3cc8eee1bd6276f9U, 0x3d558431bc7e77b8U, 0x3cbd8f94bcc631aaU, 0xbdb85d313d847504U,
  0xbb3bae77bda716c4U, 0xbcfed9fa3e294982U, 0x3dbf4a4dbd0a9341U, 0x3dc04a313dccd44aU,
  0xbdd3d5febdaf6022U, 0x3d86cca83ada8639U, 0x3da8a4963de47b16U, 0x3e196f5e3dd278aaU,
  0xbd1136fdbbb4a6b0U, 0xbe00d3093d3ee842U, 0x3c568b0fbdf67507U, 0xbc68c77ebc5e6659U,
  0xbd1ca330bd96b6c9U, 0xbe1d92423d1e1a75U, 0xbd10c374bdae6b13U, 0x3d3e2eecbe00f222U,
  0x3ccfd193bd52f2dcU, 0x3e0841443e0f0ee6U, 0x3e1c05503dadee7bU, 0xbdc0c40f3dc7748cU,
  0x3d4c2eeebde36487U, 0xbc13e5d9bb8a0489U, 0xbd971907bdb3d17dU, 0xbc2f746e3b6ae4c3U,
  0x3da0d02dbcb0f41bU, 0x3d4b43e83da44d43U, 0x3d0ae1043dbb41e4U, 0x3dfe51803dd85da9U,
  0xbd7cac453c0f8d98U, 0x3d689c8e3dc41ee2U, 0x3de46235bd3f6ffdU, 0x3db125a4bcf2fc05U,
  0xbde68c043d41d2f6U, 0xbe1228913d340e1cU, 0xbdd0fccebe0293b5U, 0x3d41675dbdff287dU,
  0xbda7820abdc4848cU, 0xbcc71ac6be51c442U, 0xbe21b7cbbdf45445U, 0x3cda72b3bd02599aU,
  0xbdd7d5853d80ff5fU, 0xbccc15dbbdb9959dU, 0xbd0214efbd07fea1U, 0xbdd48c25bc8f0483U,
  0x3d09b1e4bc262572U, 0x3daa866bbd0d0e9dU, 0x3dfcef583d659730U, 0xbb92ab08bc995b05U,
  0x3d7ba2ed3c8ed118U, 0xbd8611cb3dcb74aaU, 0xbdb9fe793d0f7f5aU, 0xbda8f8f2bc2ab096U,
  0xbe0a3f13be30c7c9U, 0x3cfa2daebe017f3cU, 0xbd1680e5be0b13a6U, 0xbd27d1283c414b99U,
  0xbe1c66963ce560cfU, 0xbe54cc1fbe250c42U, 0xbe411261be307dd4U, 0xbe007abfbded542cU,
  0x3d9b68debcf9c29eU, 0xbc9d1e863d17ee2eU, 0x3dd28ec2bd4f14ddU, 0x3e036d4b3c277e2dU,
  0x3dcb6dab3e15b95bU, 0x3de9e9953dfae07dU, 0xbce46c983d8fe511U, 0x3d3f07683e37bb21U,
  0x3e6ec7e33da4cae0U, 0x3e38d8243e77c4caU, 0xbd0e51dd3dea1211U, 0x3d0de4683c49910bU,
  0xbe89989cbe26ab8cU, 0xbed74842bec91779U, 0xbec95ec2bea760afU, 0xbece5c77bea24259U,
  0xbe8f55bbbea1bc33U, 0xbe221aeabe8a1c2fU, 0x3d69276ebda8298fU, 0x3cdac2ee3de533bcU,
  0x3dfcedddbc745305U, 0x3dda17cb3dee55e5U, 0x3e2156483dee53e8U, 0x3e4dd3953e60a46bU,
  0x3e11d0d33e02b10eU, 0x3e20a1793e25a254U, 0x3e8b8b513e9d3d55U, 0x3e56a9073ea2ad68U,
  0x3e568a6e3e6a297fU, 0x3d6dfddabb8864bdU, 0xbe004a81bc96f4d4U, 0xbc282b0abe32a6d4U,
  0xbca8f9eb3c0e1641U, 0xbdeab4303d0b4fbbU, 0xbd9f4e3cbdc45846U, 0xbe3b0926be255ee1U,
  0xbddf3ac5be828c52U, 0xbd162697be1f46b9U, 0xbd0a7d243deac032U, 0xbd11af12bd9e965bU,
  0xbe61b453be3a810dU, 0xbea29d66be0b1d5dU, 0xbef3d382bed8ba4dU, 0xbeb85dcebecd6323U,
  0xbe226c1fbea366ecU, 0xbe17b31bbe2168dcU, 0xbe270585be375cd2U, 0xbe883cacbe400bfeU,
  0xbea46addbee45957U, 0xbeab2e81bed1288dU, 0xbdb49d0fbe7c5fa8U, 0xbe35aed0be4c5ef6U,
  0xbdf7e8f6bd80a3dfU, 0xbe9a1b9cbe077202U, 0xbe5cecebbe842ba1U, 0xbdcad85bbd668be0U,
  0xbc737719be091df6U, 0x3d22ab7ebd64d28fU, 0x3e5884df3d870d32U, 0x3dc23c7a3e17a3dbU,
  0x3da0f14a3e0f6ab4U, 0x3e04656a3e171378U, 0x3d79f6eb3df81454U, 0x3d569bd13e37a139U,
  0x3dc015563becea09U, 0x3ddb8ec33de19cdeU, 0xbd3d14af3c80ed42U, 0x3d97ab5f3d0aadd5U,
  0xbd3b620fbe0ecba5U, 0xb8c15782be00658fU, 0x3ab30b843d23d207U, 0x3d8d81f83c6efba7U,
  0xbdbe4ee7bc4b0021U, 0xbd99731f3daae067U, 0xbd825aa7bd89f89fU, 0xbe2ddf6dbd93bb35U,
  0xbd28fd793c41e062U, 0x3dd381503bbc3f69U, 0xbd7301fabb8ed268U, 0xbe834d0bbe1cb1a6U,
  0xbecce76dbec58b56U, 0xbe919979bea4a4d9U, 0xbbc6ca1bbe15839cU, 0xbdc56e42bd851407U,
  0xbe895c58be9ca149U, 0xbe63947fbe908a9eU, 0xbe3c82cebe908a25U, 0xbe210e37be537ac9U,
  0xbda3e527bd0d0da2U, 0xbce84f693d4661eeU, 0x3a237c7a3db657a2U, 0xbd3a7f2b3c489db9U,
  0xbec68f9dbe155630U, 0x3ce50e08be91aabcU, 0xbc076bf03da4d9c2U, 0x3db839873e077662U,
  0xbe1b6cdcbe4d5410U, 0xbe53dc63be4823f5U, 0xbddd30f0be9458b9U, 0xbdd3a4333d9a5f0eU,
  0xbf1b8e07be4eaad8U, 0xbdf44d75be8e3fc9U, 0x3e121b763dc04bfbU, 0x3e2985b03e8c7ab3U,
  0x3d98c3473e096089U, 0x3e231ec1bc2ea259U, 0xbd5fda2abd98622aU, 0x3e18d1143b6a2957U,
  0x3da56d953d0213efU, 0xbe34bc91be10bbd7U, 0x3d23292ebe020c67U, 0xbdcc4ac73d2df993U,
  0xbd97c19fbe41ea80U, 0x3caee275be4973f7U, 0x3e6568153c5d71daU, 0x3d45defd3d363467U,
  0xbc886ce83cce1210U, 0xbf09bc28be9517ffU, 0xbd2decedbeb0f51cU, 0x3d858b873d825d5bU,
  0xbda3565cbe268c17U, 0x3e7081423e6ba83fU, 0x3d519b5cbdbbf676U, 0xbbb90d423daf6b57U,
  0x3d510047bdec51e9U, 0xbd05ed10bd2ce030U, 0x3e4a85f0bdc3deadU, 0x3e127beebd9ee798U,
  0x3e6ebeaebe0105aaU, 0x3e2b94a53de9af9dU, 0x3dfaa88f3d132fc8U, 0xbe8b2812bdc3d255U,
  0xbbb829e8be60be15U, 0xbc068bfbbdb880bfU, 0x3d9a534ebe295a59U, 0xbef203b23bbd8251U,
  0xbf1ba162befe0ea4U, 0xbf8bc880bf830a02U, 0xbfe42fffbf95905eU, 0xbf2426fcbf6ad1b1U,
  0xbf1de5b3bf653ca0U, 0x3e858c1dbe885d62U, 0xbefc7bdb3df7966bU, 0xbec647a4be50c0e1U,
  0x3d9bb39abea3e844U, 0xbdcc1a61bdb1574aU, 0xbf06ef6cbd9324bbU, 0xbf74e086bf4f73a7U,
  0xbf137bd4bee4a5d9U, 0xbe9fbc8fbe996842U, 0xbee7d5a2be3614acU, 0xbf31114bbf3ca472U,
  0xbe97c83cbf088dc5U, 0x3e2d2ef7be59fc4fU, 0x3f3621ac3f20fcdcU, 0x3f3b94513f039276U,
  0x3f2feecb3f115c6fU, 0x3f03ec6d3f2b3759U, 0xbe354823be03f94aU, 0xbe010b15beb4df82U,
  0x3ddf2091bd7533bfU, 0x3e45ff013e507ab2U, 0xbdf9b6303d9a43a8U, 0xbe932346be46c650U,
  0xbe288cddbe101cbfU, 0x3c618076bcfd4817U, 0xbddea836bbc59d43U, 0xbdc643abbe72aa0bU,
  0xbe61c7bcbd60df1dU, 0xbea60c23be5a98e7U, 0xbe1caae4be85a8aeU, 0xbeec7f9bbf1b01a8U,
  0xbf051e12bea44b2bU, 0xbf720e69bf572115U, 0xbfb86670bf9a3c2eU, 0xbfe9320ebfb5814fU,
  0xbfcfbeeebfde5888U, 0xbf8a1fe2bfd658c6U, 0xbf66d591bf85f103U, 0xbe62d918be76f39eU,
  0xbe8e2c5ebec1d8c5U, 0xbbca30db3b6f0b2cU, 0x3ea5800d3e290d38U, 0x3f032a483ebb7954U,
  0xbecd036abead93b6U, 0xbf0eceb2beb08da1U, 0xbeb9a542bed7ab9cU, 0xbee931b1bea7e0d1U,
  0xbea0daddbe30ce27U, 0x3e198b373d0aff95U, 0xbe9129b83c7597a2U, 0xbd494e6fbd895e5fU,
  0x3df8a7c43e0d19dcU, 0x3baffcdd3e489f5cU, 0x3e0357d13d719ee7U, 0x3e49b7e63e312191U,
  0x3dc34839bbbd7d51U, 0xbcd2f0513e1fa8c4U, 0xbd32e2ad3d617cc4U, 0xbbeb20eabe27b13eU,
  0x3d984fa3bde54512U, 0x3daf34053dfe0867U, 0xbda05c4b3da09308U, 0x3bd08da7be2d7371U,
  0xbdd84688be930beeU, 0xbdbd8c2fbd20e5f7U, 0x3b9986cfbd65b830U, 0xbec4bafdbe92932bU,
  0x3d5fcb44bc880dabU, 0x3e1c0de9be409b32U, 0xbd49807abbba0269U, 0xbe3c93bcbddc327fU,
  0xbf192798bf1f29e0U, 0xbf0df3debf4da3a0U, 0xbf749096bf270af9U, 0x3e6a6008be8c764eU,
  0x3e951eca3da3c1fcU, 0xbc944af43d4c2495U, 0x3de56e01be85d119U, 0xbdfec9fc3db496f1U,
  0xbcafedf93ad54a35U, 0xbc87534f3d2d7745U, 0xbdf970753cd8a933U, 0x3d091db53cbcd07bU,
  0xbe3f07e9be4e30ccU, 0xbcd3dbe1bdb16298U, 0xbdafc0d2be29b7abU, 0xbcd09ec1bd96d504U,
  0x3d9f6ae1bdc281d4U, 0xbd3cb9d93dcca74cU, 0x3d38a7383d8035acU, 0x3db1f35f3da42a36U,
  0xbd9380cfbc80e4c4U, 0xbafdfbce3dcbcbc3U, 0x3b5bd9123d4295b1U, 0xbe2f7e84be6b08b0U,
  0xbe19d7b9be89b773U, 0x3c405a90bdaefd9eU, 0xbd840497bd9d4d57U, 0x3e35cb7b3db3b78eU,
  0x3d0ebe2fbdbd78b6U, 0xbdfd298ebe1fb055U, 0xbd908880bd2d612aU, 0xbd429bb0be883845U,
  0x3ca23e7b3c887ee2U, 0x3d3f59183e3f2817U, 0x3969a29b3d2573f4U, 0x3d9c25e83d90c405U,
  0xbd47ecf83d0fa00eU, 0x3d065a23bd8231d9U, 0xb9a90d39bde6e600U, 0xbd8972bcbc2dd20eU,
  0xbd4ae2fa3c4f652dU, 0xbd20876d3cb07df6U, 0x3da4b721bdc15fa9U, 0xbd8d7e4abc08c97fU,
  0xbd0b29b0be0b7399U, 0xbd0f0875be4146e7U, 0xbdf1eef63cf22846U, 0xbd1c9bf9bd82c881U,
  0x3e352d0a3e293c0cU, 0x3e5dbe6c3dcca20cU, 0xbd124c3d3d592851U, 0x3dccfbcd3de71bd7U,
  0x3d9136fb3e375410U, 0x3e11735b3e36b1aaU, 0xbe2c50be3dea3134U, 0xbee334d8bd6095b4U,
  0xbf84c4ccbf06fb3cU, 0xbfd80508bfca3531U, 0xbfd6ed98bfdd4d7eU, 0xbf877fd6bfade87aU,
  0xbf1a7d14bf342f0aU, 0xbd2c3f1dbe3fab2bU, 0x3b3d00033d382688U, 0xbe9585eebe21f490U,
  0xbeacfa35be842953U, 0xbe029d91be94a0cfU, 0x3dc1623dbd9aabc7U, 0x3eb393023e848ff8U,
  0x3eda4c113ebb6deaU, 0x3ea2585e3eb399f8U, 0x3d1d40c53e4c5b96U, 0x3d3cf5e53cf0a78fU,
  0x3e04ec933cc40079U, 0x3e22a4de3df45d94U, 0x3ded88d53d9256c3U, 0xbe3f9b0cbd18fd88U,
  0xbe811774bdbf43ecU, 0xbe63b248be683dfeU, 0xbe3a0c27be4b939fU, 0x3d55f1b83c7a050eU,
  0x3de34ab83cace919U, 0x3c94de80bdbd8b3dU, 0x3d9032c23da1d322U, 0xbb5bb9e7bdf8ade4U,
  0x3aca3fc0bdbaa930U, 0xbc8b9e5c3d10d3eeU, 0x3d6b0dadbb9c343eU, 0x3e32e9703e497c79U,
  0x3d79de663cb21fd0U, 0xbd4e6fa93dcc33d1U, 0x3e14e1693e04073aU, 0xbd0ce8193d8e28a7U,
  0x3dd820913da56e29U, 0x3ae871f13e246962U, 0xbc628735bdb85f79U, 0xbebd3bfbbe2eb97cU,
  0xbf20eebebf0468f9U, 0xbf3c3511bf092b91U, 0xbf0c63e2bf2289f6U, 0xbe2803cfbecfb470U,
  0x3d8f7350bdc4f263U, 0x3d302e03bde534b4U, 0xbc9531a0bd1fc3c3U, 0xbe2c4480bdca0aa2U,
  0xbd1f0ae7be0dab21U, 0xbdea1c94be32b127U, 0x3ca3ca15bb8e4569U, 0x3e4496303e2b8f31U,
  0x3e476ae83db9489eU, 0x3d2cda063d636ea9U, 0xbcc594963ccb2c3fU, 0xbdee509cbd674e9bU,
  0xbcffe3f2be29880dU, 0x3d8e21193c72cb79U, 0xbcd6cff23d80bd85U, 0xbde6eac8bbeb19c4U,
  0xbe473ad8bcfd63f5U, 0xbda89882bd159617U, 0xbd91e82bbdb9412cU, 0xbd1416eabe32eed9U,
  0xbd26141bbd83991bU, 0xbd70a385bdcc0791U, 0xbd9e91dabd2a244aU, 0xbe1c7fadbd397460U,
  0xbdda40eebd9864d5U, 0xbca1d123bd989599U, 0xbe36f8c1bde61809U, 0xbdcfa2d5be0ca602U,
  0xbe18d070bdc01267U, 0x3be1a8713bbeaf47U, 0xbc047646bddd525dU, 0xbdb43f253c3e231fU,
  0xbda69412bb1fd240U, 0xbe1e5b9dbe051d45U, 0x3e7dbde5be016c72U, 0x3ec4b99e3e8b7d57U,
  0xbca3e49e3e2429bdU, 0xbec0370fbe6ee6c4U, 0x3e12abbfbeaf2885U, 0x3f1585663f07e2caU,
  0x3ec77f443f00efc1U, 0xbc4014953e99d466U, 0xbeeb9dddbe83cdacU, 0xbf5c294bbf0a644dU,
  0xbf713485bf82a584U, 0xbf0c8e79bf1e5514U, 0xbf0bc791beda83fdU, 0xbf634239bf33d86aU,
  0xbf0f6ab2bf618600U, 0x3e099a4cbe4dfb7bU, 0x3e01e20e3debec0fU, 0x3c7eaa523e194bc9U,
  0xbe218988be4a6be6U, 0xbeb8e7cdbe93a048U, 0xbe5d5c4ebeb3bcf8U, 0xbe436ba6bea84effU,
  0xbdd5efccbe43d02bU, 0xbe9d0707be4858afU, 0xbe5fe22bbe994146U, 0xbe3a8f3abeb45a09U,
  0xbe83eb3cbe43d2e0U, 0xbdc30e88bd748e03U, 0x3cadd02d3cb91bfdU, 0x3e60ce533cee8d6bU,
  0x3e531f0bbb66f1c6U, 0x3e01b29bbb2a3a4bU, 0x3de9c60e3dcf3379U, 0xbc812f08bd67693fU,
  0x3d51e2d8bd695686U, 0x3cf7dff7bd414c9fU, 0xbe7f896dbdef2195U, 0xbeefcc7fbe14fd80U,
  0xbe3e5da4bea414d8U, 0xbe1342123c057c0cU, 0xbeb88179beb0844fU, 0xbe8b6f6abec6c0afU,
  0xbf03320fbe5d9620U, 0xbf07dad9bea5de64U, 0xbbff5708be7ab4aaU, 0xbe8c3437bd44cefdU,
  0x3df9d185be1a745dU, 0xbda73f75bc605ebbU, 0xbcbe85a8bdf2a0fdU, 0xbe26a1edbd5a77e4U,
  0xbe508aebbe99309aU, 0x3e035cb4be41278bU, 0x3e5ab9233e68e0b6U, 0x3c6ea44a3eace742U,
  0xbe5b9720bc1f36f7U, 0xbe30c6e9bdfe4188U, 0xbe17b1d9bd2f9820U, 0xbe252c763cddfca5U,
  0xbd87c07c3d203583U, 0x3cf4983f3e330ebcU, 0x3e25fc9e3e021918U, 0x3ea8a4cb3ea4bd16U,
  0x3e9d70f33e212351U, 0x3ea87ae13e287fedU, 0x3e617cbd3e93e906U, 0x3e65f00c3e045a54U,
  0x3df530283cf3c8a5U, 0x3d537c4a3dbf8b86U, 0xbe64e62bbd5dbfe7U, 0xbe23b3383c26b4fdU,
  0xbe11f50ebe47e69fU, 0xbe084b7ebda8bb0dU, 0xbe95c3eabea2ff3aU, 0xbe8cb8dcbefc930dU,
  0xbe2c25dbbeb1e3d7U, 0xbe8adf6dbea2c044U, 0xbe4f9798be17fc2cU, 0xbf172ecabefc0a5bU,
  0xbf01e285bf275d6aU, 0xbf4648c2bf46ca5eU, 0xbf9ec8d9bf9ca055U, 0xbfdfbef9bfa3f3d4U,
  0xbfbfa34cbfd13c72U, 0xbf3c30bdbf86368cU, 0xbd9efd1ebed8ac1eU, 0x3e08eb21bc92ac16U,
  0x3e1ae64d3d7ed888U, 0xbe2b85be3dfdbed4U, 0xbea0a050be4b5226U, 0xbe8bdb20be0539b4U,
  0xbd311cc1bdecc2fbU, 0xbd8cdf03bdc694f5U, 0x3d94344fbd833b28U, 0xbe6b529e3b706a86U,
  0xbeafc53cbe1c9251U, 0xbe71bb95bed80e3eU, 0xbe6f31febe65eb23U, 0xbd19c03fbddb94a9U,
  0xbd5da9663c915027U, 0x3dc8503dbd50d67bU, 0x3df4a4673d79b595U, 0x3e4cb73d3d4171b8U,
  0x3e40ba4a3e5f5868U, 0x3e683cdc3e0104f6U, 0x3d70d8a53d9050c9U, 0x3e1f86683e22c8f2U,
  0x3dd8731abd559d0cU, 0xbddf29723c453063U, 0xbe3aa6893cc3fa0fU, 0x3d80d725bd1e88ccU,
  0xbd5a7b41bde5a13aU, 0xbe183405bdf5bb50U, 0xbea4632fbeb782a8U, 0xbdd92fe0be51dfddU,
  0xbdecfb65bde71908U, 0xbead8361be5fbfb0U, 0xbc0a1370be90043fU, 0x39e229933e266ecaU,
  0xbec2b625bcee08e2U, 0xbf4c7cc7bf08f69fU, 0xbed8e83bbf05a914U, 0xbed355cfbeab0dbcU,
  0xbee55397bf034d61U, 0xbd7339bfbe6b452bU, 0x3e33e747bd5cf843U, 0x3e44fa0a3ec5f001U,
  0x3e86fc743dfbf517U, 0xbdf7f85c3d7f9cf5U, 0xbdf717ffbdcb5754U, 0xbdae4f513d6a4507U,
  0xbe01a7a8bdbb8ae2U, 0xbd9a92973d28290aU, 0xbd91f617bd5f3179U, 0xbd3b29bbbdd00991U,
  0xbdce9ca43cb79e09U, 0xbddb3bffbcbdc68fU, 0x3db30b37bd828e45U, 0x3e0307363a8bb469U,
  0x3d21e7603d40337dU, 0x3e4346053d685bf6U, 0x3cebbbb3bda3fc29U, 0x3c29c48cbb954470U,
  0xbd7752b33d05672bU, 0xbde60a463ce29499U, 0x3dea1408bc9e0424U, 0x3d8de1503db170c1U,
  0xbc80df2c3d4db1a8U, 0xbdbaafb83d2ec94aU, 0xbdf24710be182761U, 0xbea8284dbde897efU,
  0xbe5d5c8fbeaa50b8U, 0xbd983136be086f60U, 0x3e3766d5bd400168U, 0xbe02427e3db63b13U,
  0xbf28e7e9be8dbb2eU, 0xbf532d03bf2c93e7U, 0xbf137fe0bf3757f0U, 0xbf09e1efbf1f3627U,
  0xbec33cd5bf0b0b3fU, 0x3de79f94be2d12ebU, 0xbd8d02273da612d7U, 0x3d5bc5c83be9f394U,
  0xbd05047cbe4d63b4U, 0xbca45ff0bda25c3aU, 0x3e40ec053e1ca1a0U, 0x3ddf829d3e13f409U,
  0xbddfbcfa3c1c61a7U, 0xbe38eb2abe9932bcU, 0xbe2412fcbe92c369U, 0xbe3fce5fbe353542U,
  0xbdc2c712be4dee03U, 0x3ddc83123dd9d9a2U, 0x3d543f713e05e9f8U, 0x3d82d94e3d86bef7U,
  0x3cf63d8f3e24e01eU, 0x3e38f78a3e2ead6bU, 0x3de920a13c144c00U, 0x3d2ceaf03db9f6ecU,
  0xbcfc3a2d3dbb6701U, 0xbe57a76e3d0057ebU, 0xbeb5567fbe065573U, 0xbe6061b8be9e5895U,
  0xbe0e82f7be141638U, 0xbdb8b000be6a764aU, 0xbd6b9c85be10df22U, 0xbda25549be100bf5U,
  0xbe80d97fbcd7aeabU, 0xbe481dbebe946bd9U, 0xbdd0d512bdee4553U, 0xbe89d46b3d58a3bbU,
  0xbecadb4bbed22f9dU, 0xbf0185e0bee828f8U, 0xbf1c80aabefdf4aeU, 0xbead2013bedc8d84U,
  0xbdba3652bd836811U, 0xbed47fbcbed71017U, 0xbeca5d61bf0e297aU, 0xbe9a6fbebeecafddU,
  0xbe39e578bd17cb99U, 0x3d8171d73d95547dU, 0x3da6cc153e4ee057U, 0x3dfe0f1e3e6021b1U,
  0x3e0d89dc3dc6935fU, 0xbdc5de28bdadf0b2U, 0xbdb8995c3d691d8eU, 0xbdf8351dbdca9734U,
  0xbe8f4948be6db766U, 0xbe4cf3fabeba90cbU, 0xbd8e5bb9be80c09cU, 0x3acb3be53bb3a648U,
  0xbc87eb2139ae5802U, 0xbd508114bd818b7cU, 0xbd9de3ecbd4be691U, 0x3d0e2c9dbdc9a94aU,
  0xbd0429d7bdb80d00U, 0xbd8aee803ced75d4U, 0xbd9b945abdbd770aU, 0x3db2e427bceac105U,
  0x3c316151bcb596c0U, 0x3ba232c73c1a7ccfU, 0xbdb07c5ebd8a1072U, 0xbda2327cbd37d3f2U,
  0xbe45f912be0eac01U, 0xbe32d541be7eee39U, 0xbc091ec6bdeafa93U, 0x3c8a4313bca1b1a5U,
  0x3d9c5f8c3db079f8U, 0x3d620be53d13427bU, 0xbe4c6251be02de9fU, 0xbeb619b3becb4b9bU,
  0xbea7ae24be8c38ceU, 0xbe46d658be18660dU, 0xbe0ebde1bdb3888aU, 0xbba31a12bc9ee517U,
  0xbd0edde43c72b4c8U, 0xbe028052bbb100bbU, 0xbe1479e5be185d95U, 0xbe2e0f9ebd8f04b2U,
  0xbd34f96a3d941eeeU, 0xbdabefadbd6f3698U, 0xbcdfacbbbd8f0d4aU, 0xbdf1d8e43d1f328fU,
  0xbc5248703ca91b00U, 0xbd17466cbdc7bcb1U, 0x3bee2c93bbf4ad24U, 0x3df3b85b3dabb481U,
  0xbcf9ed77bcda57d3U, 0xbd60898eb997ee50U, 0xbdaee4b7bc1d1b23U, 0xbc40d6bebc95b15dU,
  0xbe66bdc2be136df9U, 0xbdf04532be44b190U, 0xbd6596c9bd41873dU, 0xbcca757fbd8640b7U,
  0xbdfe24afbdac967fU, 0x3e6e6bcc3ea77cd7U, 0x3d9e45713dfa2f83U, 0x3e7ad3733e36af8cU,
  0x3eab7fbc3e715e05U, 0x3dd86ac43e3c0912U, 0x3be15c343dd4d7c7U, 0xbe870c0bbd335fd9U,
  0xbf1fcc85beaef608U, 0xbf50ab70bf4932ceU, 0xbee42706bf19e482U, 0xbe027ac8bed69137U,
  0xbe5f5e0cbec5080bU, 0xbf01dc2cbeffd510U, 0xbe99f6c6beda6adbU, 0xbda88e7dbdf33b97U,
  0x3d43f5debdecb689U, 0x3d66e4af3d5061b5U, 0x3e9fa7fa3dd35dd7U, 0x3cc12c493e4561baU,
  0xbe855f6abd03c433U, 0xbec84dd9be5df90eU, 0xbcfd7586be8fe054U, 0x3e59f9e13d3c67efU,
  0x3d422dad3e688713U, 0xbe8261c2be013441U, 0xbdfd4f4dbdb56f74U, 0xbc914ff7bd30a1d6U,
  0x3d6e50203e06cc9fU, 0xbe201fd5bddfe72cU, 0xbdb9dee7be1bfc32U, 0xbbf9017abd2cecfbU,
  0x3dba10693c251f3dU, 0x3de283623df69c53U, 0x3e9b6fcb3e9d761dU, 0x3e8198fa3e4ebf78U,
  0xbde59e9c3dd63ab2U, 0xbebd7171be4734aeU, 0xbee0d4cfbf0de687U, 0xbf0a4fefbeb85024U,
  0xbe91c8efbe90f5faU, 0xbf056a3fbec8cfabU, 0xbe9eedf3bed561dfU, 0x3e1aca3abe350b9aU,
  0x3e1aaa583e9b4fb5U, 0xbe819d88bde3b3c1U, 0xbe9e1f0dbda2c01dU, 0xbe553b97be710087U,
  0xbb8d96cebe13d907U, 0xbe0b42ddbd07315aU, 0xbcee396c3dc2c3c1U, 0xbe97e2c5bdb76d6eU,
  0xbe98abe3be42771bU, 0xbe5357eebdf0566bU, 0x3d942185bd47ca25U, 0xbcad9e00bc85a33aU,
  0x3d584fbd3cab4cd5U, 0x3e17af2c3e38b3b3U, 0x3dc9c6763e6854e5U, 0x3e04c7493d20361bU,
  0xbb6c531d3d9be750U, 0xbe0a8657bd448e21U, 0xbdc0d51fbe30afa0U, 0xbe0e94e4bceaededU,
  0xbd054f68be0855baU, 0x3dcd1166bd2c1082U, 0x3e2ce4f73e08423fU, 0x3ddd3f0e3de99505U,
  0x3e3d79683e1c5201U, 0x39a2fb9a3cbb93c6U, 0xbe092df7be35c9f8U, 0xbe92b76ebde3e6dcU,
  0xbf677396bf13fbe0U, 0xbf40effabf41ff7cU, 0xbef47852bf0e3d68U, 0xbcae11cfbe5fddc6U,
  0xbe850d78bdc3725dU, 0xbd89135ebe9e340eU, 0x3e61d1123d10ee6eU, 0x3e8a65173e302930U,
  0x3e0cefc23e8c512eU, 0x3e0aa9513d47f496U, 0x3e062a563e144476U, 0xbe171f7fbe2f4bc6U,
  0xbe213eb1be74b3b9U, 0xbdc061a0bd80c4efU, 0xbe51d831be4a7a1eU, 0x3ddc84053d579e5cU,
  0xbe2c7a243dd292ddU, 0xbe5e08ccbe0eab8dU, 0xbe97e9b8bdfaf5e5U, 0xbe1dc770be057b0eU,
  0xbe5fa3c53c959716U, 0xbe668a85be2fb38aU, 0xbda142393cf27c16U, 0xbe0c78c9be739373U,
  0x3e4fc9563e280209U, 0xbd724c253e4cde11U, 0xbe219c723da09178U, 0xbe343bc7be0726dcU,
  0xbe2fb3eebdc8e528U, 0xbd62c148be364e47U, 0xbe3365c4bd9cb26dU, 0xbcf4d853bbcfd77dU,
  0xbab03922be13ea75U, 0x3e6418cf3e4e4244U, 0x3e7bfde03e5e3a33U, 0x3d04a5fa3e3f0bb6U,
  0x3c4966113deff0deU, 0xbdfe144abdb38da8U, 0x3cf8a4d4bd94a7c9U, 0x3c8db29cbde92388U,
  0x3d2e19593dfcaaa0U, 0xbe0b873a3ddfaf7cU, 0xbeaf3fa8be874446U, 0xbf47475abea1e345U,
  0xbf112121bf577f0fU, 0xbec5869cbf06506cU, 0xbdbac057bde9dbb0U, 0xbd9aff983dc15e6bU,
  0xbb4729bebdcfe4d1U, 0xbcdb0a373cf85c78U, 0xbe134a96bdb23a11U, 0xbe433064bdadeceeU,
  0xbe647b58be6a8629U, 0xbe9d796dbeccffc7U, 0xbe47af9cbe7fe812U, 0xbd79b92fbcf01d78U,
  0xbf22d6f33b2eaa11U, 0x3dd2daccbd0acba7U, 0x3e5cae8e3c0793a1U, 0x3e8924d9bd9a5e9aU,
  0x3ec59137bd731e4aU, 0x3d324eb73dd2f765U, 0x3e7929ab3bca3b81U, 0xbe7dbea23e8e3476U,
  0x3e40fcd83cd05b92U, 0x3ea1bed33e88f87eU, 0x3e22187c3e8e8be1U, 0x3ea357ed3e64fd28U,
  0x3da134003d2926dfU, 0x3eb641ee3e83dbf5U, 0x3f318489bd982606U, 0xbf275eb03ea355f3U,
  0xbca558d23d8954d0U, 0xbec409cabd545929U, 0x3ebc76583e6afd86U, 0xbdb18c103d993467U,
  0x3edca7f03ea73b30U, 0x3c634f073ea6cefcU, 0xbe8fe396bd9671efU, 0x3e4bc6aabe810755U,
  0x3dd1c64f3e2ba548U, 0x3ee61a64bd982260U, 0x3e8b64c73e8bc79cU, 0x3ed68ab33ebb10f8U,
  0x3e6017fe3e899ca0U, 0x3d0c531c3eb52de0U, 0x3dd98de63e500b74U, 0xbe013847bddc36f4U,
  0xbd86f6a1bef0153bU, 0xbd9b0dfabd9a5d6dU, 0x3b1fb7c4beac4c9bU, 0xbdfc8757be283c88U,
  0x3b12fda1be148842U, 0x3e890e7fbe0af5ceU, 0x3f34c3c43f2a1448U, 0x3f2c36e63ef6a448U,
  0x3eb7799d3f276df0U, 0x3ea17f8e3f0c78b7U, 0x3d5205883f239cbdU, 0x3ec367113e068773U,
  0xbdf25219bc98eac8U, 0xbde1aea23e217f52U, 0x3dfe8e623dca01f3U, 0x3e9322193e8e5d79U,
  0x3dd9219e3d9f1e69U, 0xbd5e5ee4bcc3aa17U, 0xbe7dcbf23c95d589U, 0x3d32cc863ddcf96fU,
  0x3def69e7bdcb633eU, 0x3df50db4bed7ffaaU, 0x3df6701e3e43e7d7U, 0xbdeb16dbbed8a48fU,
  0x3e6ad367bde8d409U, 0x3dc5fa91bde1f2dfU, 0x3d8de8263d6303c2U, 0x3ed767bf3d478e8eU,
  0x3f6350d53f20fdc5U, 0x3f002af03ed7257eU, 0x3de7d3dc3eb2975fU, 0xbde2c7e13ecef4adU,
  0xbe33ad45bea56c42U, 0x3edf11e13d7769ceU, 0x3ed4a4a93efd4f64U, 0x3f00721c3f290ebeU,
  0x3f01b81a3f16b246U, 0xbdc6807f3edee3aeU, 0xbf006f8cbe607559U, 0xbde7a1b5be65df02U,
  0xbecc00fabec3fdeaU, 0xbbdb26bebeb4b8beU, 0xbd95c32d3ccbc952U, 0xbe38dcc6be6baad8U,
  0x3e9551173e805643U, 0x3eb833cd3eef2780U, 0x3e43e2aa3f188899U, 0x3ebb13043e9db822U,
  0x3e9a94103e6746e2U, 0x3eb9a8ee3f258c06U, 0x3e871f413f23397fU, 0xbd03ed513d8fad77U,
  0x3e8f4aeabde273beU, 0xbcd4117e3e520277U, 0x3e4074593e0d1e82U, 0x3edc7c1e3eb1cb6fU,
  0xbc35be743e4f5fa9U, 0x3e0d64203e9462dbU, 0xbe686c333dfec702U, 0x3d66ee10bdcb2773U,
  0xbe630e9c3d8149b0U, 0x3e1df43abe81f1e7U, 0x3c3ce0403e91544bU, 0x3e5f94edb8b03b99U,
  0x3d499f083de1190cU, 0x3e0c3fcb3e78f434U, 0x3e349dce3f12a44eU, 0x3ed786613e15f7eaU,
  0x3f01677d3ebfbea3U, 0x3dd866d13eb54eb3U, 0x3de6763a3e3c2f6dU, 0xbe5925f0bbbc3fb0U,
  0x3eda52e5bde344b9U, 0x3dce0f633ead292aU, 0xbdc1536ebde5f4a6U, 0xbe158975bd2ed325U,
  0xbe57d3bd3eb1ddd0U, 0x3ee44f69bdf34413U, 0xbb7fb0cd3e063fb5U, 0xbe1b64cfbe9a4556U,
  0x3df85c513e02ae97U, 0x3e57c69fbc1c3c27U, 0x3d3d93d63de1be93U, 0x3ea6f3463ef623f8U,
  0xbe6548763e160feeU, 0xbe9f1c85be113925U, 0x3d117a503cda6c28U, 0xbc4ce43fbe652b33U,
  0x3bb215d4bcfd8bfeU, 0x3e26eba33d34538aU, 0x3e90aa9c3e41bbd2U, 0x3dff59c33f03891eU,
  0xbe2679e33ed1205cU, 0x3dd8e3803e0c099fU, 0x3eca90123eb67a2dU, 0xbd5a682ebd6d5e01U,
  0x3df7cf90bdafad52U, 0xbf596d4abee3d94eU, 0x3f8fbd85beefad85U, 0xbf09b0fa3d41768eU,
  0xbd89a45cbdcba5d7U, 0x3ec3e411bedf230cU, 0x3f08ccd9be873569U, 0xbf6d2ed53de28abdU,
  0xbee0317b3d3ef869U, 0x3e19f5cabf97fe44U, 0x3bbec11f3dd6d82dU, 0xbeb242863ea8a49dU,
  0xbc2f27ddbead9120U, 0x3d976ff03e8c03c1U, 0xbf21ef053f33c8e8U, 0xbc684832bfa595afU,
  0x3e1309fd3f4553a5U, 0xbf1466c43f0d123fU, 0x3f247b243f53295dU, 0xbece6a763f283a34U,
  0xbebbb415bf4179f7U, 0xbd5655e33c67a54cU, 0x3ec6692d3e366096U, 0x3cd9d0363e7fc2cbU,
  0xbe4a268dbde78ff8U, 0x3ee42ed53dad2a88U, 0xbf455a0e3e1e388aU, 0x3e2a062fbdd43014U,
  0x3e9d5dee3f2b6ad0U, 0xbf898d013ead02ebU, 0xbf8d030b3eff0d9cU, 0x3dd3bfebbef1da61U,
  0x3f3dc057bee17d11U, 0x3edcba40bf197a1aU, 0xbf83169e3e9fc1fcU, 0xbf19ca103ed28cb1U,
  0x3e3358e6bf374915U, 0xbf92925cbe63294bU, 0xbe633ea43d2c2557U, 0x3e8f2840bf2c6d86U,
  0xbd8a3602bdb8b4c9U, 0x3b73a9abbd00a7e4U, 0x3dd437763c7c6e6dU, 0x3d90c01f3d35bf19U,
  0x3e0b73563e36b989U, 0x3e46c1743e17319eU, 0x3db699d43e381bcfU, 0x3d0fd9f23d25226bU,
  0x3d3e7f1f3de58335U, 0x3d90c6013dbee176U, 0x3c6651033c078311U, 0x3d0d6a56bc219779U,
  0xba97773a3d66631fU, 0x3dd22de63cedb3a3U, 0xbac0ceda3d84ecf9U, 0x3da237923d41751aU,
  0x3c5b5e22bc8aed99U, 0x3cf95fd3bb98eedbU, 0xbd067afb3c437b29U, 0xbc9763683dc2d22aU,
  0xbb96ac653ddaeec7U, 0x3da5ee3b3d407f1dU, 0x3da4833d3cc04800U, 0x3d94bbe4bca80949U,
  0xbdac4992bcd219b6U, 0xbe2b5345bde31523U, 0xbe443f68be545becU, 0xbdd58da0bd8fb7e9U,
  0xbe087c10bd85a2ceU, 0xbe1f3fa3bd9b917eU, 0xbd28151abd15d1d0U, 0xbd854f88bd2b5792U,
  0x3cf8f2abbda052e9U, 0xbc7681683d5255fcU, 0xbcef70373bdce9d4U, 0xbd90a09d3cc1f8e9U,
  0xbc22c144bd1a9b1bU, 0xbd88a02ebd4f8e52U, 0x3c6cba42bd33d0adU, 0x3d229ad03d01a4e8U,
  0x3dcb76353d4b6d46U, 0x3cdd54e73de9eae0U, 0xbc3dac803d633c26U, 0xbd827cb83cf4261bU,
  0xbcc52a033ca8026cU, 0x3c9bc4513c930511U, 0xbc260e59bda52e4bU, 0xbd0573c73c04b231U,
  0x3dc317e73dbed480U, 0x3d30f51f3dca641fU, 0x3be75ed53dabb296U, 0x3d8a21073c9e2922U,
  0x3d94be523d725c6eU, 0x3d985ce3bceab570U, 0x3d79386e3b2c1cc7U, 0x3c7ad7ab3d6e3869U,
  0x3c94f8d83d5b8ff4U, 0xbde810e7bc5b3593U, 0xbe0c9d32bdaf736bU, 0xbd8bee3abdbcf5e7U,
  0xbd76ffabbc2be40bU, 0xbd3386b6be2026d6U, 0xbe20294abe167f45U, 0xbc21859cbde4f1f5U,
  0xbe6bf5bdbe7be26cU, 0xbe015cdebe1bbd73U, 0xbe454537be539fa5U, 0xbe53f7b0be28fe69U,
  0xbe6eb359bea09a64U, 0xbe32281ebe5d2c0fU, 0xbcf3ed43bd5c4097U, 0x3c0db33c3ccd5f77U,
  0x3df47dc83d93ad3aU, 0x3dfdc75e3b6daeffU, 0x3c639c203b7e14adU, 0xbcf6bea7bc69c085U,
  0xbd6740dbbcf90c64U, 0xbcc4bb21ba351d45U, 0x3cf18e933d60a755U, 0x3c84c5213d1fce2cU,
  0x3d910e123d3d5e13U, 0xbd79b8973d72061bU, 0xbddd8ad3bd801811U, 0xbd2b32c7bc838cc2U,
  0x3cbb32a03ce4ea5bU, 0x3c7f4bc93cb93d8cU, 0x3d684aa9bc9489d5U, 0x3d4767a63cdeabcdU,
  0x3d8d360d3e05b556U, 0x3e0f7ad83d7fe57eU, 0x3c77bb6c3dd50ec6U, 0x3d98af853d71e28dU,
  0x3d170932bc8e98a6U, 0x3aa231013c996c56U, 0xbd4d5e623d5af28fU, 0xbcf936c93cf96ae8U,
  0x3c56e4a7bd5c5eefU, 0xbdf354c7bda2b4ccU, 0xbe704c9cbe0907ebU, 0xbdde23babe690ddeU,
  0xbea5f660be2d94aeU, 0xbe974d84be874669U, 0xbed18a65bebb8e83U, 0xbe83d117be176643U,
  0xbe635a8fbea21557U, 0xbe4af26fbe6aad7fU, 0xbe344ff8be85d24bU, 0xbd19fbd2be0d46dfU,
  0x3d072c553d8e5bfbU, 0x3c837b583c4390b5U, 0xbdf583eebd7095c3U, 0xbd4dd8093c750af7U,
  0xbd70a66cbe0731d5U, 0xbdb472e4bd2dd8a8U, 0xbd91f525bbd9da69U, 0x3ca06f8bbbb1032dU,
  0xbd13c7aabce67776U, 0xbd80f380bdcffd67U, 0xbd4fa9fcbd950a50U, 0xbce4fbebbd58be15U,
  0x3bd9a406bca4ed0fU, 0xbd0e03e2bc40208eU, 0x3d33bc85bd30e89fU, 0xbdb1caaa3c01416eU,
  0xbc855870bd97bea5U, 0xbbd89877bd2d2249U, 0x3cd08c17b95052baU, 0xbe93eede3d0c3fadU,
  0x3b062865bdbc0a84U, 0x3dae0f743e5895baU, 0x3decbf673d44687aU, 0x3d66fc8b3d2dff92U,
  0x3dc6a7d53d47dbc8U, 0x3e46ead33d79db60U, 0x3e776fee3e66bb97U, 0x3de475873d95146cU,
  0x3cd93db73dac4d34U, 0x3e457abc3d6660b0U, 0x3e6e4bc93df4af0dU, 0x3ecf5d883e955a3aU,
  0x3eb105ad3ee19ae5U, 0x3e902eba3e9bceddU, 0x3da02d343e397cf6U, 0x3d49fe343d1cd21bU,
  0x3ccad9fc3dc8526cU, 0xbe60a268be45e54bU, 0xbe3d1f3bbea83ca8U, 0xbe648721beb14bcbU,
  0x3d2dafb53c6513c4U, 0x3d532b0d3d682267U, 0x3df10ef0bd1d66dcU, 0x3e04c125bda30f74U,
  0x3dc0f27b3e14a48dU, 0x3e4c31533daaeab8U, 0x3e76e7b33e2172daU, 0x3dfa65633e820493U,
  0x3e47d4be3e785beaU, 0x3ce13a4ebd6d9d29U, 0xbcc0984ebd3dbc9fU, 0x3d2ac99f3e27ba09U,
  0xbe8cf6a6be38de65U, 0xbd5643dfbd9a129cU, 0xbec72374be7cfa36U, 0xbec628febeb222acU,
  0x3e21ace1bdc85db1U, 0xbda932b33e4c801dU, 0xbe27061ebd3308d2U, 0xbe52e017be81b1dfU,
  0xbcecff01bdd54e42U, 0x3dfd70743e1991b3U, 0x3e20d2ee3dfe62c9U, 0x3e78c40f3e023666U,
  0x3e8cc7533e3bc565U, 0x3e5165413e97a71aU, 0x3e6de4ba3e97658eU, 0x3ec9bb673e6b9c28U,
  0x3eaedb063ec7f5e9U, 0x3da318683eab4fbcU, 0x3e2020443d969bfbU, 0xbe150d9abe2dc0edU,
  0xbe72578dbe3a154dU, 0xbea931a2be92c58fU, 0xbb04eb0bbd9dc2edU, 0x3e0d3099ba6d98f9U,
  0xbd685ac23c504457U, 0x3c644a4dbd368cf3U, 0x3d36adbcbdaa88a2U, 0xbe443e07bd712e85U,
  0x3d68676fbd847e5aU, 0x3d72d3b13ded72a4U, 0x3d1df368bd2f9abaU, 0x3d9bbc413e6bd331U,
  0x3e02269c3e067e8cU, 0x3e96b68a3e4e0af8U, 0x3e7dd67b3e742f36U, 0x3e2ba24b3eb84794U,
  0x3c05b1b83e1ad79cU, 0xbdce651a3d413fa7U, 0xbe8d715cbe4db8ecU, 0xbeabeceebedc2719U,
  0x3d9e8038be06ec68U, 0xbd192698bbdb6a22U, 0x3dff42c3bdbd21a1U, 0xbbb9a0973daf33e3U,
  0xbe047a8e3b9fb026U, 0xbd692e52bc4e3f78U, 0xbe1135edbd6fee15U, 0x3caff932bd4ab776U,
  0xbd2f300a3ca88d11U, 0x3d4866b3bde9072aU, 0x3e775fc33e16a459U, 0x3e2028673d8dbee5U,
  0x3deb414d3dd7cc99U, 0x3dcfa8523e675562U, 0x3eaef93a3eaf83b3U, 0x3e9be5d93e5afcf1U,
  0x3e5b44db3e54d879U, 0xbdc80ca03de97abaU, 0xbc048f00bdb2ce71U, 0xbe0f1f04be023954U,
  0x3d00ab66bcb1cdbcU, 0x3dc3e62d3d176821U, 0x3e5d2b703dc52326U, 0x3e86125d3e893c1bU,
  0x3e157fc03dfaff2dU, 0xbcb994553e095c7bU, 0x3e331b513acc1bf8U, 0x3d46d7e83e1830c5U,
  0xbd3788cebe0225ccU, 0x3dd0fd7fbdeca36cU, 0x3df7b7c63d18ddc7U, 0x3d3d7fb8bd03b88bU,
  0x3e2394913db15bd7U, 0x3e2617eb3d6ecd9bU, 0xbd95a5bfbbe0fe49U, 0xbd9f6ed8bda85d3cU,
  0xbd8d9da4bdc43260U, 0xbe2238f0be615601U, 0x3dbab0a6be870eb5U, 0xbe0aae9c3b27e62cU,
  0x3b9cbbd03d81bfe4U, 0xbe16fe91bd9c2e03U, 0x3d908a183c1c78e2U, 0x3d9e19f33d304303U,
  0x3ec71c173e696dfbU, 0x3eb105323e965ff8U, 0x3e3603cf3e9705e2U, 0x3d988b663e48f261U,
  0x3cb6d6573e0c748bU, 0x3de366eb3dca0886U, 0x3d42a8633d710521U, 0xbcfc6136bd463935U,
  0xba21fe393d78db9aU, 0xbdf1de673d74fd39U, 0xbde4bdfb3ca4fd1aU, 0xbdc4e6e5be119054U,
  0x3d1fc07bbe15fd59U, 0x3d895019bd6c55ffU, 0x3d413b9abc882dc0U, 0xbcd8ec393dafaf6fU,
  0x3ce55d35bc9071aeU, 0x3da4cb95bd590821U, 0x3dde47cebb96d8e5U, 0x3d315b503bc984d4U,
  0x3da79e4a3e46dd70U, 0x3e0a0a843e1025b1U, 0xbd1ef4653e1a7bcdU, 0xbdaf9b06bc1b108cU,
  0xbdfbda71bcf5dcc5U, 0x3c2d3a093cb32fdfU, 0xbe0598a8bd68844bU, 0xbe3fcb07bda0b34fU,
  0xbde5aa3bbdb1ad98U, 0x3c8bb5423d04bd50U, 0xbd12d5213cb2b4a0U, 0x3d89a15abd914bb0U,
  0x3e08b543bc17f54fU, 0x3d3bd7393d8cc2bfU, 0xbe968895bdc62cdeU, 0xbe308fbabe369a2bU,
  0xbe3dd295be84099cU, 0xbc5af6cbbdc7cadbU, 0x3e200f54bd8f9e66U, 0x3e1836bf3e12b26eU,
  0xbd9db1be3daa475eU, 0xbd37b668bd7ff83fU, 0xbd8a641ebdca4770U, 0x3c939120bcddb290U,
  0x3dadf4a43cd966b2U, 0xbd5ab542bcadc434U, 0xbd6b0fa6be22d47aU, 0xbdd6886bbd3765ecU,
  0xbe2740afbd0df424U, 0x3c7f42fcbe23cca4U, 0xbc4632edbdd8b270U, 0xbbd25f48bcd62d08U,
  0x3deee7043c2873a8U, 0x3e4243553dd0a407U, 0x3e5b3eaf3e372df7U, 0x3e172e343e1401a7U,
  0x3e2436a53dd6e709U, 0x3dffef023e195b4aU, 0x3d60a71a3dd1b1a6U, 0xbd9c80bebd47d11fU,
  0xbe8c8131bdce5edaU, 0xbec85f29be969967U, 0xbeb7ecdcbec3dd15U, 0xbe2c517bbeca50c6U,
  0xbdba18f5bd903297U, 0x3d594404bcda063bU, 0x3d11bf1e3d9285c1U, 0xbdbe20b63db2684fU,
  0xbcc5217bbd53f8adU, 0x3da9d5d53d6d83ffU, 0x3e01dc393ce63e8dU, 0x3e0e5de6398249b6U,
  0xbd4646f63cc8ae5eU, 0xbeaa4b6ebe5ce15bU, 0xbeab23aabeddfe08U, 0xbe11cce6beb03d33U,
  0x3d04cbc2bd9625c2U, 0x3e5efe583e03eb37U, 0x3e83957a3e3aa771U, 0x3e30e2d43e55fe8eU,
  0x3b7da11f3dcff787U, 0xbd6c4fdfbd5b0c2dU, 0xbdf51c0dbd9ebcc6U, 0xbdce59a4be1c1c9aU,
  0xbd2bc077be1e60deU, 0xbe2237dbbdb9c602U, 0xbebacc9abe684a9aU, 0xbeab4a02bea31693U,
  0xbcf6aab9be165f8aU, 0x3da92ac73c8a8b22U, 0x3e242fbd3de51edbU, 0x3c806b7d3e44cdcbU,
  0x3d09ca3e3d84f3c1U, 0xbc8729493c277fc1U, 0x3d5373e43d3767f8U, 0x3d47ecfc3d5f2b74U,
  0x3da02d4a3de9c902U, 0xbda37c7abd9b5ad0U, 0xbe568031bdfe57f9U, 0xbea1bba6be916130U,
  0xbe64fd7dbe044440U, 0xbd59703b3d568899U, 0xbd39c1c0bd724be9U, 0x3d55b4623c568061U,
  0xbb2a6d9a3d17c9a4U, 0x3c155f2f3c51946dU, 0xbdff8bcdbde98e0aU, 0xbe0ea522bdf59b8dU,
  0x3d26e8e8be2241a4U, 0xbca7959c3c354183U, 0xbc594e773cc591d3U, 0x3dcc5ebc3e0b2295U,
  0x3cccb2673dcfeb9eU, 0x3cafcda1bd4e634cU, 0xbd36a7fdbd83c937U, 0xbe2d24abbc39b4cdU,
  0xbe4373f8be1e8b22U, 0xbe409f0dbdd6c493U, 0xbd2e7307be7b7ce8U, 0xbe42ecebbddf5613U,
  0xbd397fd3bcc0c70eU, 0xbce9cff93bf6f514U, 0xbd9347febd5bb74dU, 0xbd074e733855a89bU,
  0x3cca7d9fbdc65391U, 0x3c99add03db83490U, 0x3d0a6a703dd1517dU, 0x3e8095823e4f74d0U,
  0x3e42d0113dcda06cU, 0x3e60c5303e8b294aU, 0x3bec12263d2db7fcU, 0x3d3413743cb3258cU,
  0x3e2528ee3db34f93U, 0x3df3d0a53e0c71a6U, 0x3dcc75803db1d38fU, 0x3ddac8e43dba395eU,
  0xbe5037febd6b2609U, 0xbec9598cbe47852bU, 0xbdf729c5bec2073aU, 0xbe2015f6be040a18U,
  0xbe1a8ae9be04e284U, 0xbc690aebbe0d91a7U, 0xbd2a5498bdb2123cU, 0x3d97b25a3ca92490U,
  0x3ceed9e63dab4c4fU, 0x3a699c413ce89634U, 0x3c856c743d1a7fa4U, 0x3baf27563b89a0ebU,
  0xbca3ba553d6e4c3bU, 0xbbb57fff3d822784U, 0xbd0ea9613d986989U, 0xbdc16944bae36c08U,
  0xbd30284abc58442dU, 0xbd6dafdb3ca08f1dU, 0xbdcbc0083b0321c8U, 0xbe0ff7ccbe0e39b8U,
  0xbeaab896be77dc9aU, 0xbe9cce41beaa3d16U, 0xbe2f3946be628c68U, 0xbdf9497fbe11341eU,
  0xbdde474abdf5c348U, 0xbd037c043c05d738U, 0xbd229617bc898b8cU, 0xbb4fe2a3bd1ea444U,
  0xbd42aacebd3b9282U, 0xbd745fd0bd90d7cfU, 0xbd319fa0bd8706b5U, 0x3d2b6e63bc661356U,
  0xbd89a94f3d1d8926U, 0xbd52ee95bdb7456fU, 0xbb724fefbd462fafU, 0xbcfbd0653cb5e042U,
  0xbd90236abdcf5c56U, 0xbd4a6a0fbd352098U, 0xba1978dcbd9122afU, 0x3c92e5eabc8fde65U,
  0x3acf56ef3d8b8577U, 0xbd64cdd13d2251beU, 0xbc7f913c3ca5fb9aU, 0xbcde85c73b61ead4U,
  0xbda0a0b6bd31b9d7U, 0xbdb7494dbd8a4613U, 0xbceffd9e3bad616fU, 0x3c5eb1243d0e3baaU,
  0x3df010353dfb2228U, 0x3e16d8b23dcda550U, 0x3de90df33db05e24U, 0x3db16f963d347460U,
  0xbc5d6252bd0253c3U, 0xbe30b441bcf44828U, 0xbe2aabfbbe0d2d72U, 0xbea1e90bbe970272U,
  0xbe8512c6be96cefeU, 0xbe866d22be80d343U, 0xbe42d7f3be5122fbU, 0xbe1ea7e2be165386U,
  0xbe1aa6b9be3edba0U, 0xbe559fc0be53fbaaU, 0xbe029e90be3f491cU, 0xbc7e5e06bc85c9b7U,
  0x3b3af40eba2f81d3U, 0x3cd9cee9bc42f209U, 0x3d79a49f3d822840U, 0x3d1e181d3d782a42U,
  0x3aacdcd93c10ab1aU, 0x3c5cc9243dbd5e48U, 0x3db284f83db6cabdU, 0x3db4e4453e05f44bU,
  0xbd94141f3c3294ceU, 0xbe2e3a51bd9133c1U, 0xbe2aebaebe3c96bdU, 0xbe3661e0be140911U,
  0xbe209c1fbe39e034U, 0xbc854966bdf714d4U, 0x3bad7312bd683c57U, 0xbd796f0ebd383c2bU,
  0x3c9a7e6e3cb55f77U, 0x3cfbd2083cbe545eU, 0xbd823b4cbd8efee9U, 0x3b981f4ebd9addf5U,
  0x3cb3b5af3c208cf2U, 0xbd30b5f1bd68bab1U, 0xbcc6cfd33d80d0ccU, 0x3d85ea893c5901e2U,
  0x3d07c978bb9dc782U, 0x3db607703d8705b5U, 0xbba9d9b83d02304dU, 0x3d814bd53d7b2be6U,
  0xbd91eddbbd866ac5U, 0xbe4a4371be1938d8U, 0xbe647542be629ec5U, 0xbe63e6bfbe397315U,
  0xbe14ccb5be22c241U, 0xbe5ccb58be2dad64U, 0xbe63515cbe89a258U, 0xbeb3996ebea9f4e8U,
  0xbe842a10be7484f9U, 0xbdb8eb45be00470cU, 0x3c576414bb9c054aU, 0x3dcfad193dd5efd7U,
  0x3d7194813d69038bU, 0x3c32b30a3cd1424dU, 0x3d5ebcbe3cccabd0U, 0x3d9898e93c98bc59U,
  0x3cb20cef3d0979ceU, 0x3cc2269cbc3b59e9U, 0x3ca88377bd2bf952U, 0x3cb4b9233ce46d2eU,
  0x3d1cecbb3d7d4072U, 0xbcb101463c0c5594U, 0xbad0fd7fbd43ce3dU, 0xbddb53ebbcd6171eU,
  0xbdc73253bd5288baU, 0xbdaaa123bd196e07U, 0x3c83b61e3b6858d9U, 0x3cf21d4e3c9a908dU,
  0x3b20f5503be27d33U, 0xbd17551fbd8934c3U, 0xbc4f3134bd14ba3eU, 0xbcf113cfbd7ca9d7U,
  0xbd27fa33bcd68da2U, 0xbd50db8dbcd361d1U, 0xbcd6b751bc018a19U, 0x3cd3454f3d46d257U,
  0xbc0442293d325bddU, 0x3cbfb1113dc0ad0cU, 0x3d8d286c3e782a16U, 0xbcec2b73bd8f296dU,
  0x3dc04680bdc0c35dU, 0x3dc316603d83ce81U, 0x3f0d1c443ee43cc1U, 0x3e72a13d3ea4cf3aU,
  0x3b39d3023e6e05c3U, 0xbbd568c13dabad17U, 0xbdb4c505bcec6096U, 0x3d7552163d525b39U,
  0x3df4ecd23db522daU, 0x3df600e23e246117U, 0xbd4b847dbd0aaeb7U, 0xbc9dee713c8b5600U,
  0xbe19eeebbe01f569U, 0x3e1514763d306108U, 0x3d820d7f3d96676cU, 0x3e8951a63e69caccU,
  0xbcb0129c39c1a315U, 0xbe42b8c0bda8a4f0U, 0xbd268f55be4a68deU, 0xbe8b7c70bd55a7cdU,
  0xbe14004abe327b57U, 0xbc5ae524bcf61c2bU, 0x3d3b8fd73dad3a51U, 0x3e4a71a63e26deb6U,
  0xbdbf96dbbde4f466U, 0xbe3b071dbdefb3e5U, 0xbd7feb4bbd3e115dU, 0x3b108f61bda5f467U,
  0xbd524f29bb90cab5U, 0x3d9edc003e17dc0dU, 0x3e280aec3c6e9c85U, 0x3e0e20d13d894291U,
  0x3e507d96bbc07812U, 0x3c5d9f8e3e4ba2eeU, 0xbcde709abd160bd2U, 0xbe178c37be3629adU,
  0xbe1ee66ebe2120afU, 0xbe754927bda3dec3U, 0xbf0a77babec1f88cU, 0xbf189997bee5cecaU,
  0xbe8d296cbeb9999aU, 0xbde9c200be85118eU, 0xbdc16ab8bde95c02U, 0xbe9eef52be44141bU,
  0xbd2b3bc0be542ce8U, 0x3d9ed266bd251863U, 0xbdb55b0bbd7d1d6cU, 0x3df6377c3d8199bcU,
  0x3a8f00bc3d9c89e2U, 0x3e057a933dc36d5cU, 0x3d5da31e3dfba793U, 0xbe09bdbd3d3b501eU,
  0xbe21bec63d7dd4acU, 0xbd6d0de7be3c731fU, 0xbdf9a5d4be5d4987U, 0xbd9e8314be8ab646U,
  0xbdb28821bd7b85c2U, 0xbe0d413f3d3233f6U, 0xbc9a6758bd53c74eU, 0xbecca2afbe1f6437U,
  0xbee8c5eabea2c2d6U, 0xbecbafbebf094cd4U, 0xbe9f0182bed45e55U, 0xbdad99fdbe1fdbf8U,
  0xbd7c3303bd92ae7dU, 0xbce544ffbd667dd3U, 0xbc8d55bf3e2bb1f2U, 0x3e2600943ddebcdeU,
  0x3c9626f73e19cd5eU, 0xbaf33cc83d9ec752U, 0xbd6d4ab83de1c726U, 0xbd504eadbda5c46fU,
  0x3ce8d8823d2bbc82U, 0x3d079b313b66e6e6U, 0xbd994826bd6ecd84U, 0x3d9f48d3bdaa6342U,
  0xbda670103c25bda0U, 0xbe979ed7be91f3d9U, 0xbe53e519bebbef5eU, 0xbcc50e5abde53a17U,
  0xbbbe968cbdf01b58U, 0xbd134e02be284df0U, 0xbc73ab7fbccb5ec2U, 0x3c9c59ed3b8b9a22U,
  0xbcf508333d2ce1feU, 0xbad9161b3d1c0f52U, 0x3e05f4533c452f05U, 0x3da55caa3db53fbfU,
  0x3e185d243c72901dU, 0x3c0c1cbe3e04f994U, 0x3c5806a23c801a30U, 0xbdfd1a19be36c08cU,
  0xbe58fef9be347cf5U, 0x3d3baac3bd5ab388U, 0x3e1ed8fe3c94679dU, 0x3d8b56c13c93db7cU,
  0xbdc709d33b525948U, 0xbde0889fbd470631U, 0xbe87be67be8eef70U, 0xbe6b1521be8d4c45U,
  0xbe6bbffdbe84364fU, 0xbe44d78cbe6530c3U, 0xbe46b4d8be9a9002U, 0xbe249761be5c6854U,
  0x3ded8a0fbdfbb415U, 0x3e2449953cee6afcU, 0x3eb4343e3e80db35U, 0x3e4918763e9bddc5U,
  0x3e22cf833ec3939eU, 0x3e5364383e5fd283U, 0xbe1cf9223dd313caU, 0xbe926833beb7b5f8U,
  0xbec22c83be48c251U, 0xbdd3a427be8bdc76U, 0x3e2f517d3e053086U, 0x3e0d730a3e97e726U,
  0x3e02e3ce3d0d4341U, 0x3e4d9dc23d747ab8U, 0x3e55e3153e98a902U, 0x3e1ebd1b3e843a40U,
  0x3da381ea3e195289U, 0x3d3e80a93d97c03fU, 0x3d8feb063dbdb88dU, 0xbd86137b3cd863d2U,
  0xbe130650bdac526eU, 0x3dc7c26ebde5e6b8U, 0x3d94ccf33e3dc846U, 0x3dd3662d3db8e211U,
  0x3d1bde2a3d1e8030U, 0x3d4252cf3ddf7b3dU, 0xbd0c0a9d3d8b29c5U, 0xba43a616bc0956afU,
  0xbd81a7febd387e85U, 0x3dcc2cf93d5f888aU, 0x3d867537bbe981c7U, 0xbc802ff83cef2ad0U,
  0xbdee487dbd69cc9fU, 0xbd2a543a3a9b2515U, 0x3d92cdf6bcadc308U, 0xbda870b53d33ff5bU,
  0x3d15c02c3cdb7349U, 0x3de5e3d63d59c61dU, 0xbd2fd5fe3a56466fU, 0xbd47448b3b82f9a9U,
  0xbd8444aabd81974dU, 0x3c15cc833d8bcc2fU, 0xbe3bf825be0ed1b4U, 0xbe606fdcbe4507cfU,
  0xbe1bf69ebe01355fU, 0x3cb7dba7bc5c29a4U, 0x3d3da5f8bd3c5558U, 0x3d510ff53bb89872U,
  0x3cf00470bc8fbeabU, 0x3d06b22f3b8ef539U, 0x3c8e0aeebcd248dbU, 0x3d6347b1bd1d5ba5U,
  0xbdc70e4fbd60d651U, 0xbdcfca08bdf08f53U, 0xbd69d2c0bc847e21U, 0xbda92082bdaa89a9U,
  0xbbf87da6bdbd9eebU, 0xbaa2cd7d3d4c3a53U, 0xbdaaf4463cc73389U, 0x3c575f24bdba21a4U,
  0xbd164cf13d2fc6bfU, 0x3d45e98e3d5dab8eU, 0x3e07db213e179b6fU, 0x3c2ec0273dbe6976U,
  0xbdf4fbec3c29a5baU, 0xbdc3611ebe21d700U, 0xbc353cb6be0edfc2U, 0x3d3c967f3d6d3a89U,
  0xbd3fdcb63d608688U, 0x3ab6de203aa1328aU, 0x3ca2f070bd3c441bU, 0x3dd71e0e3dc44dc4U,
  0x3d3d08f43e0e6cb5U, 0x3c4d48023df3af76U, 0x3df3e2e33d8e5ecfU, 0x3bbf97bebd48b651U,
  0x3dc7883abd68b913U, 0x3e25db4f3e01584aU, 0x3df647033df9c536U, 0xbd6e3a7ebab698d2U,
  0xbdb14eacbd231333U, 0x3d9c0530bbcf8995U, 0x3de40d003dc0b992U, 0x3e014dc23e2e56b5U,
  0x3e2d18663e1f33ffU, 0x3de445a83da39896U, 0x3caac1603d9b5d1aU, 0xbda87b54bdcb904dU,
  0xbe3f4434be73237aU, 0xbde0caa6be54babeU, 0xbdd9dd4ebe446c69U, 0xbe403b88be631830U,
  0xbeab0b0dbe69a2c8U, 0xbe7c2699be8dff8aU, 0xbe127de9be6b7cc9U, 0xbd803901bddfdad8U,
  0x3da1799c3d697bafU, 0x3e9651cb3e9c6b39U, 0x3e03186e3ea1b35fU, 0xbcf659aebc987304U,
  0xbe327cb8be52bfb0U, 0xbe697cf1be175905U, 0xbe5dd9d6be12e7feU, 0xbd92e094be28ee74U,
  0x3b6a57d33d2478bcU, 0x3e1e53213e211245U, 0x3c6ff4fd3e657f09U, 0xbdcc785bbced086eU,
  0xbdfc22d7be098ce7U, 0xbc594f93be57dd75U, 0x3dc12a873ca7b548U, 0x3e2017193ddefd65U,
  0x3dd439293d5bb785U, 0x3c3da9383ce4359aU, 0x3e191d14bc9826c6U, 0x3e8cba6f3e22b285U,
  0x3dc6f8323e5e509aU, 0x3d1dc6383d9d92b0U, 0xbd63cbe93d222ca6U, 0x3d6bb245bd48c2efU,
  0x3d6733ccbc373e1aU, 0xbc91c4ebbd481aceU, 0xbae35736bd4cb73cU, 0xbc9899123c36c037U,
  0x3ccc4aed3ddc40acU, 0x3d382d42bd0d9d56U, 0xbe153b13bd2c0835U, 0xbe2ff2ecbddd1856U,
  0xbddbdab5be2e6c17U, 0xbdc8f082bdb69287U, 0x3cdea0fdbdb435aeU, 0x3d048532bb0d6ad4U,
  0x3d8c27ae3d01382bU, 0xbd8cb3d63d8a1b21U, 0xbddbe2d6bb11c30cU, 0xbd921fb73b31e141U,
  0x3d20bbd1bd0b987eU, 0x3d70dcab3dad988eU, 0x3d492752bc168a72U, 0x3ac24c683db9928aU,
  0xbc374fd9bd2f7bcaU, 0xbad925d93cc776beU, 0xbe26dda4bd8f1f56U, 0xbdf71afbbe58e4e0U,
  0xbc9c5cf6ba026f6fU, 0xbca4ba6f3d8fa686U, 0x3c2847483ca865bfU, 0xbd2c46543d01a9faU,
  0xbd471a223d91b702U, 0xbdc21ca5bdb71f4eU, 0xbde005a4be0e2ae8U, 0xbdbb15e7be0d5c3dU,
  0xbd9c52b1be15201bU, 0xbc0b089fbdde8af6U, 0x3d2acf5abd4a05a7U, 0xbd70def43da5d8e7U,
  0x3d3c545bbd6970a1U, 0xbe0f8bde3d392089U, 0xbdd3da89bd893bbdU, 0x3cad66263c4db438U,
  0x3c0b0de73ce50935U, 0x3d9f2af4bc6b038eU, 0x3d0801e6bc5d1e36U, 0xbd94cf2ebaefc99eU,
  0xbcd67884bd630270U, 0xbdedbe54bd8abe8fU, 0x3c81d649bd788e34U, 0x3e06b175bcb7b9e7U,
  0x3e1cc43f3d3ef145U, 0x3d5b7cc03d9b9a67U, 0x3e2ffd5a3dde6f74U, 0x3dd828f83e27c5b6U,
  0x3b7b8ac43e1692dcU, 0x3e097ae83dde6f6dU, 0xbd4bfbb7bd399b3bU, 0x3c991ef33d29c330U,
  0xbdc558bcbd453bcbU, 0xbdd8b10a3c8e560dU, 0xbec37ec7be25c6d7U, 0xbef970bebea2253fU,
  0xbea92865bebe68f1U, 0xbe0ff218be841efdU, 0xbe2a7a31be240b72U, 0xbea5195ebdd73889U,
  0xbeafa4ecbe6251a1U, 0xbe99a8b2bec23047U, 0xbecb1e72bea8e46aU, 0xbe491867be2f2c68U,
  0xbd957908bc793accU, 0x3cde5e5c3da21c49U, 0x3ca35864bc390458U, 0xbdb8d8cebd5add47U,
  0xbd00cff0bc8cccb7U, 0x3cd76578bdb883c8U, 0xbc8ff4d5bb05f1c2U, 0x3e32f6313c97a7baU,
  0x3e667b2f3dea80a8U, 0x3e518de63dd1692bU, 0x3e42b98e3e15dea8U, 0x3df4a5c93e5771dbU,
  0xbe3c1392bd3a475dU, 0xbebb0eb1be75c858U, 0xbf009e67be9e04afU, 0xbe8a1154bec69703U,
  0xbe5eb7cebe5c6760U, 0x3c306661bd2a3163U, 0x3e178dff3e2c05ddU, 0x3e9244f13e561809U,
  0x3e7d16a33e73cc36U, 0x3e40bfcc3e22c237U, 0xbc7a79ad3dccc13eU, 0xbe2a328ebd2cc8fbU,
  0xbe516613be2adfd7U, 0xbec6a289becdc492U, 0xbeb37f98be8b4763U, 0xbed32c7bbeb6dfcdU,
  0xbefc5628bf0e671aU, 0xbf0004ecbf0af0a4U, 0xbed5c1a8bebd0378U, 0xbe00dad5be879ccfU,
  0x3d3ad1f5bdb08749U, 0xbd871155bdc88a74U, 0xbe400459be380640U, 0xbf0cc35cbeb61d5fU,
  0xbecf5033bedbbb71U, 0xbe1fac3fbe660b8eU, 0x3d1cd27cbe4655e9U, 0x3d07280bbc4fa392U,
  0x3e24309a3db669a8U, 0xbda11c5c3dbf1c5cU, 0x3daf7077bb2ce03aU, 0xbd15462cbd04e18eU,
  0xbc08dcd4bd5d7b6cU, 0x3de541f43c3ca7feU, 0x3e39396d3e036433U, 0x3d8157053e0b21d0U,
  0x3de547dd3dd7d5adU, 0x3dc29c94bb9701bbU, 0x3d3fa116bd8bb5e3U, 0xbe053bf2bdee3c60U,
  0xbe42b3a6be47c943U, 0xbe2623a2be1d2c09U, 0x3ddd0e273c9e4c2aU, 0x3d0d79e63d1f53a5U,
  0x3d88be053d145c32U, 0x3d9704833d905ea4U, 0xbbd67ef73d4c789aU, 0xbbc874c93d2dc156U,
  0xbd8c6345bd894c94U, 0xbd1449afbdb0662aU, 0x3bce1173bd87e121U, 0x3caf79d9bdbbddb9U,
  0xbde7cfb93d00c016U, 0xbe852486be2dcaedU, 0xbe1c3fb7be40fbe8U, 0xbbad8f3cbe254a8bU,
  0xbe2e8547bd480b48U, 0xbdcfb34cbda4ec3fU, 0xbc5c3fb2bde6bec0U, 0xbe1ec83cbdc1b619U,
  0xbe1fb33abb6843a9U, 0x3c083036bd9622a5U, 0x3d94f16e3c9f2cfaU, 0x3c707f3fbcf7b02dU,
  0x3c811f8fbda42b71U, 0x3c771162bc9823caU, 0x3c330867bd9f9010U, 0x3d82403a3cded303U,
  0x3d95edf7bca0420cU, 0xbd3b3d2abde91f88U, 0xbbc21b1bbc10f04cU, 0xbde2ca1fbc8f1591U,
  0xbdd368cebc900f13U, 0x3ce2e6f4bd75d63eU, 0xbdb26552bda6545eU, 0x3d8db02ebd73c5e3U,
  0x3d9a7fa8bb7add29U, 0xbb08302f3d958c32U, 0xbc8aebc2bac1be45U, 0x3d608fadbd82279fU,
  0x3ccb4baabd1484c2U, 0x3dedb24b3bd6d0b4U, 0x3d8b352d3df52105U, 0x3de010273df965e5U,
  0xbd93f369bdcf3cccU, 0xbe1d26c9bddeaa8cU, 0xbd2ea32bbdce909bU, 0x3c610e683aef593cU,
  0xbe1893d6bd298d5cU, 0xbd9f1fd2be57663eU, 0xbdb04984bde76cd1U, 0xbd1fb493bd6c9193U,
  0x3e0250123c9ec338U, 0x3d30e2933d92fcfdU, 0xbe11e6f0bdf41156U, 0xbdce9499be00889cU,
  0xbdcc43edbe38612cU, 0xbce0449cbe0d4295U, 0x3c451b313d1e9991U, 0xbd0518423da8e08fU,
  0x3d0956d23d1ab719U, 0x3d88340a3d9aada6U, 0x3cc2b24c3d36a96cU, 0x3d9e9f653d2bb498U,
  0xbd0148653d1ab1d0U, 0x3d4c92883dafa226U, 0x3b7d5136bd2afcb1U, 0xbd79b9da3d224d16U,
  0x3d86aec7bd112acaU, 0x3dac62ac3d1add9fU, 0x3db228e13d1e5f5cU, 0x3d68a2183e03c97dU,
  0x3c5571bc3d33e714U, 0x3db9ad583d7648e5U, 0x3cf41d4f3c0a371bU, 0x3c6bf5673db67eb4U,
  0x3c4f25d23c852212U, 0x3d8928323cfd7a02U, 0x3dfdd5fc3c126665U, 0x3dbf42c73d9ece06U,
  0x3dabd7293da42b99U, 0xbd955880bbb292eaU, 0xbe2e2e2cbdfd1310U, 0x3c59f066be25c9daU,
  0xbd7631c8bdb4c8f1U, 0x3a2de0d7bd73309cU, 0x3d3573363daaee97U, 0x3d72a7a53d65d474U,
  0x3daee5423d1aee5aU, 0x3e2892303db04a51U, 0x3e14f9283d96474fU, 0x3da498663e040dc9U,
  0xbc6d083f3da27afdU, 0x3d114bbbbd17192dU, 0x3d6e1ee63c8ea53fU, 0xbd0956a3bc9c877bU,
  0xbcb9b552bbb46b02U, 0xbd9ac4023d6c4c4eU, 0xbd12c9a0bd80dcd9U, 0xbdf731dfbc8ac1beU,
  0x3d15d749bd527091U, 0x3ca3cbb3bcc9ccedU, 0xbd90c162bd7917eaU, 0xbd3d08f8bd758d14U,
  0x3d997acabcb9ebcfU, 0x3c9c098c3d902014U, 0x3ddf80373e29447eU, 0x3cc565043dedbbafU,
  0x3c887ecd3dda15abU, 0xbc5fddb53db66e34U, 0xbcad9bf53d7d0c26U, 0xbda37fa93ca3deeeU,
  0xbc184003bc8476b8U, 0x3c934e143cd77321U, 0x3db4b87c3cfaced1U, 0x3dba5ac13e240bf7U,
  0x3d8d38833e46aff0U, 0x3e17a94b3db81e2fU, 0x3e4fdb2d3e14d730U, 0x3d95fe973e54e1ebU,
  0xbdbe50a9bd0c40f7U, 0xbe331912be199480U, 0xbc6f556ebdb6fd16U, 0xbdb7d91bbd0ddca0U,
  0x3c2db8edbcec94cdU, 0x3e44cd4b3da311e1U, 0x3e47d3d63de66a11U, 0x3e2059fb3e187fa5U,
  0x3ded88e93e514e1aU, 0x3d51f8bb3e28aba4U, 0x3e1553443d8b7a25U, 0x3d8b40973e11aac8U,
  0xbc038578bb4bcedbU, 0x3cbfa2fe3cb517f7U, 0x3cbe02ed3de175cfU, 0x3d9521ac3df30188U,
  0x3e17068a3d58afadU, 0x3d5312fa3dbd3213U, 0x3c8cb4d6bbe67cbdU, 0x3dcb7b953d8bd58cU,
  0xbba1bacd3abe6f74U, 0x3db1a6b9bd729896U, 0x3dbf67203dc2d0f1U, 0x3e04aef83c876e30U,
  0x3dea9a763d6080baU, 0xbc5fd9a23dddfbc4U, 0x3d5bb4623dac9915U, 0x3dd1c99cbc252c78U,
  0x3dcbf12c3d947606U, 0xbd8c5c66bc54c3abU, 0x3c02c3b8bd9441e5U, 0x3d92d1c9bd2c68aeU,
  0x3ddb7e723de4b810U, 0x3df5f7dd3d26a4efU, 0x3dd273803e2e5052U, 0x3de7d2553dbf91d4U,
  0x3dce85623e1b3f0cU, 0x3df9204a3e21927aU, 0xbba507613d7043f6U, 0x3db435b0bc8cce49U,
  0x3d3c2f683d73ef8aU, 0x3da86c723d24df49U, 0x3df5a0b93e0f7838U, 0x3e31a64d3def987aU,
  0xbe20685abf097500U, 0x3fa5abdf3f329dd0U, 0xbf824fe1beaa538aU, 0xbf3e49e53fe41246U,
  0x3f17085fbeb1a6fdU, 0xbed69cd7bed6bb8fU, 0x3f1bda9d3e60c8b9U, 0xbe8630bf3f197b96U,
  0xbf2a03fc3f84ae0eU, 0x3e51dd58bec660c1U, 0xbe210a7e3f15fb97U, 0xbde70aa83e5965f9U,
  0xbf2e95cb3ed78b09U, 0x3fbedaa43ec79985U, 0xbf19c576be90016dU, 0x3e1af9aa3fc7a70bU,
  0x3e8d9b17bd9e557aU, 0xbf072c8abfa04504U, 0x3c2e2b873ed30561U, 0x3eb432a9bf8ff422U,
  0x3f126aba3f8066c3U, 0xbeed0fe9be81b332U, 0x3f38591cbe9849edU, 0x3de2cf26bf97aff4U,
  0xbfad953c3e92cd72U, 0x3f7a416ebdf4f3aaU, 0x3f2cf99abefe1a39U, 0xbc0649f0c003e279U,
  0x3e5913643f3a7b17U, 0xbfb8710d3f1e360eU, 0xbf5326be3ed7d8eeU, 0xbe89d0733e659420U,
  0xbf55984bbf02b692U, 0xbf12f5e7bf1990edU, 0x3ee0c65cbf5d7dc8U, 0x3f272cc9bf821f51U,
  0xbf9a01a23e129e52U, 0xbe9ac7a2bfd74266U, 0x3f3a2bcbbf5f05b9U, 0x3f13e5e2bef51999U,
  0x3d0aaa8a3dbb5375U, 0x3c87d1123d4ae5f0U, 0xbd4b850c3d207984U, 0xbdff72debd884c06U,
  0xbd9b95b5bd805983U, 0xbc8db8bebe081426U, 0x3dfa96853ca528eeU, 0x3c23db093e068b70U,
  0xbd9cd0ef3d36e6b6U, 0xbe592ababe3ffae7U, 0xbe500e6ebe49585eU, 0xbe9cc543be655a94U,
  0xbea1cef4beaf72efU, 0xbe31fe80be892f21U, 0xbe304189bd9726f5U, 0xbdac845abdd616c4U,
  0x3dad6686bc07a916U, 0x3ce79f9e3ce26015U, 0xbc5b9ca23cf7bcefU, 0x3e0eb7f2bbb39e2eU,
  0x3e5383e43dfcde20U, 0x3db5f1213dd3d2ccU, 0x3bb2d23e3dc1616fU, 0x3d6674fabb48f984U,
  0x3d7b96c2bd110584U, 0x3dfe7a3bbcc16462U, 0x3dc07e633d95a72dU, 0x3de973de3e0743f8U,
  0x3b53fd373e15c84fU, 0x3d685b0fbc55e0e1U, 0xbc7d0b2bbd8017f5U, 0xbe17c1b0bd965e04U,
  0xbe7a315cbe963eefU, 0xbe884a7abe98a929U, 0xbe4c5dc3be619238U, 0xbde2b6e3be05dd8aU,
  0xbcfa96e3bdd5a974U, 0x3dd046b33df2bcfdU, 0x3e5a4d0a3e344221U, 0x3d5195dd3dedf182U,
  0xbc8250f23e14d039U, 0xbded74883d79420eU, 0xbdf98f23bdbcc253U, 0xba975725be082d39U,
  0xbc1fd19ebda60980U, 0x3e309f0e3d46aa6bU, 0x3e2694743e04eba0U, 0x3dca2bee3dff56b0U,
  0xbe175fc5bd3ba985U, 0xbe2890d4be37ba5fU, 0xbe7397d7be6d555bU, 0xbe5e222bbe8cbf95U,
  0xbdd1e0cdbde1f2b6U, 0xbd51624ebd0898aaU, 0x3d181d03bd5eec15U, 0x3d99b4f43c572f93U,
  0x3dc1b9873da58516U, 0x3db1d18d3d7488caU, 0x3e5d7fdf3e207195U, 0x3e17654c3e1c5242U,
  0xbc1ddbaf3e162020U, 0xbdd9a22cbcc26bbfU, 0xbdb9cadabdda3b20U, 0x3d7b0dc6bc8c2c47U,
  0x3cfce9a03dbb08edU, 0x3e01775b3d6ae15aU, 0x3da929ba3dac5cd7U, 0xbd10189b3da2411eU,
  0xbd36acb7bb41395cU, 0xbea2a84dbe3a35d0U, 0xbeabe0d2beb8d898U, 0xbe7a4c2ebe9850d6U,
  0xbe267b7bbe3683d0U, 0xbdf4aeedbd8b4c05U, 0xbd191537bd063aeaU, 0x3dca59da3d15f51fU,
  0x3d893d603d55a4d7U, 0x3a503a253d068bb9U, 0x3b8b5f4e3d090fc2U, 0x3c26db8c3dcc7ebaU,
  0xbdb9972e3c5a7095U, 0xbd597e48bdb56959U, 0xbdf2366fbe084c5aU, 0x3c4e1923bd3ea59dU,
  0xbdb16b873c8318ceU, 0xbd07e2363c282811U, 0x3d83642dbcdeb9f2U, 0xbdca0c93bde6ca88U,
  0xbdb9491abd9779d5U, 0xbe237ca9be658bffU, 0xbcd9ecfcbe08bf11U, 0x3cc93114bd050343U,
  0x3c1f98fd3d1afa4eU, 0x3d8bee8d3dbed8d1U, 0x3d2687bd3da16b2dU, 0x3de575163d78f665U,
  0x3e19f6d13dc8056eU, 0x3de8a3c03db35a1bU, 0x3dc0fe963e1f25beU, 0x3c6781f23cbd408aU,
  0xbd83a8a1bc98495cU, 0xbd5a2463bdae2e17U, 0xbe2535f3bdadb67dU, 0xbc3d65dabe35f971U,
  0xbac5a9e3bd06c429U, 0x3e020cb63c295bc4U, 0xbd0438bb3dd1966eU, 0xbdd8e45bbe2ed3fdU,
  0xbe55cb6ebe315c12U, 0xbddc1602be78cc7cU, 0xbdb38e28be234a94U, 0xbe294d06be4d7ef6U,
  0xbc9a1accbe486b74U, 0xbdca4c563c42bf32U, 0xbd52869b3d70f6d4U, 0x3d43aee6bd8edcd9U,
  0x3d66fbe73d1ba39cU, 0x3e0020d03d143960U, 0x3dd8dbd2bcb1f03fU, 0x3dc4faf83d573dd3U,
  0x3d96be413e27bc0bU, 0x3dfa58623e16e1bdU, 0x3dcd50d13e21ae3aU, 0x3e32e48b3e15ff0fU,
  0x3cefd1723d91e5bdU, 0x3cab2bde3e064d6fU, 0x3de98b993db6fe9dU, 0xbce96dbd3dbf1197U,
  0xbd670fb9bcebbfb1U, 0x3c2d8de2bc72cfc2U, 0x3d132a313d82ee35U, 0x3bf427b1bcc5b160U,
  0x3c27f3c53ba37cf5U, 0xbafe0641bc419bbaU, 0x3b2252febb97789aU, 0x3d9d4bc1bc7b7ef8U,
  0x3c2156d83d8fd6baU, 0x3da3b630bae622c4U, 0x3d3f2c6abc8033fdU, 0xbcd00d78bd3c9b25U,
  0x3c75993dbd56d324U, 0x3b37942bbd23ef1eU, 0x3cdb672abc746244U, 0x3bed1675bb9ae944U,
  0xbd653330bc04dc52U, 0xbd0e9018bd744e37U, 0xbcb5c3fb3a96c8f3U, 0xbd6a9335bd356f81U,
  0xbbfb6ebebd0cb878U, 0xbcfe76debd06df40U, 0x3b646ccfbd3d7f28U, 0x3d0c07b7bd5f71a2U,
  0x3c886bddbc45fe0bU, 0xbc3a967c3ced5862U, 0x3c861be93d346f59U, 0xbce97de73ce9de25U,
  0x3ce295783cc289bcU, 0xbc8f16c43b93475bU, 0x3c90c4283c950be4U, 0xbd1fd28a3ba9bc95U,
  0xbd6ca520bc8d617eU, 0xbc8f016abd53e209U, 0xbd518557bbbc5009U, 0xbcd517f1bd8ec5feU,
  0xbdcb98febd4446b8U, 0xbdf01e9ebd3785e0U, 0xbd3ef20bbd3a2e13U, 0x3a821fc2bd722773U,
  0xbd4a7a72bd7306a0U, 0xbd33d9fb3b82722bU, 0xbc9388febd231ee1U, 0x3cc24575bc940559U,
  0x3d0796e83d3e9ea8U, 0x3d1c93b23cbe63e6U, 0x3d5e7ff23d287b10U, 0x3da995a93d53ecf0U,
  0x3d39b09d3d926da3U, 0x3ce5f2683d79c46bU, 0x3d8862c23d51a203U, 0x3ca5ad07bb831c16U,
  0xbd1368ee3c267d54U, 0x3b1ca690bd0476beU, 0xbd04ca563cd76abbU, 0x3cb1303a3c048628U,
  0x3c117ec8bd22a43dU, 0xbd3f11483c6d16e0U, 0xbd525b1e3a8d5c1fU, 0xbbe35bd23cdd4ffeU,
  0x3bd116a6bc72ab53U, 0x3c06f60f3bc8f741U, 0xbd33abdb3aa3a6b3U, 0x3ba7a8213d20683eU,
  0xbc5497a5bc9d95fbU, 0x3cf6b62d3d6f70c7U, 0x3ca49a873d60fac8U, 0xbd39c3be3d46008aU,
  0x3a126bf33c069e72U, 0x3cd4ceb9bc413f88U, 0xbbf16afabc683980U, 0x3c0b4e8a3d1256f3U,
  0xbd0431bd3c6566ffU, 0xbd921e94bc85812cU, 0xbd5c8eb3bd5cdb58U, 0xbdcbedc3be044bbeU,
  0xbdcfa75dbcd1aa00U, 0xbc3dc4e4bcdc1331U, 0xbdb60294bd92d6d2U, 0xbcca1625bcc02402U,
  0xbcf18355bb66eb45U, 0xbd95750abbfd7adeU, 0x3c0492adbc3ce7d1U, 0xbb3022593ccf8d5bU,
  0xbb9ccb5c3cae6c93U, 0x3d2dba90bcc8ddfbU, 0x3ca8c7523c75e09eU, 0x3b85a6ac3ac71824U,
  0x3ca9e5ecbc022a52U, 0xbb255078bd46e01cU, 0x3c0293aebc3fcbcdU, 0x3ce443e9bd081a1aU,
  0x3cccc6d8bd426da3U, 0x3d04e3693d54a674U, 0xbc08acd43d56e1d0U, 0xbcd98689bbca5995U,
  0xbcdb15ecbd6c2951U, 0xbd13225b3a99fba8U, 0xbd9950563c4b8a67U, 0x3b9c4b33bcb4879dU,
  0xbd02048c3d02d09fU, 0xbcffda09bd573b5bU, 0xbc1145b93cbe66eeU, 0xbd81525e3cd60ff5U,
  0xbc325af6bd875378U, 0xbda45698bd0f9775U, 0xbdc2efa0bc933e92U, 0xbd159e27bdcd24c2U,
  0xbd71d2edbd83697fU, 0x3bdef91dbd38befdU, 0xbcc86b853c044493U, 0xbd6b16bbbda50730U,
  0xbda56c863c1985faU, 0xbd66cb6fbd87a380U, 0xbd8d256fbda65369U, 0xb7e879563cfafa02U,
  0x3cb1e47f3c0cb945U, 0x3cbbed853ca2510cU, 0x3c8cda343c99893bU, 0x3cec35c63d0aac1aU,
  0x3c67ee73bba88b15U, 0xbc3abc52bc26737bU, 0xbc94d97a3d91e7baU, 0xbd6f4e53bc64e139U,
  0xbd2129eebd784a76U, 0xbdd933fcbcf105b3U, 0xbdf36187bd876253U, 0x3e29566a3df4429eU,
  0x3d4971403da0ff86U, 0xbda7ea123d7b4598U, 0xbe003452bdaadcc3U, 0xbd5c4e66bc27dd8eU,
  0xbdca223dbe0fc855U, 0xbe1e0b53bdc9f8acU, 0xbe147fd3be624306U, 0x3d2337aabc8f68c3U,
  0x3dc4491a3bd9ab03U, 0x3dada8573cb4c2a2U, 0x3dad28423dedb950U, 0x3db75c803d135885U,
  0x3db0af5a3dc1f3e9U, 0x3d1b7ac93ba6efceU, 0xbd1649113d116c94U, 0xbe0e5d84bdd01400U,
  0x3b04fc16bd8533feU, 0x3d4dd344bce239b0U, 0x3d19bccf3c6d1450U, 0x3c9170303d5034cdU,
  0x3d3990783d184612U, 0xbbd019a63d54299cU, 0xbcdd7b5ebca1bab2U, 0x3d0743f63ce7f874U,
  0xbe82cef83b938741U, 0xbe1fbc8dbe646d8eU, 0xbe12c82fbe8a70b2U, 0xbe75e4bdbe4bc38cU,
  0xbdd0b14fbdb9ac55U, 0xbd6e64653cae4ecaU, 0xbbdadaf13d657d8bU, 0xbc897a3a3d652c7fU,
  0x3cd016ccbd38d795U, 0xbcfc326d3d484c9cU, 0xbd340f56bdb48c74U, 0x3d1b211cbd003759U,
  0x3d9c1c163d088a39U, 0xbd7f32f83d724ee9U, 0x3d1f3c8b3ce6ea7bU, 0xbc9e12b63d1b6fedU,
  0x3cdfde5dbc4df889U, 0xbd69c315bc0839cbU, 0xbde41f30bdaad4dcU, 0xbe087b52be0f91e3U,
  0xbe33bd06be00b487U, 0xbe4259cebdce220cU, 0xbe03e568bdf9ebc8U, 0xbe58161dbe8b7078U,
  0x3cdf4870bdf88dc3U, 0x3e3ef51e3e3923c5U, 0x3e547ded3e6f4c87U, 0xbdfd582c3dca81fcU,
  0xbe38745bbe433e4bU, 0xbe2378a5be4b2730U, 0x3c5e9c15bcf29d55U, 0x3d5bd16cbc185b7eU,
  0x3e372fe63e0522f3U, 0x3e19d10e3e481c39U, 0x3e1adfbf3e2a4a32U, 0x3dbd6a793e09b237U,
  0xbda968793cf53a3fU, 0xbe180171bcb12ffaU, 0xbe1b7f7ebe7d639aU, 0xbd16402abc816fb9U,
  0x3e0735e53d296cd4U, 0x3db6f9b33e2f0cfaU, 0x3c48f5013cbd7013U, 0x3d18ca363c93d82aU,
  0x3db9accabc1fe519U, 0xbd5f49ed3d2de798U, 0x3b086ef33ce232aaU, 0xbb03af463d43d806U,
  0xbdbd535ebc27a584U, 0x3c2a43dcbd09269dU, 0xbd2316db3da36149U, 0xbe37cd61bd7596d8U,
  0xbe271d73be77ac73U, 0xbe3290edbe0e2552U, 0x3b70e389bd882c00U, 0x3e3537fd3dd3da37U,
  0x3dbb307f3e16fd51U, 0xbd727d053d860836U, 0xbde5eb77bd67f273U, 0xbe8acd40be851244U,
  0xbe48e801be81562eU, 0xbe338eacbe37c097U, 0x3b8b6d5d3b79dc86U, 0xbdfb39dcbd7bf6a0U,
  0xbd5cf420bc8cdd4aU, 0xbe0aae27bdf61924U, 0xbd04059dbd689e64U, 0x3c8cf2fdbd6f8946U,
  0x3ba4a6a3bda6c5f6U, 0x3cc4397f3dddea97U, 0x3df1cc6f3d7323d3U, 0x3e54adae3ddace0dU,
  0x3da8a97c3e46fbe0U, 0x3d18016c3d86e286U, 0xbdb3bc65bd0851b2U, 0xbdee614cbe3bf7d6U,
  0xbcbb6d1fbdf68fb7U, 0x3a6bc22f3d05de1bU, 0x3e0fad693dae163eU, 0x3e5e14283e2f71c8U,
  0x3dd939493e07614cU, 0x3daf38ae3de5b36aU, 0x3d44cf8dbcb32e81U, 0x3d1979ebbd01d108U,
  0x3e099b603c8d0b14U, 0x3e2615f43d940baaU, 0x3e359a033da81ca2U, 0x3cf8fee03db6923aU,
  0x3c195b263cf4071fU, 0xbe9492bbbdc1f29bU, 0xbdd14b3abe5f6db5U, 0xbe2e2c80be2e8116U,
  0xbe226b9bbe4cde3cU, 0xbe3b82bdbe292656U, 0xbdeb72f6bd3f90b9U, 0xbe05b295be4659fbU,
  0x3d4c47edbddcb1a5U, 0xbca48d423d25f9e6U, 0xbe4f3cc9be164664U, 0xbeb1cda2be742f79U,
  0xbea5db2bbe96dd6cU, 0xbd4b6866be764d96U, 0x3ce647a03c21d745U, 0x3cc8be293c8cd099U,
  0x3ce9ecd33d32f7cfU, 0x3c03a1db3bb84a06U, 0x3d79c0a73d1f6953U, 0x3d8480273db018d2U,
  0x3d8283e33b372417U, 0x36847c393d6529f5U, 0xbb913f12bc1d50ecU, 0xbd4051d8bd9eb7aaU,
  0xbcbf4372bd5f730fU, 0x3d404e98bbeb0780U, 0xbcb6ba093d49e57cU, 0x3bc3352f3d227dd3U,
  0xbb8d7e91bca9f932U, 0xbcdd393fbc8d877bU, 0xbd18e652bd29607dU, 0x3ca4e064bc0aa546U,
  0x3d0bcfa73d0022b1U, 0x3c36fa4f3d9900ecU, 0x3da5ea013c703f9aU, 0x3de8ea5f3cf4d9a9U,
  0x3d645ad43daf0202U, 0x3dd10ba63e00f8d8U, 0x3df94d9f3df88f6eU, 0x3de798f53d94435eU,
  0x3db567583da1f773U, 0x3cf480783dadd6b3U, 0x3d9fb85b3cddd9a6U, 0x3d6106323ca2f154U,
  0xbc957c223d6a39fcU, 0x3c85efe93c9871fdU, 0x3c8e41a23d680c61U, 0xbc473c9a3d5d81edU,
  0x3d4d9ded3d105fbdU, 0xbb383488bc5911caU, 0x3a246121bd0c9127U, 0xbca820bd3b85a93bU,
  0x3ce86ae13d5e8d67U, 0x3daf3b273d26a264U, 0x3db95e9f3d7341dfU, 0x3d494bc33dc96c83U,
  0x3db6f3a03d57dde8U, 0x3cdbfb4d3c33396eU, 0x3ccd82be3d7f8432U, 0x3d1c98b03bf37251U,
  0x3d8d1c68bbf8bb54U, 0xbd3e00583d167ca2U, 0xbd9346babd93c547U, 0xbdaf46efbd0238b8U,
  0xbdcede3dbd7dbd0eU, 0xbb0ecf03bd316507U, 0xbc022a0dbbf0a698U, 0x3d554bbe3a9ea88fU,
  0x3bfd3d3a3c7330daU, 0x3d832783bbc89ad9U, 0x3d805dc13ca265adU, 0x3d2b314c3ca394f8U,
  0x3d46f7ad3c0205a5U, 0x3cb545e03d90ab34U, 0x3dc844b53d7cceabU, 0x3dd793e03dbf743aU,
  0x3db32b5b3d60c578U, 0x3dd9ff233d4d4bf7U, 0x3e06d9263da3e7d5U, 0x3df109283da02336U,
  0x3dcb0d0a3dc10da3U, 0x3c4953293d59f724U, 0xbcb5cab73acf1219U, 0xbd01b15b3c9f0201U,
  0x3c3f4a50bcea1838U, 0xbd2a10553b7e86fdU, 0xbc78fb943ae6d9c1U, 0xbbf75be2bcdc98b5U,
  0x3d05e848bcb60106U, 0x3c6119f73cd39ef1U, 0x3c9b87b83d846c8aU, 0x3d493fa93c00803bU,
  0x3c1544693d0d8441U, 0x3c342c2a3b84f0eaU, 0xbbcea9bcbce420acU, 0xbcc25846bd4ef5cfU,
  0xbd1592c0bc2885e0U, 0xbd8e0e24bd2e5fdcU, 0xbde683b7bd5b72c3U, 0xbc1bd14ebdbb6516U,
  0x3cc9a85abcdc1d30U, 0xbca2b4e6bb570719U, 0x3ca0213abd74d902U, 0x3d2f48733bbbbdbaU,
  0x3cf7b708bd1ac81bU, 0x3cc00a73bc89dc65U, 0x3c051d9cbbef63dfU, 0x3d8419163d175d4fU,
  0x3c97829a3c9503a5U, 0x3c8e961e3d75b0f5U, 0x3d384044bbec86e2U, 0x3d857d3a3d486ad3U,
  0x3de32bae3dae7886U, 0x3d8c2bfb3d2a0a87U, 0x3d85fbb13d699048U, 0x3cf1bab53dd6cb92U,
  0x3d11c5f03d9e3330U, 0x3d4b7d1a3d88ec28U, 0x3d04cd1d3ca6fafeU, 0x3d0f5243bc3086bdU,
  0xbba8bd86bd096bbaU, 0xbda5bb87bd48b3e0U, 0xbd51bcaebc0794c1U, 0xbd55632ebd7e8c8bU,
  0xbd2c4093bd7cc0f8U, 0xbd846e8dbd5cf697U, 0xbd2341a3bd218880U, 0xbcfafb70ba8f9316U,
  0xbcda893ebcfc85f4U, 0xbd210d6cbcc4d8f5U, 0xbd3e3585bd18896aU, 0xbc1ec78dbcc69ab6U,
  0xbd946a303c57d470U, 0xbc97c7413b51e989U, 0xbc2c415ebd525593U, 0xbc7b8594bd908745U,
  0x3d2732a13d31a097U, 0xbbd3e6c73d4ea9b1U, 0x3c9b0cf53caef421U, 0xbd162685ba08a7e9U,
  0xbbc3105fbd1e86bdU, 0xbc6ed0a03d13ee56U, 0x3d997a943d802ceeU, 0xbc5bb3d93dca18a8U,
  0xbdca0da2bd22bfeaU, 0xbe4260dfbe0cbef5U, 0xbe0cfb5ebd5ad390U, 0xbb3ebdc0bdb71d30U,
  0x3da484bbbd1c002bU, 0x3c8c1d683d52fdc1U, 0xbb1412ab3d528100U, 0xbdf5c7fdbc6269cdU,
  0xbc02ff98bd6e536bU, 0xbd627208bc0e63d2U, 0x3df11d76bbc76c3cU, 0x3e9d41eb3e8bf64eU,
  0x3e82f9d53e9800b2U, 0x3d9fa4813e6c94c3U, 0x3c5d6bd63ba1a09cU, 0xbdc114e53d877d90U,
  0xbd27a83fbd1dd553U, 0x3d173a9f3c9fa6bfU, 0x3d2554623ce4af6cU, 0xbd8432f9bcea971dU,
  0xbc2edad0bd11e049U, 0xbdada4d1bd2dd241U, 0x3ad132bebce857d1U, 0xbac5d6383d89a763U,
  0x3dfe64b63e19d691U, 0x3ddabaec3dc911d7U, 0xbd41c6433c89cdb5U, 0xbd7314c6bbfc63a8U,
  0xbe100d76bdea7980U, 0xbdac4925be1ed69bU, 0xbd838e8abe05c505U, 0xbde0b146bd92c24aU,
  0xbdf8c62e3b9166a5U, 0xbbe211afbc96a805U, 0x3d881c6bbd09aa4bU, 0x3d36aa46b85b1aeaU,
  0xbdb3e4bdbd42688bU, 0xbc5a941bbcc44a02U, 0xbe01a541be0c4d3bU, 0xbdd8cdf7be129e4aU,
  0xbe088692be281c64U, 0xbc955d32bd925679U, 0xbd48729ebd0eb20eU, 0x3de98a8b3d6cf1a5U,
  0x3e116f633e27e1fcU, 0x3e147c9a3dfb08efU, 0x3df3d4893df0150cU, 0x3e08e08e3e13c5cbU,
  0x3e3017dc3e6c1cfeU, 0x3e804f333e6bce49U, 0x3e4b4cf13e5ef377U, 0x3db32f523e3b0197U,
  0x3d850d133d944e67U, 0x3dbe517b3c0e4daaU, 0x3ca64bcc3d4d4485U, 0xbda4844cbc925da2U,
  0xbd509347bda261e6U, 0xbe233454bde98155U, 0xbdff32d7be210e83U, 0xbe413324be1f6f2bU,
  0xbdb2de19bd9b1cccU, 0x3df3002a3c21e053U, 0x3db828b93e202845U, 0x3d0731193e07f140U,
  0x3daf4cfb3dce2678U, 0xbd068b123d8283e4U, 0xbdc5e38fbe03c659U, 0xbe36d0a4be262276U,
  0xbe1d05e8bda06421U, 0xbda53f86be17beefU, 0xbd6bc490bcba9c7bU, 0xbc58b7bdbbd55d13U,
  0xbd81a6a1bd826ce0U, 0xbcab867fbd66ea90U, 0x3d801054bd703e98U, 0xbd02cd503d805578U,
  0xbd52fab1bdb23aebU, 0xbbd67e37bde8e4f5U, 0xbd3fd1a3bd985622U, 0xbcb3246ebd401a1fU,
  0xbdabbff8bd47ef49U, 0xbdfd9a88bdf71764U, 0xbdb7a4e0bd97b567U, 0x3d2a0b163b6e551dU,
  0x3e0fea143e0b946eU, 0x3d6c184f3e15e710U, 0x3e0fcf493da8a5afU, 0x3e20f82a3dd8f4b8U,
  0x3e2c42d03d835c39U, 0x3d1ff3533d417717U, 0x3d1b3dc53d664f76U, 0x3de0a28b3d14126cU,
  0x3db91a493dee8875U, 0x3c91b7443d6f9f0bU, 0x3d151c40bd2b2832U, 0xbe44093dbde61c16U,
  0xbe57543bbdfbb507U, 0xbe485dc6be1cc7afU, 0xbe478681bdbfd90aU, 0xbd99e04ebe046ee3U,
  0xbb961052bd9daf59U, 0xbd3e9da9bc6c5edaU, 0x3c34bce73d98c391U, 0x3d8280a13dbf6e28U,
  0x3d40115e3d7a7c9dU, 0xbd495bc83c5ebd16U, 0xbdaec0ccbd40c2c2U, 0xbdafb12ebdb7c691U,
  0xbd8c8beebda85552U, 0xbde749f0bc4678fbU, 0xbd2cc899bdadb2b8U, 0x3c132c853d9a9200U,
  0xbd9a1b70bd89d40bU, 0xbddd2826be0cae7aU, 0x3d360dd73ce2f490U, 0xbd7b5d77bda0526eU,
  0xbd2aab27bd5c145cU, 0xbbd51d67bdcb6552U, 0xbd918dd5bcde8a44U, 0xbd9273d73b923029U,
  0xbd620ca9b9d38773U, 0x3d0e25963c1d4edeU, 0x3d3d0d203b2fe720U, 0xbc9aca113d082926U,
  0x3d00f4d63caf83ceU, 0xbcc76efab9b78662U, 0xbada83fa3aadd624U, 0xbd9dbcbf3d453c15U,
  0xbd948933bdf72984U, 0x3d292be73ccdd27fU, 0x3d4818603d545503U, 0x3d48a1103cd7dd6cU,
  0x3cd6b9d03ccd5a71U, 0x3d4e351b3d64f7a8U, 0xba601df43d4446c5U, 0x3dc605463c757996U,
  0x3da625db3ddb2d4fU, 0x3d4140733d60e46cU, 0x3ca1841c3d4add95U, 0xbd666319bd8b9bacU,
  0x3d3ae29bbd041d8dU, 0x3dc830d93d870bd3U, 0x3e47064d3e10b7aeU, 0x3e6ef5553e6bfe78U,
  0x3d78a5643e20b176U, 0x3dbad7d13dd59659U, 0x3bfa87e03cfbda71U, 0x3bdd04763d5f1b06U,
  0xbc01de553dbe2365U, 0xbdf22f93bcb06464U, 0xbc760014be132dd1U, 0x3b2a4ab63b84e4a9U,
  0x3c85b2b43d4de299U, 0xbb4005073d595310U, 0xbc88027abc67259eU, 0xbd87af963c979e2fU,
  0x3d0010093d28fbf6U, 0xbe05eda8bcbba79bU, 0xbd038d3ebd2ffd9fU, 0xbc405ee63c97defbU,
  0xbdde57e53b8d1f54U, 0xbe002563be398762U, 0xbd7caa8abe2bb450U, 0xbd905b07bcd9e404U,
  0xbdc871ebbdc548c0U, 0xbdac4cddbd2831c7U, 0xbd0c366bbdc053b3U, 0xbd803ad1bd4f23adU,
  0xbd4c8e87bdc60d8bU, 0xbb8fb6193c8cf004U, 0x3d102d453cb3be80U, 0x3d8619923da5a532U,
  0x3d95f1d9bc1b17f1U, 0x3d74c9a73d53d676U, 0x3d8852873e1bbfd8U, 0x3dcf61ab3d582fddU,
  0xbd2168fb3c05262fU, 0xbe1f88e7be0c98c6U, 0xbe8eae53be192c6bU, 0xbe6b5ab3be95872dU,
  0xbdda48a0be7222efU, 0xbb9d4eddbda6bd06U, 0xbaf3cf8cbdc61916U, 0x3c82ecd33d2f4728U,
  0x3ceba7ccbcde9d6dU, 0xbb55f2cbbd902a26U, 0x3cc91e39bd2a5660U, 0xbc23a6733d3554cfU,
  0xbde6f87bbd2c075aU, 0xbe3d8697be558280U, 0xbe328c37be2ccff2U, 0xbe32ba3dbe585054U,
  0x3da01f0dbcc5b4dcU, 0x3e4831813da4bfadU, 0x3e0695373dc7dc02U, 0x3dc3f3db3e277396U,
  0xbd06fdf63c92446cU, 0xbe12f208bdb43dd5U, 0xbe093697be353bc6U, 0xbe0ce1aebe329513U,
  0xbde05540be266982U, 0xbdf4084dbd7a3c70U, 0xbd52ca54bd4c2b03U, 0x3d5d02aabd96b786U,
  0xbc719e86bd067766U, 0x3d808f6ebb13d65cU, 0x3d6a35733d37e18cU, 0x3dd7e5fd3e0b06bbU,
  0x3e1adc723de0a74dU, 0x3e1fe9963e107271U, 0x3e2a42cb3deb7d4aU, 0x3e1d99233dfbf3ddU,
  0x3d5c3cd73da085d5U, 0x3cd856833c3d3dbfU, 0xbdee5c8fbba3a367U, 0xbe7df979be5c2f10U,
  0xbe18c1aebe078d3cU, 0xbe439707be644bf2U, 0xbd114bccbdda8c00U, 0xbccd3a013aa207deU,
  0xbd3387cb3ce74bc7U, 0xbd283249bd356143U, 0x3c5478fdbd8a3f07U, 0xbb0233cc3c437916U,
  0xbd96cd7fbd91a387U, 0xbda7c9c2bda6c88eU, 0xbdacc4c4bd6575f9U, 0xbe2dcdfabc8a9c50U,
  0xbe0ad536be24be46U, 0xbd52ee5ebdf457daU, 0x3d553a0dbd7bad47U, 0x3c1b835dbce745b7U,
  0xbc8b64293d1bcb88U, 0x3d8b85203cb2c8deU, 0xbde87390bd566f58U, 0xbdd7ed9bbd61dcefU,
  0xbcc04722bb0751b9U, 0x3d2b1d3b3d4a8b61U, 0xbd43b79ebce46342U, 0x3ccf07d33cf0b664U,
  0x3d33f6973db42376U, 0x3cd51fe73ce1177dU, 0x3d98b49abb18cbdeU, 0x3d195e4b3dd3926eU,
  0x3c2a6d1ebca93211U, 0x39d7c4ae3c5a6928U, 0xb96c44cbbc3e9af9U, 0xbca795dcbb71fbceU,
  0x3c3478fbbd0b333eU, 0x3d9666ce3d4b179dU, 0x3d9966b83d67f82aU, 0xbced57973d212e3cU,
  0xbdb3ce4a3b44681bU, 0x3d1ba48bbca4a261U, 0xbd643a23ba586be8U, 0xbd98e9d7bd90a6bdU,
  0xbd817ed5bdc71218U, 0xbce19082bd776ec3U, 0x3c9a8974bc9c1b0bU, 0xbce779153b418eeaU,
  0xbcb0adfebbab1554U, 0x3cf65a253b35ae25U, 0x3cf851d8bc999d2bU, 0x3d17311cbcb037ddU,
  0x3c8abe913c91cfc0U, 0xbccae47fbc6ab952U, 0xbd20649abd2274b1U, 0x3d2276c23c9d1c64U,
  0xbc59be5e3c59a54dU, 0xba4455db3bd664aaU, 0xbd0b7216bc9e3ca3U, 0xbc490dd5bb6c18deU,
  0xbc421042bbccbcc9U, 0x3c0fd4ab3d140e08U, 0xba2e82dabbd2569fU, 0xbcd465bebc13b50bU,
  0xbd6b5b7dbd40b8c7U, 0xbc7d07d8bcc9d001U, 0xbd092ea2bcc69b24U, 0xbd198788bd26f84eU,
  0xbbc0ef3cbbba70c2U, 0xbd51a606bd2550cbU, 0xbd7d409fbd90e7beU, 0xbd675156bd5b5a56U,
  0xbd699675bda0f62fU, 0xbd17efaebc8d5ccfU, 0x3c2eb750bc73d25dU, 0xbd1e5051baef854cU,
  0xbce67615bd457f2bU, 0xbd47edd4bd5dbaa5U, 0xbc61c733bcea9cdaU, 0xbd79a9babbcbc86eU,
  0xbd2fc2aabd42e35bU, 0xbce8e607bd8465fcU, 0xbd4ef342bd06f323U, 0xbc21f198bce8fa90U,
  0xbc8a24b9bd38f3bdU, 0x3d538777bcceb0d1U, 0x3caeef673d40cdbbU, 0x3c5489233d88a686U,
  0x3ce32d253d84c5bdU, 0x3d72c2153d605cfeU, 0x3d24230f3d24b4a6U, 0x3d0687f13cab23c3U,
  0xbb683aa63d3cb4eeU, 0xbbe587c1bc109a46U, 0x3c0050b3bca488f8U, 0x3d6291ba3cc76ac0U,
  0xbb852a053d21e5e7U, 0x3b6fbcda3d1440fcU, 0xbbfceb613c09caf6U, 0x3b1be3c93cce3c9aU,
  0x3d46ea1c3c60b592U, 0x3d23b5ae3d6ec217U, 0x3d1658e03dba1624U, 0xb88271173d1c96eeU,
  0x3ca3df623c940ef5U, 0x3d23f7f83c89810cU, 0x3bcf227abc9c22c8U, 0xbd8cb2bfbd2c0eb8U,
  0xbd530d3ebcc7f0c8U, 0xbdb84124bd933032U, 0xbdd8eedcbda6ebd7U, 0xbd349095bde55bfdU,
  0xbd802684bdca2bc1U, 0xbd274d92bd8d3bb1U, 0xbde65fd0bd21ae06U, 0xbddb40b0bdb50eeaU,
  0xbd42bb39bd8aa482U, 0xbd99a763bdba4c1cU, 0xbd4714dfbd9bbffaU, 0xbd83e0693b5ee932U,
  0xbd8937cfbd65b8b3U, 0xbd889ee2bdd4539eU, 0xbdc0e99fbd672404U, 0xbcf26c54bcfed1d0U,
  0xbcc0a7563d00b22fU, 0x3c932b223d5aeadaU, 0x3d33b1a13dac76feU, 0x3d97b6133d970019U,
  0x3d908d053da13b72U, 0x3cb6e59d3d81c9e2U, 0xbb5b1038bc0da7aeU, 0x3bcf04643c27a324U,
  0x3c4e606fbcff800fU, 0xbc9331eb3b42658bU, 0x3d08f4123cb000c1U, 0x3d86fcaa3d984333U,
  0x3dd30dcf3da43d30U, 0x3d2a99b03dbe146eU, 0x3daa2fd43d87ea57U, 0x3d03e3733cdf6aa1U,
  0x3d88f8603d48b920U, 0x3bbe50ef3d8de991U, 0x3d7fe94b3bdcb15bU, 0x3d09425f3c1acd23U,
  0xbcdfa4283c871886U, 0x3c1dec8b3c2c5d22U, 0xbd0559febd15c933U, 0xbe1a2952bddd81deU,
  0xbdd7c69abe2b170cU, 0xbda0e27cbe3168ccU, 0xbd6000c5bdbbbcaeU, 0x3daea3513c971bb6U,
  0xbc7cc8083cf7cd6aU, 0xbd88101cbb5fd1f7U, 0xbd3ccb0dbdb587d4U, 0x3b85f37abd320b9aU,
  0x3c0163a0bced005bU, 0xbcbcf7713c1814b4U, 0x3bb38ce0bd0f5e86U, 0xbc4f67883be6a1d4U,
  0xbc81607f3b6977f7U, 0xbc7b9eb03bdc31ceU, 0x3c766892ba81993aU, 0x3d61a6f03d169ff3U,
  0x3d57c8063d733dfdU, 0x3d4ea38e3bd5b2b7U, 0x3c45da8a3d0e573eU, 0xbda002b5bcd41977U,
  0x3d0a843cbdc6d07bU, 0x3d0256243b95f30fU, 0xbce28ce7bc8138adU, 0x3c5a420bbce6e1cdU,
  0xbd0320163bfb8f64U, 0x3b877f66bcd56e64U, 0xbb14ac313bdc725dU, 0x3c4bada03d3b936cU,
  0x3da495993d6e10b3U, 0x3d3856c23dbe5fd7U, 0x3db6f7273dcb7ec0U, 0x3dd1ed353ddfa048U,
  0x3d6595253d5374fcU, 0x3d83ab693d0165a8U, 0x3d6df7d03c9e902bU, 0x3d76fc0a3d3c7754U,
  0x3d6b2e743d627e0bU, 0x3cd58cd13c4f33d7U, 0x3d79d36f3ca18a94U, 0x3d4337be3d3d71edU,
  0x3d0ccf353d540c76U, 0x3c1d47d13d25682dU, 0xbc6ed98e3d39af96U, 0x3c983b3cbc96004eU,
  0xbbde6a733d150344U, 0xbc68682a3ce8be42U, 0x3b9c00abbcad34b4U, 0x3c64fec43d18ad73U,
  0x3c50c54d3d5b375eU, 0x3c58c8843c6cbf87U, 0x3d3cf2d93b04829eU, 0xbcb0d213bc9a9cbdU,
  0x3c9a2c6ebca8aa56U, 0xbb9e9d153b712372U, 0xbc899838bd11aa17U, 0xb909ae05bccddaa7U,
  0x3cc790aebbb1a499U, 0x3ccd2e623d1eb3cdU, 0x3d130d793b1456f7U, 0x3d82014f3c70d6c9U,
  0x3d9581d93d4c7af2U, 0x3c848f213cc40079U, 0x3d75044a3d5158efU, 0x3d39fdd03d0086a3U,
  0x3c93d03f3d50a4b4U, 0x3d345d483bf366b7U, 0x3d51d9853da0679eU, 0x3d8d4c193dab072fU,
  0x3d785a4c3d8461ccU, 0x3d36b3c73c19857dU, 0xbcae83903c2c442cU, 0xbce7fccbbc414609U,
  0x3bcb8071bc5fc685U, 0x3ced50ad3c975594U, 0x3c9d6bb43cbe4f1fU, 0x3c8083363d27cc56U,
  0x3d5b6dfb3d943d7fU, 0x3c0da1613d6063e8U, 0x3d514f773d7ea8b3U, 0x3da275883c80939eU,
  0x3d5ccada3d23e440U, 0x3d89149f3da1825aU, 0x3b91ffc73d991218U, 0x3cbf52cb3d37db26U,
  0xbc53171d3cabeebeU, 0x3d2e15153bff13e0U, 0x3d0d6fef3cf8a499U, 0xbc40e3b93b1a0f34U,
  0x3bfd41e53c428e13U, 0x3c80a9aabb16b3d9U, 0xbc8a4a283cd552eaU, 0x3b5d8379bc98d9feU,
  0xbbd6693dbb7375a5U, 0xbb82782fbbcff48cU, 0x3d179a32ba0f369cU, 0x3ba6d74a3cf5abcbU,
  0xbc53039cbc985888U, 0x3c2f623b3cddf3f2U, 0x3b30e6aabcdd6409U, 0xbc6b6c033c937c30U,
  0xbc2ba0fcbc082340U, 0x3d1fc29c3ce1a164U, 0x3d313efebc0b755cU, 0x3ce4d6fc3d037911U,
  0xbcb5a2083bcb60c5U, 0x3a825aa63ccdb2f4U, 0xbce2d405bcd935b9U, 0xbd48c78cbc1c75c4U,
  0xbd137cf6baf29000U, 0x3c86209bbbb2e566U, 0x3d023f823bf33058U, 0x3b8096f13d15af97U,
  0x3d2487553ceff634U, 0x3d05ddcc3d8cfb1aU, 0x3ca83b60bc0ed7c9U, 0x3d138f933d84ef5dU,
  0x3ca1200c3d59f1cfU, 0xbcaf0f093ce3f4b9U, 0xbcd94b7f3c020f2cU, 0xbc77a20bbd3a61bdU,
  0xbd5125a5bd01beccU, 0xbc2c1729bd035f3cU, 0xbce0ef85bc9f372eU, 0xbcf9794bbd1a5772U,
  0x3c6258583b97285fU, 0xbc742e2ebcd4b7d6U, 0xbc9b60433c34a100U, 0x3c02736b3d45cef9U,
  0x3d061b813b592d4dU, 0x3d223c1a3d42b4d3U, 0x3d6d73ef3d8b7ee0U, 0x3d0b614f3ce712edU,
  0x3ba3b92b3d13b3daU, 0xbbc0d982bc49b036U, 0xbd63a2babcaaff96U, 0xbd1e1beabc85c7aeU,
  0xbc885a973c66f9b5U, 0xbc75caa6bbdc3047U, 0x3b990fccbc59c07dU, 0xbbad575e3c3f4fc1U,
  0x3c3f4225bbe701afU, 0x3c005f63bc3ce4f4U, 0x3d38e0863cea6c93U, 0x3d60c5463b5c4a0aU,
  0x3d4a115f3d562348U, 0x3dad1b2c3d8c4287U, 0x3d7243ab3dd1d63cU, 0x3de7d5d13d9a11e8U,
  0xbfaff6bcbfd2e473U, 0xbf7868ab3fc182c4U, 0x3f0667c03f6947a8U, 0xbfa29cccbd77887dU,
  0xbf25cf7d3ebb4a25U, 0x3ed6e3e63d6c6715U, 0xbdf441a23f1a1737U, 0x3e1a1168bee03e5cU,
  0xbeb2d07b3f437848U, 0x3ec1b4a2bf5e1085U, 0xbc79f3d6bf3c8532U, 0xbf7fc566be032cebU,
  0xbe8e5fd73e6ad17bU, 0x3982da24bf241d96U, 0x3f46933b3d965441U, 0xbe71a52a3f1b4209U,
  0xbd842852bdc2e413U, 0xbc8cd0bfbcd052afU, 0xbe503144bd54b966U, 0x3e6919353e65446dU,
  0x3db584c43e58ba99U, 0x3eac7b8e3dc82487U, 0xbf4918bdbee04323U, 0x3e15565c3f1cb383U,
  0x3f3ad58cbf119a36U, 0xbf241d55beedec8eU, 0xbeb45a38bf003f05U, 0xbfb96ec83f106a45U,
  0x3f6d426fbda557bdU, 0x3ec5b4eabf137d74U, 0xbddde8963f0302faU, 0xbe09cac2bd7841f9U,
  0xbdcd1ec73e2c3fa3U, 0xbecbc346be3c1e17U, 0xbe8d6e21bf19d07dU, 0xbdc9e4633f19f432U,
  0x3f5886f6be5d3e90U, 0x3cb50352bf3c89f0U, 0x3ec37953bf28853cU, 0x3f0bab6abf5df2b9U,
  0x3d5d37d33e06ae73U, 0xbe072d6ebd7193b1U, 0xbe05ed53bdd0adacU, 0xbd49fee73e16cbcbU,
  0xbd667dbcbe489786U, 0xbe15b608be42b278U, 0xbe81e89d3db23c9dU, 0x3c224b1fbe89b450U,
  0xbe2dbb013e02b250U, 0x3e8832b13ddcf9feU, 0xbc6285423d426d6aU, 0x3e7e83f03e6501d3U,
  0xbe022e353c908943U, 0xbc5cee513dfc7662U, 0x3e7ea7acbd6b01d0U, 0x3e1b65103e6bfdbaU,
  0x3e8d7a43bdadfdc0U, 0x3e8b2e9c3e74f51dU, 0x3daf61c93da0feaaU, 0x3ea45371bd43c3b9U,
  0xbdd3690f3e076380U, 0x3d8875d63eac5909U, 0x3cb6c1213e58729aU, 0x3e7979843d291bf6U,
  0xbc88cec03e063382U, 0x3e1db39a3d7a9495U, 0x3cea6d093d6b198cU, 0x3e3f25e43e3b5f65U,
  0x3e44199fbb91345fU, 0x3d83c38b3d521038U, 0x3d2e31e53e31480dU, 0x3d6721333d5bc120U,
  0x3e3620ffbd36f00fU, 0xbdc5efc1bd96d98dU, 0xbcd8fe153ce2a5b4U, 0x3d3b19e73c82dc15U,
  0xbe4f09dc3ec1b065U, 0x3d0afc8dbe0b65d2U, 0xbe8c7427be9a54e6U, 0x3caee5203d937b9eU,
  0x3ccbf4e0bde5acdcU, 0xbda53ea6bbeb8336U, 0xbdd4d7bb3e1fd7ceU, 0xbe9839cc3d60b0dbU,
  0xbdbb03e0be3d1f5bU, 0xbead0b3fbda8e34cU, 0xbedc3d653c649788U, 0xbdd0aecdbe9b3df5U,
  0xbe643367be46e666U, 0xbe5263f9bdcf7e1fU, 0xbd971a153cd76803U, 0x3de08340bd8ffc11U,
  0xbdf9e2583d2d6937U, 0x3e31dcadbe060fc3U, 0x3e124aca3e08c015U, 0x3ca8fde3bdca4a7bU,
  0x3e6787a93e6a980bU, 0x3e8231de3e51874bU, 0xbd9415133ccedbabU, 0x3e49baeb3e49bb13U,
  0x3b9c7173bd9430ddU, 0xbd9427c43d055309U, 0xbc94eabcbc840fb0U, 0x3c342eab3ddc88d1U,
  0x3e5baf543deb5f98U, 0x3dd2296d3db6e253U, 0x3dfe3f5d3d4810b5U, 0x3e57d2b13c46306bU,
  0x3db72ddb3e4e55f2U, 0x3de3327c3e399986U, 0x3e48cc033e0a8f08U, 0x3d75c369bc7df869U,
  0xbd650d273d3a55ecU, 0xbda496f5bdf8267aU, 0xbe098be5be333f2fU, 0x3c72c0a1bdfa19a2U,
  0xbd9f73d33de2c8a3U, 0xbe24251a3b350bb0U, 0xbd324ed4bddd97c8U, 0xbe0826343dad639aU,
  0xbd6593663ba205beU, 0xbe0b38b9be2fa53bU, 0xbd5be6e63d89ecb4U, 0xbda7c2e93dde48feU,
  0xbe6c7a4e3ca143e4U, 0xbd99ee15bda8ef2aU, 0xbe2cb124be7e2980U, 0xbe33d81fbe119026U,
  0xbead8b6cbd6a38b8U, 0xbe84d0d0be3ee5e8U, 0xbdd33abbbe6798f7U, 0xbeaf092cbe5e7b90U,
  0xbe5e3309bdd34af7U, 0xbe52bdfabe36889cU, 0xbda319253cdfcb5cU, 0xbd391c66bd98566fU,
  0xbf1eb1093f56e89fU, 0x3f7b819cbf74af28U, 0xbf18ff4e3f01b831U, 0x3fae50fd3f6861f5U,
  0x3e8c4e833ef580eaU, 0x3faf4485be974299U, 0x3f9b65b7bd1529c8U, 0xbbde5ab73f211cacU,
  0x3e414e16bf4ff8c0U, 0x3f56588d3f0e6cdcU, 0xbec4512abfd257faU, 0xbf060468bfbf21d5U,
  0x3f7aca31becf4b0dU, 0xbf85c454bfdd5710U, 0x3eba05dd3f1d3531U, 0xbdce3aa0be9e183bU,
  0x3f047c46be15e9e6U, 0xbefc440cbf109985U, 0x3ea5b0653f280bffU, 0x3e1dde3c3f1b47c2U,
  0xbe882757bf1363f2U, 0xbe9e97a23f2fa699U, 0xbed5438fbdf00221U, 0x3f048cc13eba3f0bU,
  0xbfd457c6be679bc3U, 0xc02b6754bd62fd76U, 0xbfbc00e03f4b3c70U, 0xbfe71b0f3d5ffc37U,
  0x3ea85990beeecdc5U, 0x3ef4d55c3e0a081aU, 0xbf274e38bf329c3cU, 0x3f5e40d53eafa9b6U,
  0xbf533cf83f6e1b5bU, 0xbf104e583ea99bc0U, 0x3f2a79f6befaf78eU, 0xbf54c3033f6a4f90U,
  0x3f155c63bf1c1688U, 0xbfda3f403ecd1a9cU, 0x402aad5dbbe28d40U, 0x3e46df10bf09373fU,
  0x3deb4ac03eab4609U, 0xbee31dafbf856380U, 0x3ef3dbf93e7b0ec7U, 0x3e1e0878bf3ff851U,
  0x3e27f093be03e055U, 0xbfbea830beabe874U, 0xbdb64457bebfbd9dU, 0x3bfdf4dabf7f94a3U,
  0xbf19d4c3bfad0635U, 0xbec0e73dbfa04bc8U, 0x3cae4f9abf58c38aU, 0xbef2326bbf98e9bcU,
  0xbf7f2fe9bf2c84eeU, 0x3e1b0274bf5f0c79U, 0xbe829bf33ecf6b84U, 0xbe1e97d63f19934eU,
  0xbdcb2502bedf85a5U, 0xbf1d5183be6d198fU, 0x3f298ad23e8537a3U, 0x3e4e3c6ebd496093U,
  0xbcc7a0333ec5b25bU, 0x3e718877bde2bfd7U, 0x3f066d043ccea6fcU, 0x3eb03a463e97425bU,
  0x3e3322083de65854U, 0x3e18aca0be628377U, 0x3daddc4bbd592ab6U, 0x3f3572113e4caae3U,
  0x3ee357aa3f0b1578U, 0xbe763d063ee5c2f2U, 0xbe626b14bd0ff76dU, 0xbdd851b2beed5c71U,
  0xbe326091bec274cbU, 0xbeb97c56bed1ff95U, 0xbf03097abe741466U, 0xbf109d5dbd16f4e8U,
  0xbd9be16fbd683fb0U, 0xbd86a9b3be9cbc61U, 0x3e84c568bed614f9U, 0xbd786e8cbeec34e1U,
  0xbce1405abd61e980U, 0x3e0ad85fbe3da282U, 0x3c0979503eb538b9U, 0xbecaa1a23df2c9a4U,
  0x3d9bd347be4d7e42U, 0x3d1ed137bdae709eU, 0xbd94c6d53e38fa37U, 0x3e6b1e1e3ef10456U,
  0xbe4db1103d27b69dU, 0x3ccf0171bea6e258U, 0xbd022907be9e4faeU, 0x3e8d5de83e8d1352U,
  0x3dcebee73efd961fU, 0xbe8880ecbe1252c6U, 0x394687f33d3af0f8U, 0x3e4a87133e00995dU,
  0x3e978795bd6a1cf9U, 0xbe07d3b33e65b9a1U, 0xbcae9c43be85110fU, 0x3ea3fa203dc6a658U,
  0x3e9b92293e8a82d3U, 0x3ee9cab83dfce9b8U, 0x3e5ed7a53e0128d6U, 0x3e02b30a3a95c8baU,
  0xbd3e29443d97190fU, 0x3cfed6563eed303aU, 0x3e98c9c63ee4dc60U, 0x3eeee26c3d2a2b57U,
  0x3defe1ea3ea04c7dU, 0x3e45e3a33e0f5532U, 0x3f03dfe23e783af6U, 0x3d8912abbc236237U,
  0xbd8d3a9b3f3786b3U, 0x3e8677e43edc8de0U, 0xbd23304e3f7b6c1cU, 0x3e843ea23f008eb9U,
  0x3e8d4d673f148fd3U, 0x3dcaa19b3e1f2a15U, 0x3db5ef6bbd594dc9U, 0x3cbf910bbdbc7b8cU,
  0xbeea859abf525473U, 0xbe8256d53e5342dbU, 0xbee81f2dbe5794e9U, 0x3ebd21fdbf125dc1U,
  0xbf07f0f0bee08bd6U, 0xbbf6e344be9968f2U, 0xbead79e73ec063a9U, 0xbe9006f13e90a3f9U,
  0xbec76e4abf303bd1U, 0x3d98de84bed73026U, 0xbf02f9d23e3d840dU, 0x3f01325abdc14bf4U,
  0x3e3a207b3de18629U, 0xbec855973e7f579eU, 0xbf8cee65bf10f889U, 0xbef68f2c3f2f92f9U,
  0x3eb3cd00beb30ec7U, 0xbe487362bef1bd97U, 0xbf8751353e40634cU, 0xbefffc783e8b01e9U,
  0xbf2dac34be931c03U, 0xbcbda4e5bf0ca2a1U, 0xbef6516bbe82f7f3U, 0xbe029ab9bf006da4U,
  0x3e9f4fb53ef0ab1bU, 0x3f239baabeaa9927U, 0x3f60b11d3f83f864U, 0x3ddcdb523f1c8e51U,
  0xbe3315503e985182U, 0x3eeb1fe63f0d1d8aU, 0xbeeacd663d7e273bU, 0x3dc50936be9216daU,
  0xbe6a3aba3e79a6aaU, 0x3e9bdd793e529a82U, 0xbda5ff013eee8c5eU, 0xbe97c5bfbeeb7faaU,
  0xbc97aab8bdf56d4fU, 0xbe90a428bf29a1e2U, 0x3f20330bbdff122fU, 0xbee114ab3eefe91bU,
  0xbe01658cbef73551U, 0x3ec9c5143f2aec0dU, 0x3dfe5db73f1c9941U, 0x3f56ee693f3ea0faU,
  0xbf79a31a3ec43eacU, 0xbf3f53eb3f26e53aU, 0x4025d94bbfaece0dU, 0xbdbd93cf3ffb6c65U,
  0xbb0a25f1bdb15be7U, 0xbda61c01bdc09968U, 0x3f1aad10bf02008cU, 0x3e9f9a36bf5cb1cfU,
  0x3f262e9fbf756e2eU, 0x3e324340bef6a39fU, 0x3f50a37c3e27bb60U, 0xbf37549cbfa0613bU,
  0x3f195704bcbce77fU, 0x3e76d731be49a7a6U, 0xbf14af13bec612feU, 0xbf311f223f1bf2d5U,
  0xbf973bdbbfafc383U, 0xbf8a5d6ebf076889U, 0xbe52405fbf788cccU, 0x3f6cb2433f79766aU,
  0x3f628a8a3ed9c0a4U, 0xbed8acf8be4251b7U, 0xbeea582ebe5708a1U, 0xbeadeecb3ea7413fU,
  0x3ea994443e877aa3U, 0x3f349ff33f486337U, 0xbffaea2f3ea5b7bcU, 0xbeaf03ef3f7555e8U,
  0x3f31a14a3df655c4U, 0x3f31bb20be04bed2U, 0xbf77c6503c8a64eaU, 0x3f1261183f5066ffU,
  0xbcaa77613ece2a6fU, 0x3f1bff90bde6799bU, 0x3eff3780bf1e85c7U, 0xbe81a686bf2097d8U,
  0xbf0c0b2bbe6bc1f6U, 0x3fbc34e6bd5df1edU, 0x3ed674cbbf0c18dbU, 0x3f29a8fabf62c4f9U,
  0x3e2f8d213e7d911fU, 0x3e0cf3a13d9aadc9U, 0xbde6d0fd3eb3b5dbU, 0x3e97673ab95e2320U,
  0x3d8a99943e4eb617U, 0x3e337a1b3e2b3e02U, 0x3e8e4d343ed5950cU, 0x3e8d93ccbd2d08b9U,
  0xbe292158be9f56ccU, 0x3e03fa173e329976U, 0x3ecc48653dba6ef5U, 0x3e847c023e9ee6ffU,
  0x3d92b43b3996a457U, 0xbd38369d3ea97373U, 0x3de8cf363da1eea8U, 0x3e999b713e82d6efU,
  0x3d429c8cbde5c50dU, 0xbcf4ac19bd9355b5U, 0x3ebc399bbe864086U, 0x3b7c6e1f3e88b954U,
  0x3d97d9be3e86879fU, 0xbd14b5f4be063b71U, 0x3e6d727fbe9b076cU, 0x3e26975b3e16713cU,
  0xbe09ba66be5d4308U, 0xbdc22b643eabdc29U, 0x3e4129493e1e5e9fU, 0x3e3900debea17dddU,
  0x3b8993d9be6fee04U, 0x3eaa71693e44972cU, 0x3eb44d1c3f06230fU, 0xbd66dbedbf20e849U,
  0x3c732b58bec19614U, 0x3e0171b0bd94ae2bU, 0x3e9528513da5eebaU, 0xbe84e1babd9693f4U,
  0x3c5151b7bca9bf2cU, 0x3e8f7871bf031f98U, 0xbe7056d4be959b62U, 0xbe5b83ca3eb265d2U,
  0x3d48f072be705e7aU, 0xbf083295be30832eU, 0xbeb9fa8cbcde0ab1U, 0x3b7104ec3e75580aU,
  0x3dcd0f4cbd1b4e30U, 0xbcde77903e2a88a5U, 0xbd8f675a3cd882a4U, 0xbec1ae46bdc0dd0eU,
  0xbe1b5ebdbf0499c6U, 0x3e74e8f3be86338dU, 0x3eafe1703eb85f09U, 0xbe112ce5bd84c2daU,
  0xbe99c274bee41765U, 0xbe124d03bebd1b2cU, 0x3ebb47703d90d7a1U, 0xbe08560e3e0e4430U,
  0xbea274a2bd4fbebeU, 0xbd638de9be8fa6b8U, 0xbe2d39cebe1b07b3U, 0x3e04c1b63d8904dbU,
  0x3dac04393e719cc8U, 0xbea6bfc9be4cc153U, 0x3ce8aa943e35bfc3U, 0xbd2571c53e1e80d9U,
  0xbe5727ebbd8b3f83U, 0xbe54ffc8bd85bef1U, 0x3e1a23823d47d5d6U, 0x3de162b33ddedb09U,
  0x3dd024ad3e1de8a0U, 0x3d08a5b3bde2ab6dU, 0xbe5dba31be85e964U, 0x3e4d9ea03da13a67U,
  0x3d4523053e1cd0a4U, 0xbe5b78e53cfaa705U, 0xbe20e62abd4ef165U, 0x3cafc57e3c6934f4U,
  0x3d0784ea3e1e4958U, 0xbdcdd8db3e0a1490U, 0xbdad5a0cbe808cb5U, 0xbe4f3e1fbeb93b4bU,
  0xbe83688ebd3aa8dbU, 0xbdf0ad2bbbabe190U, 0xbe5a9d9abe97dbb3U, 0x3d0572d3be887593U,
  0x3e5479aabce251a2U, 0x3e0a3c943e20d9ccU, 0x3d53be86bd4b4d51U, 0x3d0415dbbda301a3U,
  0x3d8fb4f2be0ab0feU, 0x3e1f75213cde9239U, 0x3de652563da2ea05U, 0xbd18936b3e15669dU,
  0xbe9e4e5f3da18f83U, 0xbf68abaabd7a9ad1U, 0xbe9e5edfbed287a1U, 0xbf426322bf15da97U,
  0x3ea7d9b43e0d2272U, 0x3ed4bcc83e7137fcU, 0xbeb1878bbe8e4bacU, 0xbeb01e87bf4fa47dU,
  0xbf170392bf182be1U, 0x3ecb762bbe5a9e49U, 0x3f0357193ea121b7U, 0xbe2024fd3d28bc67U,
  0xbee5d4fdbf6e9d5bU, 0xbf532f10bf0f9099U, 0xbeaae13fbf24ea65U, 0x3e8dace23ebd696bU,
  0xbcbdbf023ec94484U, 0xbfb041f6bee3dd34U, 0xbe42fb8cbe6529c2U, 0x3dd388033eb0d4a9U,
  0xbc5888523f236c0aU, 0xbf7052bdbe1420b7U, 0xbf39eaadbf85ed7dU, 0x3ed517533df29addU,
  0x3e914fb73ebc8467U, 0xbec3e26e3e921b1bU, 0xbf2ee21cbf3f072eU, 0x3eaf24d1bf4e0704U,
  0x3ea213543e94844dU, 0xbe4525343ef098f0U, 0xbeda87c0bec538b3U, 0xbf2c064fbf174d73U,
  0xbf447c29bf78ec39U, 0x3f4c1983400803eaU, 0xbeccdcb0bf464803U, 0xbf970f333ec7a4e2U,
  0x3d3bd5ba3e0404f8U, 0x3d13816c3f8c65f7U, 0x3ef77a4fbf076289U, 0xbdf49f6a3f86e967U,
  0x3d54f461bea4007bU, 0xbe8f43063fc3361eU, 0xbfadee673ec6dba4U, 0xbf069a573fe3659bU,
  0x3e352766be341d88U, 0x3f8e5ae7bff8fd3fU, 0x3d08be7a3e17fc8aU, 0xbebcefa8beef6b9fU,
  0xbc88aac93de194b0U, 0xbf855e09beb2daebU, 0xbeefa517bf4a5febU, 0xbf88e6a4be106bd8U,
  0x3f0559783f759611U, 0x3f70ce71bfb27ccaU, 0xbef220103e301217U, 0xbefc7037bf37b18bU,
  0xbffc77e7bf9f0f4cU, 0xbe0254babf294ac1U, 0x3f0f1c34bdaeaf1bU, 0xbf7912a5bf240985U,
  0x3f6167763f070325U, 0x3f8349683cf34ee1U, 0x3f01cf41bf4c4c7fU, 0x3f4ced96bffb89c8U,
  0x3e15779b3e88f5bfU, 0xbf2d8c1ebfbea8aeU, 0xbea31498bfbe6af2U, 0x3f22a094be3239a9U,
  0x3f1847c7bf3d6ee1U, 0x3f7d9d543eb07d60U, 0x40485955be72b3c1U, 0x3f4c4cb5bf8063aeU,
  0x3db0aee0be4772d6U, 0xbe071ed83e4d4f6cU, 0xbd85ea9e3dbfaa73U, 0x3dce0bf93e85ee79U,
  0xbe5b8e983d4ee2feU, 0xbdcf3feabe843f9dU, 0xbe3111ebbe6c5ab4U, 0xbe6900c03aead8a1U,
  0xbe355325bd1bf63cU, 0xbe7f3dd3bdd1c42eU, 0xbe0cb316bdf9bbd0U, 0x3d9e043fbe04a54aU,
  0x3e84efdc3c4e17ceU, 0xbdcc29523d9d3096U, 0xbe6852483bc0eec5U, 0x3dfc117dbdeea283U,
  0x3e36e1ea3a98f9b4U, 0x3dc8ec02ba5e4696U, 0x3d23ea073b4f813bU, 0xbd49bd0dbdeb86ffU,
  0x3dbba8783c86008eU, 0xbd286f653d12288fU, 0x3e0d9e42bbeb8660U, 0xbbdc90dd3e01c0c5U,
  0xbda6be8bbe28684dU, 0x3e20d3e83dea9da9U, 0x3d1bdafcbe0bbcb4U, 0x3e14677dbd7f455fU,
  0xbe1f85d7bd05e888U, 0x3d734428be5a3edaU, 0xbd67a0903e0e403aU, 0x3e7499123ea6c4b6U,
  0x3e5c03453e8dc24eU, 0x3dc5325ebe1da2ecU, 0x3e86cc383e5ab7ceU, 0xbdbef3c0be07f835U,
  0xbde5ce933e501ddaU, 0x3bf100003e7221a5U, 0x3eaf575b3e38d423U, 0x3b903fb73e81b831U,
  0xbe30fcec3e0addceU, 0x3d5114aebc364087U, 0x3e9d53433d219227U, 0x3eb943793d1e6a4bU,
  0x3e26343f3e792148U, 0xbd2a61363e564c38U, 0xbc09bd5fbd96b3dcU, 0x3e69c8c83e1dcc58U,
  0x3eb113773df715a7U, 0x3e17f4903e440262U, 0x3e22db3abcfa9d62U, 0xbdafa9b6bd412df7U,
  0x3dee94343d2df378U, 0x3d8f97c83e35167eU, 0x3e4a21303eb8c317U, 0x3d2c61dabdde2d09U,
  0x3e29ee3d3e8683adU, 0x3ebe04493e9c9b82U, 0x3d3637e43e443c65U, 0x3b034ebe3d71a80cU,
  0xbe0697273e5f2e90U, 0x3e0ad3853e069dccU, 0xbd5558dfbd89c043U, 0xbcf192a9bdbddc53U,
  0xbde6158ebcddbebcU, 0x3dd49b593d6bd136U, 0xbd51fc9abd969307U, 0x3ca03360bdc13a94U,
  0xbe083836bd660231U, 0x3d983db0bc515784U, 0xbd809a4bbc0eaef9U, 0x3c349ec4bd55c7ffU,
  0xbdbca25cb9d1a4a1U, 0xbc84905fba0dbd4bU, 0x3d2a58493d0a5f66U, 0xbe0b85b9be1af677U,
  0x3bc9cc62be076d4aU, 0x3dc2ff17bdf5cdd2U, 0xbd476b13bcbe4963U, 0xbd6a21463e9e6c21U,
  0xbf477e05bf1207b2U, 0xbcc0359fba93f39cU, 0xbd4c6d3fbe6fe022U, 0x3e647bf2bd89868bU,
  0xbed2d4bcbe8eb6e2U, 0x3d8696113e1f16c1U, 0x3e05607fbd6dcc4dU, 0x3ef51efebe84472cU,
  0x3b7f5aca3aeae5a8U, 0x3e27aac9bec97e6dU, 0x3cd6a6a5bdbe58abU, 0xbdb9afd5be56c608U,
  0xbed9dcf53daf9797U, 0xbeac3674be76ca9dU, 0xbdffc2a1bec20604U, 0x3dc3e6763e27c1e2U,
  0xbe420006bd1f9411U, 0x3da17329be903657U, 0xbec2dd4dbdd58852U, 0xbe793b70be216c4dU,
  0x3e236d4fbe09f2a1U, 0x3dca64473d24a2a3U, 0xbd80f036bc880e36U, 0xbe49c0873ca7e068U,
  0x3e50f04ebe639f83U, 0x3dc3aaae3ce26941U, 0x3d6fb9923e1aa957U, 0xbdaac3a8bdd254e7U,
  0x3c86791ebd74939dU, 0xbed1485b3d84dfa0U, 0x3ebc4fa6be3bfa63U, 0xbca68a353e12ee16U,
  0xbdf971b33e967062U, 0x3e9db8cbbe62dfe3U, 0xbeea7f69beef40c6U, 0xbe6615773ce8a3f6U,
  0x3dda3947be9d2fbcU, 0xbf03f5f6bea6eb81U, 0x3db9c2acbdebf747U, 0xbe33e5413e0391a9U,
  0x3e991138bda95be5U, 0xbeb9e0bebe3a49c0U, 0x3e2740763e17c42aU, 0xbdacf94dbd572a10U,
  0xbf36144e4000d33dU, 0xbf872d38bf67c4a4U, 0x40388d27bee34336U, 0x3ff996e3be622562U,
  0x3e45a7a43f4bb684U, 0x3f3c3df6bed76a40U, 0x3f70224f3f0e5889U, 0x3de33560bf8a202eU,
  0xbd82f3a6bebdd8b0U, 0xbe30568dbf37317dU, 0x4015bd0b3efd8b19U, 0x400982403ee38757U,
  0xbed00f4b3f784731U, 0xbf7d3145be156453U, 0xbee999f83f4725adU, 0xbf211e36be3dc930U,
  0xc007d5dcbe939badU, 0x3faada293e9e7e2aU, 0xbd84acb2bf189064U, 0xc024a76c3de73015U,
  0xbf2528f33f9c3c7dU, 0xbf96261a3f98654eU, 0xbdaab9e43ccd45b6U, 0xbf8e6dadbeb257e7U,
  0xbf424cb33fc85f01U, 0x3d8aef283d48a74dU, 0xbfda84f1bde3554eU, 0x3ce7659ebf1a1863U,
  0x3e910fb5be07f4ecU, 0x3e0a010cbe832140U, 0xbeb067ad3f004b20U, 0x3e5937653e80df25U,
  0x3e2a1cf9bf0e980dU, 0x3ef3576e3f06ac0fU, 0x3e88d4303f072cabU, 0xbf0238353ea88820U,
  0x3f33953c3f0c93b4U, 0x401dbed83f4344a0U, 0x3fe5b6fabe12dd46U, 0xbf8f2a36bf380099U,
  0x3e45e0e93dc76fe2U, 0x3e812535bdee043fU, 0x3dc5a23dbe172c3aU, 0xbb8689ddbe00bbc9U,
  0x3e1846fa3e22cd13U, 0x3de6a6debded24d2U, 0x3e0b5284be6e8978U, 0xbbcc3beebe09bbb8U,
  0x3d9e736c3e266b36U, 0x3e0ea73abdda02ecU, 0x3e80933abe9293f7U, 0xbdf60cf5bd92761fU,
  0x3e457ff23e0c9988U, 0x3df7aa6abe0f31a8U, 0x3e337649be8e2742U, 0xbdbf62e7bdd31592U,
  0x3e26b5ff3d22081dU, 0x3e69ebbabdd0cc88U, 0x3dc78486be5afcefU, 0xbda15c7bbd0b9834U,
  0x3e1649d53e1dc160U, 0x3e6704fdbdf71499U, 0x3e584857be29e5aeU, 0xbd589526bdbc5158U,
  0x3e289c123d946593U, 0x3ddf4905be480929U, 0x3e047573be11d3a3U, 0xbc93e3abbe0be724U,
  0x3e6c0d933e069e95U, 0x3e125d98be1c62ebU, 0x3e77d87fbe58080cU, 0x3d0a2ee8bdb1fa3eU,
  0x3e5247383d645d79U, 0x3e437d07bdc96227U, 0x3df9d426bd23d492U, 0xbd5be183be28af1dU,
  0x3c9d71d73d11389aU, 0xbd8272873d370d45U, 0x3e141e843e6e801bU, 0x3dd767f73e0417afU,
  0x3c9cddc5bd20ac5bU, 0xbd2339b23e2ddc5cU, 0x3dde68013e40e828U, 0x3d86c5933dbf2b38U,
  0x3c40656d3d6cef59U, 0xbe144ff93e273210U, 0x3e34b3523e4b6a0cU, 0x3d5079753db04c55U,
  0x3b006e74bd7ae3efU, 0xbb6bf4be3e17ad74U, 0x3e3190d13e17ff29U, 0x3e05c0203db9137dU,
  0xbcc08db3bd73c6c1U, 0xbcb684e53dc8da95U, 0x3e40dd553e83994eU, 0x3cd0dcce3d845035U,
  0xbd8397a63c80e205U, 0xbdf6750e3e2bd7deU, 0x3dcd337c3e84bc8cU, 0x3d2a0f173dec1a3aU,
  0x3d645b483cc7b5f2U, 0xbe0073033e21c574U, 0x3e266b273e1ca07cU, 0x3d61eb873e067734U,
  0x3d0ba90fbd71dbe2U, 0xbd6155113e3517dcU, 0x3e1607ef3e3ea0bbU, 0x3d88527f3cd77eafU,
  0x3d7e87f53c80d529U, 0x3c1d6d823d77dfdcU, 0x3e43700d3e87bbd7U, 0x3dabd39f3c3dc05bU,
  0x3cf6911dbcfc64c2U, 0xbdfbd1443dc39e47U, 0xbd2b62fc3d975685U, 0xbdc151aa3cf496a6U,
  0xbca21155bdb5f11eU, 0xbe466cba3d8890fbU, 0xbd3d4b543e0fc2f3U, 0xbbab8db23df2e2a7U,
  0x3cb1aafebd97fb74U, 0xbd85ea093d0808a1U, 0x3cab06a73e2d2df8U, 0xbd35ec893d73da42U,
  0x3ce5b081bdd17c9bU, 0xbe04d2413cb3f3adU, 0x3cc444b73d9e4ddeU, 0xbdb979ff3c3418faU,
  0x3daf1196bde186e6U, 0xbdfde6763c72ab2aU, 0xbda232723e26d3d1U, 0xbcd7f68d3de1b4e0U,
  0x3db3b8c4bcd0d47bU, 0xbe25d7f83d029b2cU, 0xbd7d3c9e3df69dafU, 0x3ab3ea4e3dd1caf9U,
  0xbcd6d9183c90a544U, 0xbdcf32e13a914030U, 0xbcae5d903e257cb1U, 0x3d11dd433bfe7450U,
  0x3d3af9b63cc57e96U, 0xbd2c8b673d9831ecU, 0xbd9f871f3e2a7481U, 0x3d81b57b3d07808cU,
  0x3d6b5a2fbdb89886U, 0xbc95bb1a3c86f12eU, 0xbd5128863db760d5U, 0xbcf2576d3dc840d4U,
  0xbdb2d5a1bdd978edU, 0xbe5c401a3e3810f8U, 0x3bb0a5c83dbde003U, 0xbc1aa92a3d817816U,
  0xbddc2801bb733039U, 0xbe24fe7a3d5de580U, 0x3cbf6eb03e10280eU, 0xbdc86503bd592fa3U,
  0xbe0a7beb3d353560U, 0xbe1b8ecf3e599c6eU, 0x3cb7f9183e14c05aU, 0x3d1c73a93d45c68cU,
  0xbc9d024b3d3f9e08U, 0xbe6933f43e3329a9U, 0xbd24c2ad3db14a99U, 0xbc30ef7abc9ab153U,
  0xbbd0b2533b31ac83U, 0xbea862c73d7de48eU, 0xbd1a722c3def0973U, 0xbda64a4b3d0835edU,
  0xbbc9721b3d1903ccU, 0xbe3aef5f3e1e23b0U, 0xbdb6ee3b3dca388fU, 0xbdbc9f0dbbf1008eU,
  0xbc036f80bdc905a6U, 0xbe716cae3e0798c3U, 0x3cf935a33e0c4dceU, 0x3c2d99643da255faU,
  0xbe00ee23bd691841U, 0xbe308bff3e315807U, 0xbda470c73e160b23U, 0x3d16c2d9bd7b9a4bU,
  0xbd95fdf5bddb5066U, 0xbe5832853e05ef01U, 0xbdace7d83db21475U, 0xbd592b683d06d44fU,
  0x3ed564413e35a11eU, 0xbc14c23bbd05560dU, 0x3dc6ecf63db269fbU, 0xbdadbf3a3e5ba3baU,
  0x3ea904913e0b27b4U, 0xbda7329b3ca1729cU, 0x3e07ff1c3bdafc3dU, 0xbde6235b3e037a86U,
  0x3eaee7303e6ed1c9U, 0xbe00478a3dba646eU, 0x3daceb963d78fa82U, 0xbd9076653e4f58ffU,
  0x3ead642a3e152e5eU, 0xbe0e4015bd3db055U, 0x3d932b023d1206d9U, 0xbe06c19b3e2af57dU,
  0x3e95aa5a3e16620dU, 0xbdd199f7bd082c75U, 0x3d5f43c63db49989U, 0xbcc61b753dbe166aU,
  0x3ec27a983e517c54U, 0xbddfd8d53ca01131U, 0xbc0f2e49bb870fadU, 0xbdf90caa3da56b81U,
  0x3e9db0193e6a7503U, 0xbe2e0c72bc5f7bfaU, 0x3cb7fa073cd19384U, 0xbdf655843e0d29c3U,
  0x3ed3f67d3e5566a7U, 0xbe0320d43d0834d2U, 0x3d823efd3d0317a0U, 0xbd28cb593d218896U,
  0x3e95168f3e306ec6U, 0xbe80573b3db03c2bU, 0x3d628da63d0c3a05U, 0xbdff32ca3da855f9U,
  0x3dbbfdd73d1d1ec3U, 0xbcba464bbb122356U, 0xbdfb11303cdc5301U, 0xbccc23d03d9228cbU,
  0x3da2bdaa3baa50d4U, 0xbd291c42bd2fe224U, 0xbe0fd79c3c380f0fU, 0xbd75e7313bbb8d3eU,
  0x3db83770bca4f4a2U, 0xbd40be7e3d0534ccU, 0xbddb666c3ccbba56U, 0xbd15e7423d507c8cU,
  0x3dc9082c3ceaa14bU, 0xbd866a113d58fa39U, 0xbdc69dc4b8ee4533U, 0x3ca02aa0bc69c5c1U,
  0x3e100b483d551ca0U, 0xbdacff133c005790U, 0xbe15e7aa3b8d70cfU, 0xbb2be5ed3d1685a0U,
  0x3de4bf2b3d64055bU, 0xbca89f39baa4d099U, 0xbe110476bb6360b0U, 0xbd2d0021bcde4243U,
  0x3e1e868d3d708d74U, 0xbd7b67533c2be82cU, 0xbe1798f03d4f69a4U, 0xbcdd50ba3c98676dU,
  0x3de277873cf80fa7U, 0xbe0dce7c3d66c84aU, 0xbe13cdf3bd0d10adU, 0x3c6e70703d330907U,
  0x3dd6ac9a3d9f5c9fU, 0xbe1b09c1bd0aee3fU, 0xbd861f1dbc4e6ad4U, 0xbdee64563c190d05U,
  0xbceddab53e33afc4U, 0x3e456c84bd63f858U, 0xbe2b33aabc039999U, 0x3e6709673e40e756U,
  0x3d01c35a3e6d82cdU, 0x3e5080133d265de6U, 0xbe5e1bc1bc9226e8U, 0x3e43f18c3e1c5ff3U,
  0x3d7011763e2fc9ccU, 0x3dc3b834bd02d599U, 0xbe35dc24bc61b802U, 0x3df3c27f3e3417ffU,
  0x3b6ec7673e07863bU, 0x3e2d7f86bde7f3fdU, 0xbe6498de3d29f5ccU, 0x3dcfb3eb3e1e79f0U,
  0x3da1a8a13e15b8fbU, 0x3e0828313cf37b64U, 0xbe879ef0bd4a857eU, 0x3ddb764a3d0f479cU,
  0xbbcd4d493e13a265U, 0x3e464d7b3c958f64U, 0xbe30bd0bbc4a6ca7U, 0x3e5a860b3e407ffaU,
  0x3d88b2c33e62e3f4U, 0x3da7f01cbd04d34dU, 0xbe359963bc892619U, 0x3dc523a53e067fbcU,
  0x3dc8bfb93e5bde5dU, 0x3e1aa5dabba74fb5U, 0xbe00868f3c08fb31U, 0x3db8f8303dd5649dU,
  0x3dc7ef963e24ac76U, 0x3e304551bcd8e68cU, 0xbded6136bd95332dU, 0x3dd34ef33dce4663U,
  0xbd844c153d054edbU, 0x3c599bdf3e0828d0U, 0x3e8e7ab43c7625a0U, 0x3de843353be1ba97U,
  0xbc86a9063d98051aU, 0x3d579ef23d73b953U, 0x3e544fd73d97d810U, 0x3c3930e0bc2d3b2aU,
  0xbcfb96393cddcc55U, 0x3da8f7ae3e4146a5U, 0x3dee72723d8c7ca0U, 0x3d92abfebd957f7dU,
  0x3c9c80873d3a9a92U, 0x3ddab7993daf9078U, 0x3e4cba843e0177d3U, 0x3d489e6ebd91965eU,
  0xbc43a499bd1176e3U, 0x3d56a64d3e4a7e6cU, 0x3e71b9c43ceceebaU, 0x3de76756bd3f2811U,
  0xbc5b1cbbbce34975U, 0x3d42a79e3e78f41fU, 0x3e33fb0f3e00b733U, 0x3d9eed79bdcd6791U,
  0x3d04b639bc0d6279U, 0x3d6917b03e33bcc3U, 0x3e895d793d506fa1U, 0x3cec94f0bc2d68c0U,
  0xbd5c03073be545d2U, 0xbc27393f3e01ff0dU, 0x3e7182203d86891cU, 0x3e21597ebe05a1b4U,
  0xbcfe98683bf16dadU, 0x3da59c3d3e63295fU, 0x3e3b93d13c2c4386U, 0x3d50a82cbdaf8561U,
  0xbf5524404004ac3bU, 0xbf79e07bbfa8db59U, 0xbf5d92d63f84c83dU, 0x3ecd1b1bbec11b38U,
  0xbcdd8aa9bf1ce4bbU, 0x3e65ebdebf223a19U, 0xbe08b137be13488dU, 0xbd1408eb3e9a2405U,
  0xbdfa6eae3e42197aU, 0xbcd7c69a3ebc5f1dU, 0xbf2801c3bd6af750U, 0xbeb7ddf6bf0415dfU,
  0x3f191fc73e88cfacU, 0xbf875d653cc75e48U, 0x3f3aeaa1bef3c968U, 0xbc5e34103f687da2U,
  0xbd318e0abf4c3a3fU, 0x3d7587a03da31993U, 0x3e40335a3e87e479U, 0xbf2588ad3d7d7662U,
  0xbf45b5943f56fb6eU, 0xbeebb262beaef827U, 0x3cf1b94fbf2d0a75U, 0x3ea2378cbd8b82f3U,
  0xbeade5b73d48d15eU, 0x3d3cf457be87ab54U, 0xbf01cd973f9f0a5bU, 0x3e4f6778bdc7a6f9U,
  0xbc35d5d63e215917U, 0xbece70adbf0b5aaaU, 0xbf031d503e311f4aU, 0xbd160fc0beba7334U,
  0x3edf770cbfb3470bU, 0xbe37be563f1c2223U, 0xbf30db45bde3fac7U, 0xbeefe9cfbe9135f7U,
  0xbdbaa64dbcca47a7U, 0xbe155f3f3e7d379cU, 0xbf8b91843e8e548fU, 0x3e268210bf9fc641U,
  0xbeb65f2e3ef819d9U, 0xbe73b6ed3d3c0d00U, 0x3e5be822bf482edaU, 0x3e9f3703beec44eaU,
  0xbfbab976bddc7b21U, 0xbe3f2115bfb091f1U, 0x3e6cbb98be050cd3U, 0xbf059cabbfb5f61dU,
  0x3d36b3a8bf579167U, 0x3e9d531ebed61f45U, 0x3eefffeb3e7886d5U, 0xbe8d44933f5bd827U,
  0xbd0f91273e22e661U, 0xbcfe3284bf478a9aU, 0xbc244c19bd93c49cU, 0xbe27ea79be2e9dc9U,
};


ai_handle g_frfconv_weights_table[1 + 2] = {
  AI_HANDLE_PTR(AI_MAGIC_MARKER),
  AI_HANDLE_PTR(s_frfconv_weights_array_u64),
  AI_HANDLE_PTR(AI_MAGIC_MARKER),
};

